3E173EDA
3BCC39E3
3E735EF4
BC9D3712
3DB8C2A3
3E1B1B69
3D1FB026
BCD2A7C2
BE4766D0
BDB49AED
3D8BBB97
BE4AE2AB
BE3F5B67
BE21F3A1
BDAC29F6
BE084683
3D16DED0
BD9A0D68
BE2C7DB9
3D321315
BE284484
3E581E15
BE8BDE31
BE6A8639
3DC63009
BC562180
3DDB99E7
BCD04ED4
3E59F4FD
3E30111A
3D9D47FD
3E1090E9
3CA9D68D
BD55A4E2
3D914D87
BE136DE2
3DD0F943
3E3F8BFD
BDA7FFE6
BD717B8B
3CFCBCE6
3BBB6A32
3E102065
BE5C5C25
3DCAD1D5
3D4D18A4
BE3C1A23
3D212DD1
BC50A21C
3D910783
3D533B05
BD0AA27C
BE4DEC96
BCEBA63B
BB27CEB7
3D9747CC
BD3EC489
3E13993C
BD822263
3E2ED63F
3CCCA125
BD5F210C
BC3B115A
3E0EC6CC
BE07BFC9
BD873CB2
BE067FDC
BD14944D
3E2367AB
BE4A0329
3E1BB5BA
3BBCC2FE
3E043535
BDC82759
BB78B969
BDDA76C5
BDF6DB18
3D2C0642
BBD292CF
BE18DD43
3DB3BB38
BE289DAD
3E2B4104
3D735760
BD598099
BE021EAA
BD05CBB5
3E052837
3DBC3695
3DCD5A34
BCAAB283
BE050864
BD1E657E
3D478B05
3E338C0C
3C96B0E1
3E334F82
3E0086A4
BE25F31F
BE1CAF35
3CD0B8AE
3D077EC9
BD8DDDB3
3D4EEF4C
BE2CD084
BE4EB705
3D36ED48
BDEA073F
3C443C60
3E179E48
BD982C31
BD81FB4C
3D3184F8
3DCD7454
3C954A08
BE112D0D
3E3CCE2E
BD3DD198
3E4107D0
BCB25448
3DE17EA8
BD93E5F9
3E064B10
BE21CB39
BDAADF5F
BDE6DAA4
3E39A0D8
3DFE4C5C
BDD99C9D
BD9AFE24
3D53EA94
3C954040
3C0D8120
BA097B00
BDBC9ACD
BDBF9457
BD73F140
BDA8F166
3E0E9728
3E2A3A80
3D4AF8B8
3E204386
3DC735A0
3E2297DE
BE3586C8
3C8F2658
BCE211C8
3DE08A00
3D0B7120
3DCCDBA4
BCD77D78
BC803318
BDEA2812
3BFFC2E0
3E063D3A
BE195323
BC951978
BE156D0E
3DED4FAC
BD35CD60
3D8607D0
BD49FF54
3BE060F3
BE6AFAC4
3DB3D7DC
BB15F288
BEB58019
BEBEA79B
BD759640
BE67FC53
3DB3847C
3D45E0F5
BD7159F5
3DD12E6E
3E3146AB
BB95B1C6
3DF79DB4
3E5450C4
3C53B476
3D9D2D9F
3E45679E
BE57ED4F
3D97613D
3D4F6D97
3E5812E5
BD30F586
3DFC7076
BD728C1D
BEA01560
BE27B236
3D2E39A4
3E7C2CED
3E32E7F9
BE42A9FF
BE1817CB
BD49F525
BD53B4DE
3C91E3B7
3DE2E0A8
BDDC5453
3E06D507
BD2486D8
3E47B47A
BD53832B
3DFFC527
BDA7351E
BC380344
3E224096
3BC03464
BDED60F8
3DCDC250
BEAD86A0
BE378FBE
3DE04A4B
BD65C839
BE88B272
BE2A1CC3
3E99FAA5
BEACE01A
3E71D6F9
BEA4F011
BE9F4FE1
BDE96E1C
BE4FEDE4
BD8D3EFA
3DBF73CE
3D006663
BC363B72
BE371559
3E2439F2
BDDD6393
BCD78C77
BDC3E9A5
3E063CAD
BD96B428
3D7B6D97
BCC79875
BE74E9A2
BD2609A4
3D987857
BDBA036E
3E82C92C
3D9A61DC
3E891A75
3E50BFCF
BE2C5CE3
3E28DB84
3DCF85C3
BD471B67
BCC479EF
BDF5F52C
3CBEDF5C
BD9758BC
BE2B7002
3D97FD0E
3D08BDB1
BCC854FB
BD5EE843
BDEE86CF
BD901D12
3E026A54
3B672832
3E00CC25
3D917C10
BE4BFD23
3E205833
BE5297E8
BE26E991
BC9AB924
3DBB98A0
3F0557CA
BC9758C2
3E883ADF
3EBA92BF
BE23D62E
3E3CEC82
BD4433BF
3DAB61B0
BE1E61F1
BD9B7DFE
3C677243
BDF5E8B0
BDDE78A4
BD726F4F
3E095705
BDEF8CAE
3DDFD81A
3DDFED5B
BDD01657
BE0919C6
3E1640FB
BDEFF503
3E482930
BD84F9A7
BD2918F4
BDC0AC1F
3E0FE260
3D3697E2
BEA73897
BD9232C7
BE819FCE
BE1FCFA9
BE1EA79E
3D0674A6
BD6D3079
3DF863B1
BE524CF9
BD8E1219
BDA03A4F
BD496815
3CED4370
3D3617EF
3E23D789
BA8318FC
BD57A85C
3DFAA87C
3DCA0E4D
BDC7E0F4
BE42B16F
BE4AD6E5
BE53C731
3E2ECBBB
3CE94F79
BCAD8941
BED08FFB
3D0EF381
BECF6B6B
3B789BB6
BECAA493
BEEE0FEF
3E5C38FF
BE19AC9C
BE1027D0
BDA557B4
3DF9479D
3DD3EFF6
BE0EB5BE
BDA8DEC4
BDB900B9
3B7CF938
3DCACCAD
BE122B95
3ECEF01D
3D890CF5
3C99BEDB
3D8EF784
3EA8AD91
3EBFEC77
3C96F63F
3E1E27C1
BDA2362F
BC618E1C
BE19C230
BDEC2187
BE136D08
BD65E402
BDC5515F
BDEBA2C1
3DF36C0D
BC586F4D
BDBDCF8F
3D9D79ED
BD19F388
3C30B8E6
BE44BA3C
BE26A5A3
3E1B2556
3D8308EE
3D662683
3E2973F4
3BF114B8
BE3B5543
BB27E665
BD948879
BE7B0D91
BE1A19AA
BC9C55B7
3E058B76
3D879480
BD6D5EB4
3BF2DBC0
BE38F988
3E1A3F30
3C8FEAE8
BE156D14
BD4544A8
3CC2E570
BE420E49
3C2CF740
BE34F6E9
BDF3242E
3CD34C70
3DF6BE64
3CB216B0
3D7DE760
3DD1406C
3BD4FDA0
BD31B910
BAF14A00
3E16C670
BE31D3D1
3DB2CB4C
BE2AEB4A
BD8DABA6
BE251770
BD953E6B
3DBE8C8C
3D1DBDE8
3BBC3620
3E018430
BDDD7BA6
BC0F8460
BE1F7A08
BCD31A10
3D8B2CE0
BD52FD80
BE3A22FE
3DEDD110
3DCA0130
3E07A394
3CCD6700
BE17E4AC
BE416723
3DDCBD40
BCF4F1B8
3DE82320
BDBA177E
3E1BA388
BDB59109
3DA6A0CC
3CBD61D0
BE2F7A6E
3DBDE5D2
BDB55340
3E1A5307
BF112B24
3E92FBCE
3F21349A
BDAAF95E
3E1DFC9B
3E1D27DE
3DDA5856
BD326092
BDFC19B3
3DB6688C
3E043E2B
3E4452C0
3DD888D9
BE3D5485
BDDF08DB
BDA8ECE0
3E252F33
BDA12ACE
3E22D9E4
BE47367D
BE96BDE7
3DF10909
3C8BB3BE
BE93B1CD
BE9189BC
3D85E295
3D8274A4
BE0798FC
3CC8AD3C
3DF7948B
BD0DAFF3
BC2E5724
BAEBE280
3E6D0C00
BD14908B
3D4065E7
BE8E4109
BDBEAAF9
3DD27A85
3DF42F9A
BDC03135
BE319E2E
BBD93294
BD8D76CC
3E5B32FD
3C88AEA5
3E00E8E1
3E1E9D50
BE547402
3C19D7B4
3D48B6A2
BF2F22F6
BE650195
BEC109A8
3DD935A7
BF25C600
BF4D5746
3E377FFB
3D8175D0
3AB4C319
BD672D7C
3D608873
3DE17DE5
BDF78346
BE0E9ADC
BDFEAECC
BE122E4A
3DE39BAF
3E42BE19
3F1259D1
BDABA522
3E625C92
BBB05685
3EBCB50D
3E92C827
BDC713F9
BE51DC17
3C88C1FC
BE8FB6E6
3E39A542
BEC2B808
3B6EAA4A
3E0472C6
3E1066DF
3DF13189
BDF46849
3E122120
BCE1AF0F
3E2953B6
BC901AC9
BE1DE2BF
BDA1A34F
3C225408
3C18BC64
BDFDC804
3C6BE702
3DFF656A
3E5C6979
BE02841F
3C58CED1
BD6F1044
3D24A6A9
BD650898
BE52A06D
BD22A00B
BEAB1BEA
BE11AF49
BEA16CB9
3EC14DDB
BE5B152A
BE8CFB2E
3EBB71B3
BE694525
3E7F86E0
3DEE9A30
BDC886CF
3E58FF52
BD4C101B
3CC59255
BD57C040
BE101A81
BE312207
3C9B0AC0
3EC18A8C
3DE476B0
3E6DA975
3E8816C2
3E933D85
3D9EAE72
BD1430B6
BCB660FA
3CFB8205
BC1C9B00
BD9D6B6F
3E3377BF
3E237E28
3D53E0E5
3E82F26D
BD54D690
BCA2E168
BD86745B
BE4A313A
BE4BD5CE
BCA5068C
3D5AC458
3D803BC4
BB93762E
3C901F28
3C4B8A7A
BE29520B
3E15104E
3D530EB9
BCB207A8
BE61CFCB
BE3554EB
3E96E8C4
3E1639A8
3E523677
BD84B95F
3D78CE35
3DAE3C37
3E0EFA0D
BC3BD76F
BE54ED0B
BE942EF1
3D094252
3E59F65A
BE474066
BE1CE706
3E558ECC
BDC7EC7E
BD7FA27C
BE13370C
BE95B9A6
BD7728AA
3E4C18DD
BDB67741
BE1C3AB1
BDB93920
3D843DF6
BEA3C5D6
3D8B1ACE
3EAFD258
BC18BBCF
BE255981
3D24CAD6
BD254DD6
BE9067E5
BE603686
BBFEC680
BDC2CC4F
BDDB87FF
BDB17618
BDDCC310
3CA61F9B
BC4A586E
BDEF3EF0
BEAA94C6
3E541F4A
3E4E8799
3E0F1912
3E025D9D
BD94ED64
BD2FF9ED
BDB77C8E
BE10F00A
3E016FB2
3E2A5219
3DC4F6B0
BEB71BE6
3E1037E1
3E269E46
3E36B158
BDFE8CD5
BB3E11C0
3CDA9198
3DB46730
3DA9F020
3E1D2B54
3DF9E7B4
BE3071C0
BE174D7C
BDC84A64
3D3A1DC4
3DF42CB0
3CDABED8
BD7A0444
BE0FDD29
BCD97948
BBA9CAE0
BDC27FAA
BE40E8A6
3DCA485C
3D0F3F70
3C9554F8
BE15A79A
BE2CF9E0
BE0EBDCA
BE1D08ED
BDC8E75B
3D72B98C
3DE408E8
BD0251B0
3DF02F64
3D9954D4
3E35A822
BDD474A7
BDB8D23F
BE08DAAE
3E421B00
3DF005D0
BDBFC514
BD2B2E14
BCA76930
3C7F9570
BDB73D34
BE10ED44
3CC1D008
3D4A3EA4
3E1549AE
BD306B44
3E0FCEFA
BD21D4A4
BE3E9EF2
BE13D09C
BE0FB371
3DAB5D40
3CB529BE
BD816C19
3D415FC1
BF1E4D45
3E343D90
3F45ED26
BE660199
BD501DE0
BE0E95EB
3DF6C3F7
BE521C71
3CAE3B4E
3DBAFA2B
BE4E625E
3E1A71EB
BE0DA436
BE246D66
BE4A1F0D
3C9075A0
BD7825A9
BDFB1DA6
3EEC987A
BD23266E
BE6408CB
3E1A8A3D
BBF61D25
3C9F9C7F
BEB159E2
3C9A430E
3C5D47E9
BE423774
3D05E7F9
3E759AE6
3D2B0810
BE72BFFB
3D0D5C27
BD58B0F8
BD26650F
3D6C29CF
3E24BE90
BE4167FF
BE137A32
3DAB20ED
BD1371FF
BE26D331
BD0364A4
3E18F119
3E42AF22
BD03CB47
BDEAF30C
3D89F1FF
BE377A65
3CE94D47
BDA85420
3DCD6240
BE874E45
BE089D0C
BCEF70B1
BE10142E
BEBBFDD1
BD093EB5
3E3E07AA
BE3747E5
3E4E6FB7
BDD543A7
3CB356A6
BC125BFB
BDCCE243
BE810BD1
3DABEF6A
BD4D5E4A
BCC453B5
BD1CB67A
3E233A53
BBABEA9D
3E68165E
3E6F1415
3E0AA116
3DDA7119
3BBC3929
BC3B7911
3DA1B5A3
BEBD5319
BE25F27E
3D241F52
3DA31417
BE97533E
BE16EB48
BE3CEAB8
3E361E2B
3D46D4E0
BD3C9290
BEA2A0BB
3DB93933
BE4D6314
3E295BD8
3E03CB33
3DB62F03
BE3B9ACA
BDC3A5B0
3E24A1C1
3DD85905
3D025E3B
BDF02ED4
BE214DC9
3D022F62
BE221BD6
BDA3BF23
BD977CB7
3CBD5AF8
3E093ED0
BD4273C8
BDF83F92
3D0EF31C
3DA36BE8
BDCF7AA1
BE3ADE11
BDEF8FCB
BE14E69E
BDAACA63
3E2DBD2A
3DD87C78
BDB3204F
BE0360CA
3E198886
3DC8851C
3DB1BAA8
BCC57DE0
BE399166
3E299072
3CD1D0F8
3DF4C4AC
BE2E9AD7
3D347BAC
BE1ABA8A
3CFD3890
BD6D9B10
BE202B42
3D9A9C94
BDACE042
BC7E0080
BC8A4C08
3D4672E8
BE3F0332
BDC2D97F
3E151442
3E16D036
3CB33D90
BD0745DC
BD2BC360
3DFA6F40
BD4B6E98
BD8A1CAE
3D84E134
BE269FEC
3D4904CC
3DCC419C
BE1BD582
BCA02250
3E1F9EE8
BE11145C
BE31BA79
BDB110AA
BCCBF950
3D0FD14C
BD4426A0
3D1C0174
BDBD56E0
BD9D8DFF
BE0B068C
3E193F08
BD9627DC
BCBA4580
3DF27328
3D9F2838
BE35466D
BD8FFBD7
3D5EF204
3DE4A3F8
3E39712C
3E0E8440
3E1D559E
BE0CBF7D
BC129E10
BDA2E123
BD9D4E06
BCD9CC90
3D79E6F8
3E0C2DBA
BBCDF600
3E2DFAEE
BE41E348
BDB1B6F2
3DF432B8
3E2D649A
3DD55A58
3E0B6E78
3E072A98
BE2AEFDA
3D942A2C
BDA1648C
3D842278
3E2AF5EC
BDC94B4F
3CE0D2F8
3CF98D00
BE4100C5
BE238BE6
BE16096A
BDECB016
3DC3C700
BC3D69D0
BD48AF88
3E03AB5A
BC31AB70
3D8DC7C4
3EA3AC08
3D49879D
3DBCB17A
BE335E3A
3D8E3CF2
3B597D4C
BDE6D7D4
BD99D727
3CF6FACC
3E1E3AC5
3DF44624
3C4A1D99
BCC57FCB
3D80C33D
BE436C14
BE073283
BD642EE0
3DD662B1
BEC805FF
3D86962B
BD8379A5
BD713F18
3DC5105C
BC2A368F
3DDA5B7B
3CA2EE7A
BE754E7A
BE97CD61
BDCBD29F
3E2FFB00
BC980798
BB9FC857
BE36FB6D
3E0F0BBC
3C481428
BD55CC2E
3D645FEF
BE05DF6C
BE0A25AF
BC9DA28A
BE113D40
3D259B2B
BDEA0403
3DB35ADF
3E18F888
3E1A7DAC
3D985DFC
BD85079A
3D9E82E6
BE25B4F2
BEAE5E7E
BD1EEEE1
BE1900CD
BD3771E1
BEAABF63
BDDC9D94
BE903919
3DB7E265
BE8D177B
BD61B1CE
BD29117F
3E16521D
BCB13983
B9D4A2C9
3E36D360
BE0588DB
3E1DBC80
3E16EDE9
BE29FA21
3D8AE715
BCAF15B6
3E2B3B4D
3E331206
3D0B75A8
3E7952FF
BE817CD4
3E02BA26
BD347F05
3CD476C4
BE34BFAB
BD065476
3E8C3EF1
BE9EF9CC
BECC4235
BDA51F66
3D92EDB7
BD3CC8C7
BE6A3597
BC425B82
3E67BBB2
BC63CA91
3D1A9E06
3E149EB3
BE15A95A
BDA466BF
BC266B63
BE1DD19C
BC8138EE
3D85FE6B
3DB52C04
BE3B8FF9
3E134BD9
3E4FCC8B
3D4CAF98
BD870AC2
BDF4DCF3
3E5EAC1E
BE39260F
3E08F1C4
BDEE2FBE
3C6FC880
BD7AB574
3E0EC83C
BCE23570
BDB3B420
BDDAE3F3
3D16E0B4
3E222222
BD9AE7A2
BE3392EA
BDF84C8B
BD902811
3D0E84BC
BE2E5EBD
BDA7AC7D
BCF844B0
3D384560
3DA0C5C0
3CE9F278
BE16A70F
BDE7E82E
BE2A86F1
BDFAD608
BBC11180
3D5CA408
3E2F0A80
BDC09B8E
BD905B35
3DED9388
BE0981B9
BE1834F0
3D2A2C90
BD3634C0
BB16B1C0
BE10EED3
3DBA51B0
BD898E05
3DFA074C
BB657E00
3E101304
BD7A5694
3E0CFB56
BDEB8DB4
BDC2BDCF
3E1EC96C
BE32E824
BDC0A926
BCC54D20
3E2F2582
BE3ABEF0
BDBC076F
BD83C24C
BF49C868
3E9C727A
BF6A1CA8
BC7BDE8E
BEEFC042
BF4FD3E4
3EADB7A9
BD646B17
3E20C066
BD54F168
3D8640AB
3CD9AA13
BE268451
BE080158
3C9C2378
BCC8ECEC
BD3F1DBA
3DE99CD8
3F1243E8
BE6AA88A
3E956454
3DD253BF
3E2BEF5E
3E601605
3C794DC6
3DB1A6E2
BE1A5224
BDBF21B6
3C882E51
BE5F613F
3E7847C6
3E6DD366
3E778A24
3E1A4AF1
3E0ECA03
3DE7C93A
BE2631C1
3E357794
BD25AFAD
3DCA7EB9
3D50549F
BE824337
3BB2EA4F
BE2C0F14
3E0F1E81
BD8321FD
3E1C055F
BE1F9703
BC7F2C8C
3D5EC97D
3CEF3647
3E666C90
3D78C91E
BE8E70EF
BDBC2E16
3E29519F
3DC07E42
BD99CBA1
3D1A9EF7
3DEE5A7D
3DCC5E1D
3E195FA8
3DA2DB24
BE4905F1
BC1BE1CF
BE1A04BA
3E2299F1
3A03166C
BE4E9312
BE02962D
3E19090B
BE144569
BDE11D70
BD0B6F80
3DEF8CFB
BD9560E7
BDAD331F
BC94AA49
BDB38B64
3DAFA765
3E1AC48A
BD97BAD2
BCCA53C9
3E2D8B54
BDC1DD4C
BE3137EE
BE3F29E1
BE15813E
3E035BC3
BE0B355D
BD08A5A8
BCF3B8B7
BE519CAB
BE1F6A69
3D823E3D
BE342CC6
BE3C9E28
3E0FA19B
BE126DAD
BE298D80
3E10E71F
3CE768C2
BDF365A5
BC94F2D8
BB7F8057
3DEB5014
BC4A8B90
BE1718BD
BD8D37F2
3DAF3745
3E38D781
BDFF32FA
BC8773DA
3E046ACA
3E27CDE1
BDD86AD8
3E380023
BD9B2D3E
3CC9AAB7
3DC08991
3E383544
BD62F350
3DFF1778
3E0F0CEE
BDDC7178
3DDA6AB6
BE35094F
BDEDFBBF
3E2A25DE
BD31ACC3
BE3691FA
3D943ECB
3DAC7B09
3D5C4267
3CCE66B7
3DECC35C
BE388D11
BE13842E
3DC11BB0
BC701A4C
BD7EF011
BC3A0135
3E0B1309
BD95346E
3D91178E
3D91C3B7
3CFAEEBF
BE37C008
3D55A0C9
BD881D03
BC65FDCF
BE0F7D3C
BE12C000
3DDCDBD1
BE1E4119
3E22151E
BE3FA248
3DABAD9E
BE1344E1
3DF15DF7
BE0EFA2E
3E1CD464
3D1CF25B
3E36D005
3C9483AE
BE0DB1EC
3BA433C1
BDF3FAE5
3D6A3A2D
BD248F94
3DDBE948
3D9026A3
3D831ADC
3DC53E46
BDFC49E0
BE1DB027
3D97D650
3DDEAEA4
BD3A9812
3E20C6E0
BE2B04DC
BDC74E9D
BE063BFE
BE330FCB
3E21C67A
BE2F4407
3DC2AEED
BE362285
3E03CB9E
BD069F38
BDB3509B
BD8BF127
BDFFDB83
BE3B1B84
3E286471
3D8F0A50
BDB5DE91
BD444D96
BDD39110
3C0B9AE6
3DE032D6
3E2AFB6C
BE39CD77
3DD62F2D
BCEFEFA6
3DAE2B5F
BE47132A
BE48B0A8
3E1A4672
BDC73A97
3E1D1466
3E304669
3DC904E3
3DFC3B7C
BE028A53
BDBCFC05
3DF97B48
3C5285B0
BE2C4B3E
3E0ED5A6
3DC34550
BC167350
3E0BA67E
3DF3E8B0
3DFF7540
3E33B24C
3D8F07E4
BB4E2A00
BE2E0C13
3D800EFC
3DC08E04
3DB1CB24
3E3DD1F4
BC18B230
BE2F2D13
BE3056D3
3BA48CA0
BE1500D8
BD97C32D
BD87F016
BE355613
BD40D76C
BD9B727E
BDE47565
3E1DED6C
3E274902
3BE9E5E0
3C9F78A8
3E103F7C
3E25A958
BD782EDC
3D42E748
3D3D4ED8
BDAC3ADB
3E2DC8EA
BE3F0A5C
3E27AB50
3D3C6484
3D920560
3D314F10
BE1D332B
3E15EB1A
BE317D9D
BC026650
BDD4CAE5
BDF2B253
3E0F1698
3CA54130
3B313080
BE12D2C1
BDA0174D
BE818105
3E718700
BE2B27C1
3E4B8285
3EB66EB9
3E198C0E
3E0266C4
3D932B5F
3D7975C2
3D6D0734
BE79228C
BE10C01E
BE12992A
BC37CA03
BD4C9138
3CC03F60
BE3F49B3
BDA7496A
BB4E6E56
BCC302FD
3E8EE383
BE10965D
BEB03DD6
3D8DB66B
BD860C44
BB85C9B5
BE5BE0A7
3E464850
3D257F4F
BE37E9B2
BE2582C0
BC4C023C
3DAE84C8
BE296D2C
BDFD4B47
BE40544E
BE70EE39
3E037AD2
BE21B9A3
BE3206F7
BC802D97
BDE08548
3D5E25D5
3E345CA5
BD66C3F0
BD876911
3DBE971B
BDD7FBE3
BE1E39C7
3E3E04BB
BCDB1394
BE0D6FB4
3DF88111
3E7BAC12
3E637784
BD45C09E
3E2E40A1
BEABAC7D
BE6A1979
3CA1FF53
3C94E834
BE9034FA
BD96D096
3E23B427
BE061E1E
3E2612F6
3DF7FF93
BE69C013
39B30EB0
3C57AFF8
BAD1CC9B
BE8C75BE
BA23FFA0
3E071EF4
BE50FB71
3D9D89AA
3EB63C4B
3DB5DAC2
BDABEECB
3B1F6634
3D006DB5
3D913859
3D9C8063
BBE72878
3E3A5202
BE116D6D
BD652DBD
BC59CA40
3E2C13CD
3D9260D9
3C8F796D
BE1BD980
BE2661F8
BD66C0EB
3DE5961C
BE099714
3DFEE9D6
3DE378C4
3E0899F5
BDE34215
3DBCD2FA
3DFB861F
3E35332E
BE9724BB
BDCB1AD0
BE3D8B90
BDB723F2
3F08648F
BDC80554
3EA73E46
BEB78B22
3E953E22
3F0671A5
BEB61845
3E5D60DA
3D51CDFF
BBA34C77
BDCEAC42
BD24D791
3D8F90DC
BE0B910C
BE1D9917
BE0339EB
3D98FBDC
BDBD83EB
BE201F1F
3D9CA967
BE7693E5
3E73089E
BE52B9C2
3CCAC178
BC663153
3E2DA581
3D29AF1D
BE406FF6
3C351BFA
3DE0EEB0
3CAA087B
BD237E6B
BE2C57FC
BE07DD2F
BD0A5A8B
BD9143E8
3DC3C156
BE43BE30
3C8870D2
BE44A4E3
BE669175
3CC101C1
3E19D554
3DC14C3D
3D77A22B
BE4D7C21
3DD4B02C
BD096C38
BE20AABA
3CC7972E
BE16736C
3DA09B0A
BE202830
3AEA5F36
3ECD875A
3D4CF966
3F23A50F
BF2B9685
3F195BF7
3F798705
BEDE6CE8
3DA6E273
3D41BF06
BD950F1C
BE7FCC3A
BDC00DE8
3DEA23B6
BE529182
3E0E820B
3E324C37
BD4FF94D
BDE9F573
BEEF79EB
3DF76F36
3C599FA5
3C25D68B
BED3523F
BEB1448D
3DFEA73C
BE3F1BCD
3E38703F
BDF16DD6
3E195F56
3E4B60D4
3C700D23
BDDE8737
BD3D741B
BC801DFE
BD4E3DE9
BE9F92F1
BD1984E2
3E0A60A8
BD80B515
BD679C9C
3E0D3BDD
BDF83399
3DB4FF85
BDD84BD4
BCA03BBA
BDE3278D
3B93AA68
3E2D00E3
3DD38B94
3E01B9AA
3D894501
BC043085
BE01037A
BE3BA142
BF122141
3DBF4712
BF0C8E38
3E85D076
BE6F25B4
BF149020
3BF705B3
BDC18684
3E2D177E
BCFD2AD3
3DA3E794
3DE58F10
BDCACEAC
BD81A9C2
3D2E8504
BE0AE074
BCF19C1E
BDAC7CAB
3E32CA31
3D55B407
3E215D27
3DD9E567
3DFBF9DE
3D52B3A1
BE3FA094
3CE6E963
BDC6F88C
BDA67B59
3DE1D653
BCEA705E
BE385863
BE373491
3E7A7E2A
3E1FA8E8
3DFF8FD0
3D24F71E
BD106A7B
BD6A60B6
BCEFF89F
3CAD133E
BDAC06D9
BD984BBB
3D74AE77
BDF328AC
3CE13676
3DC36C2B
3D5B7DDA
BC812D0D
3DB2429D
BE176D86
3D82AE7A
3DEFE24C
3DC4A9F9
BE33F349
BDD4CA8A
3D8EF3A0
BDCF76CE
BDD99D11
3E2CF7B0
3E31B9CC
3C667C70
3E315F7E
BE1FDE92
BDD1D78F
3C244220
3D8794B8
BDF0D8BE
BE12FA96
BCA02D28
BE2E7D25
3C0D3360
BCE1BBC0
3CCF65E0
BCDAA7C0
BE17229A
3D701250
BDB88D8B
BD62D490
3DC408C8
BE390386
3DAD1200
3E021730
3E075962
BDA54E4C
3E0A140A
3E240C10
3D54E894
3E3C1274
BD1E3AD0
3E08A922
BD939B60
3DC74940
BE0CB8FA
3E2995E6
BD75FD68
BD0CABF8
3D9E11DC
BDA9F48D
BE2F25BC
BCD79000
BDB02820
3A57AA00
BDF1F833
BD7EC38C
BCAE5530
3D3B93D0
3BB93920
3DC97784
3CD557C0
BCCCC400
BDEAB822
BE2D23E8
3DDE4874
BE3C8C91
3CF451E8
BD27EED8
BD605A24
3DD20484
BCD22DA8
BBAFC740
BDFF57CF
3E0BF1A6
BD324420
BE3101EE
BDC2A413
BE108714
BDE732CF
BCD28D30
3D163E58
3E175146
3E3E4B90
BE3A487E
BDD1082A
3CEBB810
3DDAE2B8
BD05800C
BD15019C
3D37D1A4
3E244028
3D542D8C
BE1ABCA8
BE010AFE
3E0072B2
3E357B26
BD212374
BD55DD68
3C702D70
3DA9E0C8
BC4E97F0
BDB465A0
BDC16F71
3B91C920
BE32DCB3
BE3F9031
3D2AFFEC
3E0F4D38
3CD51C10
BE0E6748
3E1A6AE8
BCDE86C0
3D25DC8C
3DB2EE74
3D76F1EB
3E79FCF8
BE189750
3D3553A8
3E37C778
3EBD8191
BD96DCFC
BDF5C875
3E0BD1D0
BE3C3C4A
3C2CDA07
BE159280
3CD31CFE
BE2C264F
BE52AC3B
3CD683B0
3CED9600
3D296AC7
BC1A0905
3D5316CB
BE06B129
BC94A7BA
BE595C15
BE17699E
BE144FA0
3E01AD26
3DB328DA
3E2B9B2B
3E9D0800
3E61464E
3D84889A
3DC26B07
3DFA0BE3
BE442863
BE3A79F4
3DDA0313
3DC146CA
BD6AFF8A
BB19C1B1
BE3F8B7B
3DA813B6
BE277132
BC895328
BDBEA1CC
BD176604
BE12FFE1
3DF5C016
BCAC8B90
3C1A2B58
3DA1F8D1
3CC8B0E6
3DE4ACF7
3E1D1328
BDC02C98
3BDC7365
BCB805A9
BA218FCC
BDA1738F
BE148792
BB4E91E1
3D1139DF
BE1C942D
BE1E5EF7
BDF4D457
BD682563
BC853099
BE22BB39
3D8D745B
3DCEA6F1
BDA02D8F
3CF2EFD8
BDEBFFCB
BE201381
3D1C25A7
BE108407
3DF68E2D
3D78E1F1
3E337AB0
3E6C344D
3DD25806
BE0A8CC1
3E3F4487
3D986094
3E6F1947
BBC80D5E
BE239DFC
3C7C253F
3E2DD2E1
3D850C03
BD219552
3D1C9596
3E2E75D3
BE0C4827
3E08932C
3D4E7143
BCDC92D4
BDE02C5D
BE0D6F50
3C05CF53
BD9A7762
BE273A96
3E442F80
3E372B2F
BD7E8CB2
BDD8E404
BD8E1873
3E11BCD2
3DF81992
3EACCA5C
BD9F5693
3F0C57E6
BF2A7FC5
3E9AEBE5
3F0B457B
BDF59F70
3E037105
BDA5896A
BCF6F5C2
3D6DBEE7
BEA1983E
BD2EE90E
BE1034A2
BE6D4AFE
BE0A357E
BD8CFAAC
3D73D7C7
BF086191
BDC72A0D
BEB02B46
BDE2AA59
BC853D73
BE88C462
3E1ACE5C
3D5C27AF
3D60F818
BE2D7020
3E1C6B8C
BD80C269
BE243FC9
3D9E8F49
BE389D47
BDB2EA2B
BE6190B5
BE6EF0D7
3DBA8B8F
3C5A91F0
BCAADF02
BE3F4512
3D0AFC78
3CEE47E4
3DC3FE5A
3C1D2BFD
B91E56C8
BE04388C
BD8BFC2E
3DFE9972
3DB1C434
BDB0D9BC
BE0C36C8
3DCB27E7
3D9725A2
3E0B1C04
BDDB2963
BD4D3E18
3E1AA232
BE3C5407
BD516BE0
BD7A097C
3DCA369C
BDFEFC3E
3DDD68A4
BDB55AAF
3E25D184
BE03222C
3E0F064A
BD94BE60
3E1E90E6
BD45635C
3D607460
BDA8C0EB
BDC4E576
3D4F1AA0
BDAA55E4
3E0AD7DC
3D8D9C64
BE29EE35
3CFF4948
3E23BFB2
3DE89DE4
3E049C90
3E1CBE8C
BC9B8658
3DE9F5D0
3E34E134
BD3B10EC
3DC48C88
BD92C74D
BCF926A0
BDA8093E
3E0486D4
BC3757C0
BC516510
3DE6D8A0
BE37E95A
BDA56BAC
BC93FF88
BE25022E
BE1E3A01
BDF8864B
3D350D74
BDE3FD1F
BDCE26AD
3D1C6850
3CA7EA30
BBEFABC0
3DD35918
3E37E526
BE26B4D0
BBE75C60
BE344F95
3C8AA680
3DCC1C50
BC686100
3C4AF6E0
BD8E7BEC
BD69AD64
3D92B9FC
BDDB8CDE
3DF68CCC
BDD1B936
BE26D042
3E11A180
3DA81630
BDA2C7CE
BD9A1E41
3E1E049C
BE298E8B
BE3D7F2B
BD96A1D2
3E189068
3E2E0930
BE31D806
BDDE9E7B
BE3A637A
3E166BA0
3E13A792
BE087BD3
3E0EADA0
BDE4B19D
BDF7E929
BD40C120
BE046E54
3BDDEB40
3D4FCCE8
BE2D69F6
BDB89514
BE0461FF
3D8F9E58
BCF24E20
BC84BB30
3DCFA1A8
BE08F14B
BE01BF54
3D3E3810
3E2C2834
3DE64088
BCA2FC78
BD9ED896
BDA2E32E
BD601AE0
3ECA29F5
BE73F03F
3F2FC72C
BCAD473E
3E1F2EF5
3ECA1886
BEA902FA
3D2972C5
3D201A80
BE138820
BDF7D303
3CD2019C
3D8278BF
BE37E98E
3E401DDC
3D9AB777
BC8A103C
BCCA15CC
BEAC15CC
BDE032DD
BEB095F5
3DB3982B
BE180CE5
BE9EE167
BE5E514E
BDC06A4B
3D96A498
BE32188D
3DAAB759
3CA264C4
BD362C80
3E3E7CA4
BD82ABA3
BD03774F
3A5EDE69
BE8500CA
3DA50074
BE245475
3DF0906B
BE3AA9DE
3DBAEFC1
3E1284F8
3DFA85EB
BC704A12
3E3825F8
BE46A0D3
3D8D3D97
BD8E368B
3E0DD08F
BC690299
3D076B55
BE4723B3
BE333006
3DE51757
3E2E2E5A
3DC4FFF4
3D9D20C0
3E130BEE
BC8FD170
BE05218D
3DAA4344
3E29377A
BC7FA1A0
BB8EC420
BE40C12D
BE3A5E31
BE0C02B7
3A967100
3E206E76
BCE1D3A0
BD689A94
BC99B260
BE0728E4
3DCC6C60
3D2BBFE4
BD180C84
3E3FEB14
3E39BCF2
BC69B280
BE27DC07
BE3BC75B
3E18A204
BDE01FCD
BE3BAD09
3E1A0240
BBF21920
BCF9C8E8
BE063874
BD4B6090
BE35A66F
BD5B1298
3C757AE0
BDD26F40
3E2FFB18
3DD4135C
BE3370EB
3D9661FC
BBA0D0C0
BE040FAA
BBC733E0
3E05A6EE
BD776830
BE090613
BD2A0D40
BE106EC4
BB733380
3DA265E0
BDE3ECE4
3D098B47
3CC0256E
BE05248A
3E066B6E
BE1C6C47
3DD50C8B
3D8D5ED3
3E174E94
BD5D7D3B
BE357C60
BB9F305E
BDD221F3
BE02D721
3E2173FB
3DEFC5C7
BBBC1AD4
3DE73E4D
3DEC325E
BD934B67
BE48B56D
3DB9EA01
BE3924A2
BD80EE32
BC976B83
BD12BDD0
3DE1C207
3D8A7823
BE30E278
3CFE38ED
BC957F62
3CAC2DC0
3D073144
3E2B3B8F
BE0AC27A
BE05B54F
BDAA4131
BE0C71BE
3E0A4379
BDC30720
BD32E8A1
BBF9F30C
3C341B43
3B597B9E
3E13A156
BC51B978
BD936C3E
BE30FC8A
3BCF2896
BE4724D6
BE4CECA8
BD648308
3E128991
BE3AB0C8
3DDC54FB
3E626587
3E120032
3E8454FA
3F062A89
BBD313DF
BE951357
3DD1CFC6
BE22F747
BE8AE15A
BDF6E885
BDE6907C
BDE453B9
BDA15CBC
3E3675AB
BD21BB8E
3CA444ED
BCFA8ABB
3E114A1F
BE99FDDB
BE1581B2
3D930D63
BE01C686
BDB7845D
BE2B2DA0
BD6AB5DA
3DC5C8D7
BE06F558
3D9BB350
BE94A183
3E8B69EC
BE2AFF2D
3E1E1C31
3B188237
BDBF3FF4
BD503199
BDE55083
BAF303BA
3DDA44FD
BE983FFA
BDA3AA5B
BD9D89B4
BD6B04FD
3CEC7F69
3E2080BC
BD2891B9
BD0C243A
BD029846
3DE56FDA
BE7C2D97
3E2BC7E4
BDCBA1D2
BD8FD125
BE0F42E6
BDB968B8
BE1514ED
3E265106
BE385E86
BD1A0938
BCA37D00
3C51EC10
BD82710E
3D615960
3E2566B8
BDE2BD83
BDC51DAA
3A0D0B00
BD6C727C
BDCC0466
3DC8E1AC
3E290722
BD292704
3DADB45C
BDAA858A
3D25E1D4
3E35E3BA
3D5C0578
BE071176
3E2B4070
BE2EB979
3D82CDD0
3D3E1354
3DDB5294
BE0D0E9A
BE3079C8
BC9DC838
BE179897
3DB9C21C
3C91EC70
3E2C3E42
3D912BFC
BE142150
3DD4A750
BE0BE13E
BD1188DC
3E22279E
3D0E7E14
BDCE6A5C
BD6985B4
BB6B6E40
3D1748C8
BD88F605
BDD8E303
3CFDCB10
BDA8A3E7
3C2285D0
BE3FE2C9
BE12D37B
BD951A89
BC3C4F78
3E57F024
3D84EF7A
3F35AC3B
BE893AAB
BF2555A4
3E204491
BDB32726
3D6CF66E
3D444491
3D3E4A27
3E6527E7
BE2A5F75
3DE0AEF7
3D5DD27F
3E31A8A0
BE192B4D
3E0210C1
3CA3ADA5
3E15A43E
BC24AC32
BE6190DC
3E620271
3E14D5BC
3CFB8E3E
BE05F960
BDB3E39C
3E3C81A6
BE88C39F
3DBD6226
BE5E41C7
BE16D36F
3DCBA766
BE559C1B
3E36FBBD
3E6FD2F1
BDFB6742
3CAEE4CA
BD6EA5C3
BDD2A1C2
BE3C5AFA
3E1ECDFB
3E2A1319
3E271663
BE1132E4
3E2198F7
3CA91C25
BE28F6C0
BD614651
3E0CE71B
BE28A972
BE313ECF
BE43DA22
BE16C518
BE2D5B22
3E16A6CC
3E3B5B30
BCF1D0D8
3DCA8968
BE036904
BD045830
BDAA5241
3DC976BC
3DE06060
BE3CAB69
BE2FC91D
3E3D7994
3E4268BE
3CAF1AB8
BCB17440
BCEAE358
BA98C280
BE22CF60
BDA82331
3CABEF60
BCDF5270
BD5A7E1C
3D4FB7CC
BDC48B89
BDFC2418
3DC44CE8
BCF05058
3DB176A8
373D4000
3E191112
BCEBFE08
3DECF5EC
3DB9ACB8
BE01E92E
BDAC8115
3E030A6C
3DA5E128
BDBA9B8D
3E35FF44
3D2B5978
BE01D2D7
BE102CA1
3E3E5456
BE3FFB68
BDFDCE1F
BD36473C
BDBAFF0E
3D9DB888
BE041169
BD54C3FC
3D1D6E4C
3D3A58D8
3E2F6958
BEFD2D83
3DC1CC54
BEA8D90E
3EAE59F8
BE8D2852
BF15B329
3E938C47
3C931D1E
BD1F506F
BE8B039D
BC5ED909
3D462A68
3DAF7525
3E055173
3DDAE977
3D6204D8
3DD6F78D
3D70465C
3E1E3445
BDC56D6B
3E25E11F
BCCFC7FA
3EA736F3
3DF7875B
BE0E7905
3E0B4744
3BFCF195
3DFA94FB
BC188607
BD9E816B
3E8675BC
3C8CC8EC
3E9646E9
BDB99805
3E32A010
BC56674C
3D565BE9
BDA95BD5
3DA8CB8E
BE6B0C3D
BE50188C
3DD66ED6
3E278CE6
BD9CBABF
BE077079
3B952540
3CDD1E3A
3A7FF378
3E75D4D6
BE1EBCE6
3DC23067
BBEEBC0B
BE097AE3
3D549930
3D743C82
3E075091
BDCFF95C
3F14CB2A
BE440891
3E0A9CC5
3D894E2B
BE4C89CF
BE848C67
BBBD9F41
3D7ABF61
BE1766D4
BE4B505C
3D07E1F4
BE356147
BD3CC4B3
3E09FA3D
3D1082C2
BE345C9B
BDC2F4B1
BDAB6D58
BEC1801F
BCB262CA
BE34FD0A
BC14A42C
3E593635
BE0C7C5E
3E0027AA
BD9674C7
3E96AB73
BDB69661
3E22D800
BD8F3C4D
BDCD752C
BDFBEAEE
BD913066
BE176EA5
BE2F02E0
BC49E539
3E446C26
BDF16470
3CE53324
BCD64A9B
3DC45EDF
BE2335B8
3E2D8BD0
BD9CEC32
BC86D046
BE5FE445
3E0C721E
BC3704EC
3DE611C3
3E3C32F6
3D8732BF
3D3E8050
BE1DD67E
BDEAA08F
3D92B560
BE188B40
3AAA1700
3DD41530
BD786DB4
3C70AAF0
BE0BD100
3D5EB36C
3CB9C850
3C3B39E0
3CF9FCD0
BDFB6AD9
BE1C16E2
BDAC50D7
3D641164
BC8E4188
3DB21238
BE2F42FC
BDC35F4A
3DF52EA0
3DF9313C
3E134888
3E2E6C6A
BE15FBEE
3D9FC500
3E2A51B8
BDE2647D
BC078250
BCC2F410
3D993C34
3E20DA88
3DA2DD14
3DF17ADC
3E139846
3E31C11A
BE01CFF7
3CBD8DB8
3D9F7E9C
BDA0C559
3E213C40
BD011DBC
3D867A20
BE3C9DA7
BE111CCF
BE1EF5FF
3DA76288
BD2DF380
BE043F13
BC11FE60
BE1D9C9D
3E2DB35C
3EC9465A
BE8A3E8B
3F2DB070
3E9776B4
3EE13CE2
3EAB6E74
BDEBB455
BE019771
BDA16179
BDF8C257
BDB9226A
3D2CC7EC
3E292914
3D9335D3
3E08A8B5
3D87453F
3E30BD47
BDCB81D8
BF0266E6
BDBB682C
3D111DF9
BD2BF0AF
3E18CA54
BDA88BD2
3E340420
BD1F7E71
3DC88A7D
BDC0D897
BE9FC8C7
3E7A94B9
BD7567C8
BD8D1BAF
BE4B9D7C
BC1D8790
3D945A8A
3DD44999
3D2FA8D2
3BB7A2EC
3E336B84
3E0C9412
BDABD2DE
BD1412FC
3DC5563D
3D8B6F97
BDC67053
3DC5E6B9
BE1D6B91
3DB9F2B2
BE2BD40A
BDF6AE36
BCBA056D
3E081B6D
3D746200
3C05A566
BF03EF19
3DC48120
BEDF869E
BCD83FDC
BE690489
BEB8B304
BC6D5CBE
3E02E590
3E65A503
3D2AC72B
3DAC21C8
3DA4B3D0
BDBEC2EF
BE404FD2
3E4D2A8D
BD663F3C
BC257421
3DB66871
3E7FA062
BDEFC28B
BACD685D
BE98BB84
3CFD8373
3E4E5F6B
BE8A3C9C
BE153952
BE4D0329
3E81D6BC
3EC033CF
BE113D52
3E30FE1B
3DCF7FA3
3C19BAC4
3DA5E2FE
3E3441B6
3C55F571
3D38CB9F
3E573872
BD2585DE
BDA3C5DE
3DC97768
BD4B87CD
3C2FC8C1
BDF97C06
3CF7205A
BE040FA0
3DB512C9
3D8E0F0D
BDF19D91
3E41237D
3C6924B5
BE24D8E4
3DF42073
3DC7380D
BD6FCA4C
BDA140A9
3C658D40
3D52E244
3E37F21A
3E3B278C
BD5BA118
BAD3D500
BE03FB9B
BCEAB340
3E37640C
BCE1F710
BC8539B8
3E0D2182
BD58DE60
BE133063
BD9AEB3F
3E2DA8DE
BE00FD68
BC6E8300
BD3B0AFC
BCDE80C0
BDF3C448
3D37E3F0
BE06D6BA
BE314EB9
3DAC0A74
BE3E101B
3DBDA000
BD820554
3E0C779A
3E3E28A2
3E373F0C
3CAE6C60
3D737E9C
3D40D618
3D80D8EC
3C8B21E8
3E242AE6
3E0028F0
BDA96BDB
3D60CC5C
BE38B846
BD4C3150
BD550E20
BE046341
3E2B65BC
3D5DA598
3E0B5908
BDCCC23B
BD91D2DB
BDC0B49A
3E0ED8A8
BE187CF2
BD409F48
3DB444A4
3DE0F770
BE31D94F
3E089EF8
3DF7DB44
3A601700
BDAFE4C7
3E3AE6D6
BDEF1CA1
3E36DE9C
3CC97998
3E021AE8
BD236DEC
3E241E26
3E16FE9E
3C5B9FC0
3DD93A88
3E10CD1C
BD46F330
3E0711A0
BD952B99
BE07E760
3CF5EC78
3DC55EF0
3DF494C4
3C5FA690
BDBF33C2
3D87B1C8
3D20A238
BDBAF94D
BDA706A8
BDF34244
3DDF6868
3D93235C
BE09ACCC
3DC62F8C
BD042D2C
3E0F57FC
BCDB5218
BE2FEE2D
BD9DBD9F
BE2C5489
BE0F505B
BDB228FE
BE07A35A
3E386570
3C14B480
BDCA4B90
3CDBEA60
3E3DCE8E
3D53DCD8
3E21D486
3E39F5DE
3DE2F774
3CCD72A0
BD9CA762
3D456B28
BC9E3208
3D9CD4F0
3CE40E10
BDD2244C
BDC129C9
BD71D7BC
3E3149F0
3E3DABCE
3D93A350
BE1563BE
3D7DE368
BE3E30F6
BE144E56
BB0E6380
3DC8D354
BE31AB80
BDEC600C
BC738FD0
BDE84BF8
3DD43B20
3BF51D60
3DFB34F4
BD824D56
BDCBD4B4
3E08B7F2
BD8DF676
BE16A559
BD28E6E4
BDAD29C9
3D753F0C
3E1CED20
3E21F9BE
BDEA2221
BCA224C8
3D816B14
3D550724
3DBFD80C
3C98DCF8
BE23249E
BBB1BFC0
3DCBF5BC
BD5A002C
3DB69C20
BDDC27AC
3CB78398
3DAB6420
BE2D6533
3E0EF230
3DACB848
BDEC53DB
3E8D2798
BC069207
3ECE362F
3F0ABA00
3E75B30F
BEB5D832
BE5EB115
3DB3C70B
3E1B1D65
BE5D6FB3
BDD78D48
3DD9042F
3DD49D9E
BDB4F3F5
3BC3C611
3E051482
BD8722E2
3D0D56F1
BE81C170
3D241F40
BD681E13
BE242113
3EA1C143
3E2512EA
BDC5D9CF
BD9863CF
BED5E582
3DA490A5
BEF7147C
BDE29637
3DA99CBA
BD6638BE
BDCB7620
3DD9227A
BE1CF894
BDA80D1D
BD6FA67D
3E73DA86
3DE52715
3D5FC1B7
3DBF9695
BE06A88E
BD5ABBE8
3E3AB7A7
BD3F6CF1
3DFE123E
BD59F2F6
BD2F0FB1
BB635C4A
3D572683
BDA90677
BD966346
BE3D8E3E
3C058DF9
3ED7187F
BE6A6E26
3E8433BD
BEC3EC45
3E28F039
3EE13DB6
BE84EAC7
3C55ABB5
BDED24CB
3D6E9FD2
3DA10631
BE68EFF5
BDF9E7C8
3C97E55A
3D70C30F
BDE6441E
39DFA66D
BE3B75AD
BEBCB18A
BCB3922C
3DB030CE
BD72248E
3BFBAA63
BE211953
BE02A1C1
BE5DFC52
BDAA35F2
BD9B0F6C
BE4655B1
3D2D3F30
BE6D991A
3D15883D
BE46A596
BE351A06
BE57404B
3D05501E
3E445C61
BDFEE812
BE5F8D08
BD455F84
3C892EA6
3E213CD6
3D99941A
BC01A1D8
3D6CBD67
BE03D104
3D00F094
3E05925A
3DE6928A
3DB648B1
3D148D5E
BD7A7AB9
BD9A279A
BE16E384
3EBE51CC
3DF9FE55
3E7E67F0
BF3B032F
3E01FE89
3F503D7F
BEB2938A
3DC57B72
3D6DF689
3E2D902F
BDC1E60D
BE85900F
BE254BB9
BC89A550
3DBCA050
3CA61D5B
BE4A59D2
BC218976
BE05B100
BE875AAD
3D5DAEAF
3E38D322
BD0B4648
BEA8BB8B
BDF306E0
BB6FD826
BDB384EA
BE51BB8F
BC112E1C
3E81E4C9
BE3CCA12
BCBD8CAD
BE09DECE
3E13F1C8
BE13FD02
3C84930F
BD1BBF43
BDD0E556
3CAE2F7C
3B7EFF21
BDD487AB
3E32393B
3E065D64
BD51FF18
BD801E41
3DA37CA6
3DBDDA91
3E10B80B
BE494EF1
3CD9CB52
BE84BD50
BE600BD2
BDF12089
3BBD04F6
3CFFFD20
3D45BD18
3DD21DC4
BD39F5FC
BE40E811
3D97A4D4
3DA7EFF0
3E1AC1E8
BE0F1D61
3DEB48AC
BDA2FAFE
BE276DC9
BD98B39B
BE0B9507
BDE52131
3E34A502
BDD6404F
BE04184A
3E42435C
BBA83780
3E0E8AAC
3DB04FB0
3C8527F0
BD616A70
BE02812E
3DE936AC
BE092792
BE1C56AB
3E0A9946
BE2EF71E
3E358038
3E2B166C
3E2F208A
3E17329E
3DC19B18
BE08DA90
BCA8AD58
BD9AD65C
3DD1236C
BDEA522E
3CFB75E8
3E2CA4E4
BBCF6300
BD6B973C
BE2376B0
3D46090C
3B7BBE00
BD7F04D8
3C9BD680
BDCD04D8
3D8E4C78
3E3CC6E2
3E276E94
39922E00
3D19E505
3E3BB6E9
3E9D2C7C
3EA81C74
3D821FC0
3E119EE7
BE16478C
BDF44ABF
BE3DA1B7
BC834B94
BE86EA66
BE150E13
3A0A1D71
BDF7DBD2
BD356260
3E17FE70
BD238299
BE03145E
3CA63CB6
BE879771
BE9CAF70
BE96D116
BE345D0C
BD85EDD0
BC00F56C
3D09574F
3E1235EB
BD9ACB14
3E6B4EA5
3E1347C7
BD1E58F8
BE51F449
BD9D1723
3E102638
BDD46D28
BE59B7DC
BDBF452D
BD4CB8A6
3E0090B7
BB5816CB
BD2D3BB1
BE7FC0FC
3E173454
BD9768A7
3CEF0F18
3DEB903D
3CE360A1
BE11F4A4
BE3E3AC3
3E1FC4AD
3E27E9A4
3DC3A5BB
3C2EDF72
BE724C96
BE8CB269
BE2769CF
3E21D175
3E35F603
3E93DD20
3DBE894E
BE057685
BD729787
3DE1B99C
3D9AB8E0
BE54B3DE
BB83BEC2
3DE3831E
BE46BA0E
3DAD50B9
BE190DD1
BDAE8459
3D39AC16
3D803FB8
3DEC50DD
BE171CF8
BE8497AC
BE0D4942
BDCC9192
BE5AB8BF
BE1BDA1C
BD6B8F85
3D54C66D
3DDE4C54
BE2D48CC
3CD3EC49
3DE958EA
3D5DD3A8
3DAF6A8A
3DB936F6
3DF26646
BC5E69FE
BE08BBDD
3E5EB760
BE136F0F
BDC2DB70
3D6A4895
BD68ABD8
3D5115A4
BD947053
3E02F45C
BDBE8520
3DE9FA21
BDE7199F
3E0C5E4F
3EA1EEA8
3D37CE97
BDA63A2B
BE2F5FBC
BD1E00EA
3E74395C
3E3F3286
3F120492
3E2D25C0
3E0D08D5
BE8F33B5
3C9B5666
BE229A2E
BE963DF0
BE88096A
BE20DF3B
BDAF7845
BE485923
3E16714E
3D5A552E
BC0B1AEF
3D65890F
BEABB059
BE0EE8AC
BE98838D
BE7C4EF8
BDEEEFF9
3E2B160B
BD53B801
3DA3A006
3D3F6150
3EAEB13B
BDD6AA41
BD829237
BE12BB4A
3DE533FF
BD840DFC
BE905C29
BC80E7E3
3D862BB4
3E0A4819
BE581012
3E3F2C3C
BE06C006
3D29F284
3CFCA92B
3D854E97
3D4D673E
3A7772C6
3CAB7BE8
BDD21EEF
3DA276BA
3E0357D1
3DBFFFA8
3E0066C2
BC560AB3
BE54046C
3E1817A5
BC56BFD0
BCBCEFC0
BD2CF844
BE27DDC3
3C9AC930
3D7AA2C8
BD370C70
3D727CC4
3DD5CFE0
3DB0F754
BC4F1E30
3C784D20
3E23C03A
3B91AE80
BD247194
BDEC7E77
BE2CFA72
BD221AC0
3E337B0A
BCFF3E28
BDB38163
3CF23FC8
3CECA140
BDA85A04
3E312DD2
BE14D61A
BDCC8F6C
3D1E3B7C
BD288A10
BD408E08
BCDEFB00
BDFF8FCC
3D2948B4
3E399058
BDE60163
BE202476
BD1A477C
3E0D3196
BD9BDED6
3D058018
3D33E924
3E1C43DE
3CB7A540
3DD40B84
BDCF438B
BE40BAA7
3D52D734
BC0E6540
BE0703A7
BD03C644
3E1A4C92
BE25D38C
BE1C62DC
BD1713F0
BF0C61EC
3E404ACA
BEF2640E
3F0FCE15
BECCFB41
BF4C4A63
3D556C25
3E06A222
3E2B1A64
BDE634D2
BD4302E3
BD5403FA
BDE8FE7A
3C74842C
BBA193F4
BDD9701E
3D65F342
BE4B5197
3ED2F23E
3E2322F0
3E824504
3E1248DD
3CAD7F07
3E63961F
3E2CA6B8
3E090B65
BCF24301
3DAA590F
BD0914C5
BE922922
3D1ADB89
3D611B0F
3E77D288
BD260F38
BD97CF48
3E2BFCAD
3DE87554
BE23D2B6
BBA2DCD6
BD3B1C83
BE2527B4
3DCA1690
3C9125D0
3E2E1440
3D8A3944
BE2C64B8
3D99E98A
BE050C62
3D1C691C
BD401431
3E00D4AB
3DEBCF1A
3D202D4C
BDFAEA27
BA571EF2
BCC60ED8
BE368B88
3E2EFB90
BE431A40
BE296B3A
BE3736EF
3D4762EE
BD2FCA1C
3E34FBFD
3E19BA1D
BDCFC765
BDAFC63D
3DC82F5D
3D4C9590
3D9C458B
3CEF5123
3E11F4A5
BC750739
BD9304C9
3DBB4B6A
BE1022D7
3DF25FC4
BDE54829
BDA76BD4
BE315DF1
3D35CA5A
3CABD8BB
3D656057
3DA1BEB5
3E2FB0C6
BE23EC45
3D4E7525
BE0F91A8
3DC5EB90
BDBA0DFA
BDE6A3F8
BE49BB42
3BBFE309
BDEB74CD
3DB5D24E
3C805364
BDDD8507
BE329906
3E1A3EE1
BE3FB0C0
3E1B0ABA
3CDA9ADA
3E088B7A
BE13957C
BDA27888
3E042AF7
BE4575B9
3DC1CB25
3DA8EF9C
BDF6668F
BE29E043
BDB402CE
3DE64DC0
3E36AAE7
3DBA2DBF
3DE6B4BA
3D8D0270
3DD4B2C4
3C64533D
BE4520F3
BDB0AD52
3DE282A8
BD88C5E0
BCCB4B47
3DD1D552
BD986F9D
BDAFC01E
BD5CA0AE
3E36B3E0
BD3501D5
3E07B42B
3E39D64D
BE0C9973
3E210F49
3D986EA4
3DC3B80E
BE4263A0
B892C47B
BDCEFE8B
3E08DB02
BE3B2415
3D826ED4
3E08F790
BE2D0AE7
3D028A9D
BE06FA9A
BD4F49AD
BE1597FF
BE0FCB1A
3E09FC0B
BE13F201
3E219B5B
3D0E16FF
3DF3F83A
BDFD9D17
BDBB5E58
BCCCD3CC
BE3B5773
BDF4FC75
BDFE2EDE
BDAADA92
BD1203AB
BC7348B9
BE349FE7
3D2EED55
BCF29B40
3D110AAD
3E486377
3BB26DF9
3E05BAC6
BE2E6EC6
3DFCCB6F
BE06F26A
BE73C15F
BE3D57FF
BE397164
BCDBA128
BDABE877
3D39BBC9
BE3FF06C
3DFE2C10
BE293175
3D328BE5
3D33B35A
BCC58C3E
3D6320E3
BCFC7AA3
3C3CC2EC
3E408D7F
3DB719CF
3E32E836
3D985D22
3DA7F5A4
3DE0CFA6
BD2E2C70
BCD81103
3D2757B5
BE171DAA
BD36AE0E
3D584C1C
BDF2419A
BDDDCEF9
3C09EF5D
BE0EC24D
3D8D2F8A
3D21B0BD
BE4AE89D
3DCCE0D0
BE4B907A
BE007049
3E06D16A
BE54D1D6
3D6D31B5
BDC5DDEF
BDCF13B1
3DC71561
3E309EAE
BC902076
3DF38AF3
BE863A05
3E14E3E2
3F0F451D
BEA24677
BE504B66
3D91482F
BD6D0207
BE8C6E28
BD82E954
BE07FBEF
BE3A8C05
BC8EF2D5
BE529E0F
3D052FE7
BDC860AA
BE039924
BCCC66C6
BDE5EDB5
3CD12C59
BE9732E3
BEAE58F6
BE18E0C3
BC916695
3E58939A
BEA1ADE8
3B81929D
3E3CA7E6
BCC23E04
3D61ABC3
BD866AE4
3E3DF683
BBB81171
BCA9C861
BE8C750F
BD5CFDBE
3B0CEF69
BE49D7A7
BDBC9F2A
BCC6447F
3D21646F
3D8D6C9F
BDFFE873
3DEE4005
3D015986
3D8997D4
BE60611D
BE4F2BE4
BC8F24AB
3A917DD6
BE6101D8
3CCE518E
BE9C338E
BE80C468
3DDAC27F
3EE26886
BEC48E8E
BEFE85AC
3E49A31E
3D38D4AF
3E3E016F
BE775757
3CE25F95
3D6D0AE6
3E1A0B60
3DAFC26F
BDBFA3F8
BE0F80AD
BD6BAA0A
BE577D17
3DEF503B
3CC99C7E
3E8CF586
BC8E6630
3D6C6E22
BDB99158
BE099FDF
BD06F2BD
BE26D672
3E08BBD1
BE92A625
3D5D9590
3D8F8B50
BBAC16A3
3E3B06FC
BC769D9F
BC91882E
3D6A1671
BE0F1677
BE0205DA
BDC3CC6F
BDE7AD3A
BE7CD5C5
BCB653E8
3D75E2D0
BDE2B94B
3E06BD93
3D97D062
BE2F63D8
BCDFEA1B
3E20141C
BD139FB4
3E14354F
3E1C9242
BE0D2127
BD0C5327
3DF74E9A
BD3B0576
3ED3A825
3E839EDA
3EC14865
3F1A1198
BC41A726
3E0729FE
3E81CE37
BCF513A6
3DB2DC81
BCE488EB
BE1B76B9
BDD7A5F0
3DCF8E5F
3DC5DC5D
3D82F6E1
3CE7AC52
3DAC301C
3CAB7A26
BD888827
3D8AD197
BE55B3CA
BECBBF86
BE80CB4E
3DD4CB6B
BDC53A5E
BE40522D
BE1D1A00
3DEBC794
3DE82813
3D5AAB05
3E917733
3CE3A583
BCC6C214
BCF95ED8
BD5808E1
3D60EA17
3E9BF0D2
3CB210F8
BD1B4090
BE568185
BD551990
BD53759D
3D877BA2
3CDCBC43
BCF8177C
BD5027F0
BE070A6C
BE06DEB2
3EB2F127
3E652D13
3E356E91
3C39A54E
BD64EB98
BC406DB0
BDC852BB
3E12D8BE
BC4A62F0
3D2644BC
BB495340
3D1564B4
3E2CBF5E
BCE95140
3D9B3284
3C3D70D0
3DF379A4
3E26BF56
3E3E31F8
3E03B760
BE3FF0BF
3DAEF514
3E36C3A6
3D18EBB8
3D9102A0
3D6FC940
3D4A3D50
3DFCABC4
BE2B2BE7
3D004B78
3C865050
3CE493D0
3D11EBD0
BDB936FC
3D99BA10
BE02E3A8
3E2BA11A
3E1876CA
3DBB071C
BCC02750
3C9F1A10
BE39BD57
BD9E3A81
BC2EA610
3D733F88
3CD8CB08
3DC38B78
BDA7F37F
BD70D20C
3DA0DBDC
BDEB33C7
BE3D3D3E
3E31FE6E
3D4477F4
BDEFEFBB
3DB28D40
BE21A4DA
BE17B4D0
3E8E2BA3
3D632248
3E65CEFB
3EB03571
3DFBAA98
3D2ABA12
BE02BEF6
BD626CF9
BE11F90A
BDAE932B
3D98394D
BCD0040F
BE3ACABB
3DBC744C
BE3CA24D
3DBC766A
3E4B3CB0
3E060766
BE92831B
3CCA5D75
3D9A58D9
BEDD4494
3E78738E
3E4E5068
3CFF1C7E
BEA9383D
BCEFBAF6
3E7B1F79
BE187579
BEC4D71F
BE152A0B
BE2078A7
BE749E7F
BA9D8FE7
3DEC2969
BE21A63B
3E34CE7F
3E03A9C7
BD411C6C
3D70BE8B
3E1B96D7
3E04CC67
3D5D0845
BDE2AEFF
BDF3418E
3E081878
BDE0C89E
3DBE6033
3E475AAB
BD86E7AE
BE34DA02
3D4937E1
3E4D054E
BD00A1DE
3D23A896
3DA093EC
BE9B5CE0
BE418B33
BEA6013B
BEA23771
3D28F06C
3E1C9DA2
BE1B6656
3D9C6F06
3E4A48BE
3E299362
BD9FDECC
BE1C7211
BE2F89A7
BD4649E6
BE2942FD
BE3F5DF3
3E8EF63C
BD942591
3DDD5FE0
3EA20821
3CC72DA4
3DFCDDFF
3E1BBC5A
BD1174E0
3A23F002
3A5962EA
BD9BBD38
BD9309B1
BE410BDD
3DAA17FC
BE98111E
3E298B19
BE4DABDB
3DFD82FD
3DDDD58E
BE3DE366
BE85B0C2
3CE79CC1
BDFC38E4
BDCC3814
3E098FF5
3E356721
BE128076
BE136DCF
3D3FAF0C
3D964D0E
3DF03981
BDD35FAC
BE811F30
3D0EC74E
3A5F63CC
3D1C12E2
3D698710
3E23FEE8
BEA2C9ED
BDBBB7D8
BE483194
BD9A1680
BC503F37
BD8D2BEE
BD73D0CF
BD4960CD
3CC114C1
3E3E74B4
BCA68683
3DC11332
BE01F19F
BDD12B0A
BDD8DFA8
BB8E284A
BDCC8F3F
BDD3C2C7
3DC86841
3C5CC821
3CA95350
3C351849
3E093A84
3E80006E
3E6F900C
BD12310C
3E022B9C
BE5E182F
3DA9E691
3E2177B9
3D9771D9
3E16253B
BDEB2445
3DD0B3BB
3E1976E9
3E527776
3C47B1C9
BE4556D1
BCEDDEE8
3E1C313D
BD918F29
BE15A398
3E2370E0
3E09C9FF
BDE0F8E3
BC87DD96
BCB87DA0
BDFDFF26
3D4DC904
3D971112
BE2EBE5B
3E331588
BE999209
BE45E061
BF0057D7
BE8B694D
BEC76F95
BE983FB7
3D1A6C2C
BDFD80F5
3DD0BE9D
BBB10BEC
3E37D4A2
BD876205
BD3706F7
BDB96531
BD3A63BA
3DF58124
BDDB296F
BDD3A4C2
3E0D5EC5
3D0B914D
3DD2AA82
3E898ED2
3E3CC3BE
3E436DB3
BE03E22E
BE5FB8E7
3D220319
BE8D2F85
3DAE2D72
BDE041C3
BD2E2A6F
3DDE7048
3D227C3C
3D0D9668
3E075B37
BDD479C0
BDAEFA00
BDB8A262
BE6668C3
3D913DA6
BCE7698D
3D4FA829
3C07BCC7
3E1FA697
BD9D0207
BDF20DC1
3E23BF3E
3C2243FC
BD531843
BD99A38B
3D4F9F35
BDD14589
BDA3E7F4
3D17820F
3E93574E
BE858B01
3E076E41
BEDC7120
3DFB60B4
3EA68606
BDCA2610
BDE79757
BD9ECE4D
399B8B7E
BE66970D
BE8AAB1E
3DEF709B
BDE80AE4
3D100D39
BE202B14
3D99F476
BE6D7FEF
BD9B8BCB
3CC27885
BDF5C07E
3E92F0A8
BDD925D1
BEADE1F2
BE148B67
BE2E381A
3DA800CB
BEA56F0C
BE15F4EC
3A1EA2D8
BE11C0C5
3D609F88
BD0D9D32
3DE7CF1A
BD67D496
BEA9D7B6
3D7B0481
3CC97145
3E110BEE
3E119116
3A04516A
BBDAE2F7
BD588AC5
3CE8F488
BD63E742
3DD96360
BD34A515
3E012886
3D1396E9
3D6B4332
3D736382
3D947AB3
BDAADD0B
3DD66343
BE919CA1
3DDD02C6
BD8A1373
BE85EC61
3ED0AA87
3F381E56
BE832A06
BD5F7444
BE0C69B5
BE4488A7
BC0CF039
BD4D8E7F
BE2388EA
BE17CACD
3E31B380
BD1FAF2A
BE229197
BE056EC7
BCC2F323
BEADEFA4
BE82781E
BE19C9A4
BE7BDBD8
BED8B062
BE12B12D
3DA7AC1A
BDC8D6E8
3DB6057B
3E27807F
3E3FCB0F
3CD56788
3D8702AE
3D80260A
3C304E2D
3D24E354
BE0F8A77
3D626285
BDA825D6
3DB65E16
BE736203
3E093CB4
3DBCCD2D
3BB30EED
BDB41453
BD6C257D
BC3A7C10
3DA09D31
BD19E8F6
3CC2F0D6
3E415A6C
3E837762
BE080622
3E53EC3B
3CFA5849
3E5AFD6C
3A802471
3ED64705
BE8DDF23
3EB05970
3F14107D
BDF8A546
BD89A1CA
BCA5D6BA
3D56B75B
BE5231D9
BBE41435
BD8D60F4
BDFB4C26
BDA6434B
BE1742E6
BD19DE97
BD28A788
3C9E5FF1
BE848D7A
BD79ED86
BE6F5410
BE3E2738
BE51DAFB
3E31201F
BE0743A2
3C5AB44B
3BCB97A1
BD8E994B
3C34ECA8
BE261825
3D72D1AF
BDD64875
BDE154D2
3D067D1B
BE3FA616
BE142B20
3D7420A4
3D2E75B3
3E4B2626
BDACCF4D
3DFCD45E
BE0555DE
BD0B70DF
BDAC6568
3D11DC40
3CA3758B
3D694A22
3E48F9DB
3A946D21
3E667B87
3E0950E3
3DEA2A58
BDBBB451
BC3E8E60
BE1979F2
3E1627D8
3C19DD70
3CEEDD98
BDB126E2
3E2D2790
BE0EE477
BE2D9785
BDD2D968
3DE64BE4
3DCC4F80
3E0E36BE
BE0557C8
3C606F50
BE0169C6
BDC798CC
3DCD4484
BE2666B9
BCC80358
3DE64EFC
BDE88463
3CECDA30
3E0A4EEA
3E16578E
BE353F46
BDA60562
3DF0DD8C
3E3B9E50
BE2103B2
3DE20934
3E01656A
3E279128
3DDE9A44
3C9A1740
BE09F227
BE152D2D
3E25D160
3D7495A8
BDB1447E
B944DC00
BD6A24B4
BDFEFA4B
BD23FF80
BDE7B976
3DEEE45C
BD5D0EC8
BD6A8DE0
3E213C72
BCEAFD30
3D3E7140
BCAAF9C0
BDBF9F57
3E2B06A8
BF0AE44E
3CBAE0D0
BED87918
BE99827C
BDBA991B
3EE25D29
3E458D74
3CE961B0
3E5A965D
BE01308E
BC3E62EB
BCD73863
BDCE44B8
BE0EE2CE
BCB9A11D
BD9E302F
3DD688AE
BD129F4B
3ED86E28
BE0410D3
3E133595
3E36E7EB
3B904463
BEBE5205
BE265304
BDD80065
3D5A167E
BE85BA52
3E1FD091
BD9C2C6A
3D7CE2AF
BE0DA731
3E928FE4
3B3AD731
BD805ECA
BD5CD80A
BC6BD71A
3D954296
3E893AFF
BE289F90
3D970895
3DB49CF4
BE1E0C5F
BC08D933
BD2E66FC
3D4FCF86
3E0B5131
3E0DF6F8
BCD2816F
BC13FF4D
3E4DFDF5
BE11FBDC
BD3A521C
BE8088DB
3D84DCF0
3D700D3B
3EA463AB
BF2BC7B6
3EC3779E
3F61F147
BE9A8DFE
BDD310BC
3E4D0344
BD75F99C
3CAC5525
BE8868B2
BE18228F
BDD7E0AB
3E011C47
BE33A268
BE1AC79A
BD3A29F8
3D7FE066
BE0867F9
3D1ACFB6
3D40A39D
BE244B02
BE505175
BCB86FB0
BB18CDE5
BD4326C0
BED559D3
3E4F86CF
3E56123D
BE2D5872
BDA42D53
3CFB4B2A
BBDDFD44
BE6F6834
BE6E2CEB
BB77CF6C
BE1DBDAC
3D030684
3DBCE089
3D711EA0
3CD8C690
BE23CA7C
3DF78970
BCFD1258
BE3BD8FE
3E119582
3E11E902
3E0F643F
3DEC60E4
3E1720E4
BDA9A9BB
BE13FB90
3CF1DE2E
3DA2FB9C
3C20E481
BDC58A96
BEDCAACA
BE22EC27
BEC36DCB
BE1E5A53
BDAE573C
BE084AF5
BD930DE3
3E02A122
3CC6D269
3DD6604F
3E2FC994
BDA47073
BD559331
3DA36E6E
BC90F534
BDE93608
3E8CBFEA
3C5783F9
3B400154
3E8C8BF6
3EE091AD
3E42E021
BDA3C202
BDA8D922
3DB68486
BE5EC823
BE096B58
BCD2602C
3E29A2D1
BE3CF400
BD5F87BA
BE4015A2
3E5FDE30
3CD05C10
3B5628B5
BEA61433
3DC87966
3CD99976
BD89048D
3E01157F
3E335701
BE33EB8D
BE24B296
3DE30B62
3E108D2C
BE1136F6
3DFD651D
BEA6F0DB
BE40D0F4
BE56B379
3E348577
BD274C66
BE675209
BDE11267
BDB0F9D2
BCB085D5
3E7AF578
BE2275C3
BD47C871
3E2D6ADE
BDC8D0EA
3D9D2655
3CF1F113
BE1B1EE3
3D3DEB13
BDB8EB84
BBDABA89
BD9C9CE8
BE77FA43
BE1C8424
BDD79255
3DE3636F
3EC7A8B8
3DD081E8
BE3ACA9C
BC195052
BCD0A02A
3DF08BB9
BEAF9062
3DEDDB5D
BBFC024C
BE5BDC71
BD4E07EF
3E4210C3
3CFD1E1C
BE44F6ED
3D304273
BE15504F
BE8DF53F
BDC46AD8
3E1ED83D
3DAB5E27
BE5832E6
3DDFC08F
BDAF1845
BD5B3F74
BBC537C9
3CDAC076
BDA42AE3
BE00EB7F
BDBC7392
3D0FDCE6
3DF72C38
BB9C642D
3CC063F6
BCE87020
BE1E2DA9
BC1BB000
BBCB8F80
BD931A43
BDFCC1E4
3CADA798
BE04A8E3
BE05478A
3E2F6A14
3C1FA580
3E0DC3A4
3E1118B6
3E184664
BDA29D38
BDFCADF4
3E40CAF2
BD7BEB28
BE2DAEF4
3E0B18A8
3E117CE4
3D1F8064
BE130B44
3DB1681C
3CE77A50
3CC8EBC0
3D52FB90
BD6207E8
3B3D1D00
3E2AD31C
BDA183F1
BBB5DDE0
3DD999BC
3D846C14
BDD2AFF0
3DAF4DA4
BD8A0D2F
BD0546BC
BDC06510
3D879448
BD13C2F8
BD7CD224
BCE20448
BCF4DDA8
BD395A60
BD4FF6C8
BDDC89A1
3DFDA490
BD2F42E0
BC2F5830
BE2A578B
BE0DD65E
BE183E2F
38A3E000
3E140177
3E1848AB
3E784621
3C8CAE92
BE91A009
BF1AEED3
3B069CFE
3D4BB11F
3D5D722C
BD92C244
BC9730B8
BDC9B510
BE0D542D
BDA2037F
BE500C49
3DED0711
3D5819CC
BD707338
BB8B3D1B
3E0AD3CB
3E0B81F7
BE214EE9
3E7A9E71
3E84BF29
BD749302
BE239B93
BD193ACC
BCC03D68
BEAD47F0
BE408758
3E09A6E5
BD788CE3
BEAD40DE
BDDC3827
BD8420DD
3E7D989B
3E41C5F1
3E44DF99
BE4D2DA5
BE114738
3DDBC3C7
3E27CF34
BD991395
3DB2FDEC
BD39CC12
3E039FC5
BD98A4FA
3D076453
BE2A66B5
BDB04E74
BE83E6F5
3DD4349C
3E0E7113
3E77B8FF
BDC326D9
BE3B156B
3DF1C302
3B226D6D
3D878A77
3E5DAB8F
BE3837CD
BDF2660D
3DD36891
BE34490C
BE4316DA
3DEF2C0B
BC89C6DC
BDB1441B
3DB4E216
3E06F819
BE493C4E
BE399D7C
3D708557
BC7D16E1
BDE62B89
BDC06F10
3E27C634
BE6AED65
BCAD9136
3D7E4537
BE367757
BE53096E
3D70EC12
BD3A63CF
3D1B9FE3
3B270812
3DF5D3A6
3DC5AC34
BD4E4691
3DFBDF8E
3E21F22B
BE38331A
3D74C5F6
BE28116B
BE4947D1
BDDDE585
3D70B15E
BDA58EF8
BD4E88EA
3DA8BD0F
3D0138D6
BDDCA93E
BDD6D413
BE159230
3D15BA07
3E0A6309
BE0C2C08
3D8407D6
BE3D80C2
BC4BF0C9
BE98C726
BE65178D
BD47B959
BE31D605
BD47D970
BCB77FD2
3E0EE97A
3E2EE168
3E16E2BB
BB86A2C6
BE59372C
3C238A62
3DB09F92
BE60D2FD
BD9D1834
BDF90071
3E93C485
3D791ACE
3B8FA160
3E353613
BDBD4D17
3DEDF29E
3DB2067B
3E65B9A3
3E26723B
3E339E99
3EAB9B6B
3D45D069
3DE6AB73
BE183BB0
BE261B1F
BE1D7169
BD37F46E
3D555141
3DA8B2DE
3D80727E
3E0D4AF2
BDD1E50B
BD5C3E86
BDAE2E36
BBB29ACE
BD8E7E4B
3DCE02B7
BDF044FD
3DC67828
3D491129
3E2C22FC
3D0F893F
BC6CD56C
BE14950D
BC98ECFE
BC2E7A8D
3E25A162
BDC6798E
3EF52E06
BD5D1385
3EB69FF6
3EEEDC0A
BE663E7D
BBF52276
3DCF634E
BD0F57E2
BE156119
BDC15D90
3DED3281
BDD12B6E
BE022BEF
BDC7F6BB
3D41EDA3
3E1A0694
BC37B541
3D6EF65E
BCA82E46
BDE0B803
BD9A63F4
BD595589
3E30A654
BE319D69
3D34FE2F
BE0BDA3A
3DB71B3D
BB961FC3
BDBF1361
BDC10EC9
3E1B22F6
3E210294
BDF97A07
BE39A8D9
BE23BCB4
3C1E52C8
3E3CF3B0
BDFE78FC
3D298024
3E0E3D3A
3CA79F91
BE4D7FB7
BD0B2EA1
3D358C26
3D291E05
3D28BFEE
BDA5BF52
BDA89CA8
3E6DD2C9
BC18FF10
3E44E545
BC664591
BE4DD51A
3D273EED
BE4A7A78
BE1A799D
BE217C1F
3C437C3A
BCFF5D5F
3E1399DB
3D29B441
BDAECC54
BC0748F3
BE3271EA
3D8E344F
3E277691
3DA7F125
BE2D35C9
BE4B5E5A
3D7C4F04
BD2C6041
BE02ED5C
BDA2B0A2
BC961088
BE41E9DA
BE15BFCA
BD83F65A
BE249C5B
3E359183
3DCD56F9
3E1F7C0A
3DE6AB3D
3D407EAC
3E1D8F93
3E341921
3E012612
BE34B2B1
3E18B5C0
3D15968A
3D070FB6
3DD346A5
3C3BAB8C
BE08EAC4
3D6C8CC5
BE0EDA37
BCC5FC9E
BE0C4553
3DF258F5
3D982912
BCAF65C7
BE2D0B0E
3E2DF0A8
BDDFB36B
BDF382C3
BE1F16BD
3C9ED9C3
BF19C44A
3E54E12C
BEF55EB3
3EE4571A
BE92275A
BF243FCA
3DBA89A1
BBAB3158
3E5FCC5F
BDD1B33D
BE1D85B8
3E5B2940
3D9D823E
3CD3586F
BCF2F0C2
3DE5ACA4
BD6290DC
BE416679
3E5D7D5F
3AE17C9F
3D2263A7
BE97B2E0
3E85C986
3EA2E1AA
BDCDE05E
BEAF71FC
BDFE458D
3EBAF9FD
3D182121
BEDD3CE4
3D91ED38
BC9F4461
3E70884F
BDE818C4
3A3CB0C9
3BA80080
BDD37D51
3E016078
3D7E8793
BE0C0FC1
3D8343F7
BBCD2751
3E194440
BE15730B
BD70BC5E
3DFE3969
BC20C814
BE052673
BE0F6AB9
3D32AF44
3E8F7F0F
BD1DBD91
3E070AD8
3DB0163B
3E09B0CC
3EC4EDC5
BEB07EB0
BDF66636
BC8B278E
BEAB7C27
3E20DE97
BE4E454F
BD90A7A1
3D072CD2
BDC5B53A
BE0CC51C
BE58E5F0
3E3B31D4
BE747267
BD34539D
BE0EAB76
3DA6CF91
3DF5136A
3DFCFDFB
BDD30B73
BDCF3FE9
BCE97045
3E59D5EC
BD013DF6
BD9B4E15
BD6136E1
3C1C4259
3D0247EA
BD1D8573
BDA659F6
3E58CB34
3BEA70A6
3DE86ABA
3E52ACF7
BC574A92
BDE987BA
BDC2EF2A
3D30F14E
BDB69331
3DEBAB75
BDD73608
BCD12EBC
3DBAA9A7
BDBCC5BA
3D90BCF1
BE0A0DD4
BDC0A72D
3DE3C3C5
3E5C8571
BDAE2D5A
3E396464
3E546C7B
3E496B2D
3EDB7514
BD4B9B0E
BD9145D7
BF43268B
3CD67613
3DDD5F10
BEAAD4DE
3DDC195A
BC5FA6D7
BC9F55C6
BDF95CBE
3C460612
BD770F0A
BCEEF5B5
BE71E595
3D43A286
3D9990A5
3B3D61DB
BE8238FA
3DC6B60A
BDB74AD7
3EB0B15D
BD63045C
3E457AF2
3D8C6B6A
BE23D104
3D8BCDE1
BE44C001
BD9B5426
3D4CD081
3D9E7D61
BD7FAD3A
BED950EB
3DC95E00
3E1BADB3
BC84C37D
3E34572C
BDDF46F8
BE4465DD
3CAF9B7E
BDA7B9AE
3D82B1EE
BDB556A0
3DBD0B94
3E4ABDC6
BE15FAE2
BD7ECF89
3DC735FB
BDBB0AAF
3D561AA2
BECF1B7E
3DE6866D
3D651584
3C60F42D
BEF97278
3D9E196C
BDD0C73B
3F0015A4
BD4D5A9C
BEBDF626
3E5227B8
3CD72D8F
BC971195
3DE1BF8C
3D113C79
3DF57879
3E01ADAD
BE465277
3E478505
3DA964D1
BE14ECBC
BCD675D5
3EB979A5
3E249FAD
BDA6E7AC
3E40C6CA
3D7EE97D
3B7D542E
BC911A96
3DD90142
BE1D9132
3E0CDF4C
BDD9D9CB
BDF4EFE9
3E8ADA1A
3D87FFE2
3ECF6296
BE08D410
3C6F8EE6
BE18F35C
BE0ED7B9
BE2F0A32
3E2BBE2D
BE411397
BE39318A
BCE4FF28
3D38B88E
3DFFEB2F
3D86C918
BDFAA660
3D822105
BE23B347
3DE95A02
3C94BF17
3E9267B6
BDC7758A
BE09E3C4
BCA74A20
BF12ECEB
BD3740A6
BF04060C
3EFDB54C
BEAA19B0
BEF892D5
3E2D1FEB
BCCFB4D8
3E469440
3D3E3341
BD173861
3E8EE7D4
3D205FD8
BC87D2B6
BD9CB6E8
BDCF45AF
3E034FC5
3E394B25
3EEA1D43
3E379185
3E50A78A
BE8315E0
3EBB585D
3E5E75CE
BCCEF5C9
3DD4B5D7
3DE73C67
3E538C8B
BDE8C48C
BE1EBD04
3E3D3F9B
3E2D36E8
3E5071A5
BB1FD37E
BD9D8556
3EA657CA
BDF14DB6
BD314AD6
BE04BAF6
BDF6111F
BC13C742
3E39DBDE
3DB6C0EA
3DFA178A
BB2D22BA
BE25A2FB
BD9C69BF
BDB27E42
BD9BFA50
3E2BD1B2
3D42B37C
3D810DFE
3E2B52CF
3D429E81
BD809EED
3C964735
3EBEA440
3F1426A3
3CE7B5DA
BE52181C
BDCB8509
BAA4D0E7
3D79ECB2
BCE9DBA6
BD8DC074
BD27EAC8
BD5CEBC4
3CEDC6CA
BC3A31A8
BE1BAA4A
BDF38D3F
3CC64E9D
3D817760
3CB75044
3E1BCFE1
BE8901AA
3DEE8751
3D0E9771
BD0C5B56
BE46C96F
BD5FEFDE
3D6DE8F4
BEB203B0
BC61D3BB
BE11D67F
BDDF400F
3DEDDFCC
3E09E13D
3E4CD130
BD4DFBAC
BE369FBE
3B9D3AA9
3E10FC32
BD76C2C5
BDEB1A85
3D2B6BCB
3E1012BA
BE1961C7
3E44FE4E
3E260F1E
BDFAAB36
BE1637A4
BDA36008
3C8669D8
3E33F72C
BD277511
3BEB47B8
BE4EFFCC
BE254FEE
3E22980C
BD123D0C
BCC7C3A8
3E2BD8B1
3D004411
BCDA68E3
3CECC1E0
BE0742F6
3DDB34DA
3D2F3AE6
3CCD361E
BD748D0E
BDDC9C5C
3CABAFF4
3DF6A835
3D9EE8AA
BD961376
3BE67A18
3E0E24E6
3D237DCA
BE3755FD
BD284D81
BDF2C336
3E1FDA34
BDF811B1
3DABD344
3CC0F875
3E1FF067
BE17010E
BDE34EEE
3D07F1B4
3DABEF92
BD7DEAE2
3D7554FE
BDCBD306
BE3725AF
BE010538
BCFF48D9
3D08C126
3E2AD590
3E24B0A0
3D0EC599
BDF3465A
BDD7B1F9
BB2B3024
3D85F1B6
BD95488B
3B988813
3D73276B
BD962E61
BE14F132
3DD70E88
3D706E86
3EFAFCD7
3DBE3A4B
3F256B0A
BCA36F4A
3EE9246E
3F20DEA1
BEA76006
3E143775
BE2CB10B
BE44AC53
3C1C5ADE
3B120954
BE322A5E
3DDB73FB
3D2A1078
3D86F4D8
BCE24007
3D90263C
BE7A8822
BDB33986
BE1A23DF
BDA06901
BE65604F
BE848AF4
BD88188D
BDCFAE3F
BD068051
3D53A346
BD481E72
3E288E95
3D1FC88A
BE3CA013
3D8EF6F2
BE51536F
3D81387C
3BC85AAA
3D9C5D4F
3E1E88F3
3E345E43
3E0C1C6B
BE30B316
3D114D1A
BCC8CAD2
BC7AFECD
3D50B69A
3DDC0DCB
BD909382
BC113F67
BCFADC16
BD0E115D
3DA940F7
BE116DC9
3C5D90BC
3E120BE4
3DC4DFA8
BCE1F868
3E346110
BDA1299C
BDF94C22
BD87326C
3E3239E4
BDBD7EB4
3E1A0ABA
3DB218E8
BD85AC35
BD8648AC
3DBA6A30
3DB5FE84
BD44B3CC
BD7CB5DC
BE359821
3C63DB00
3DD391D0
3DA0C2E0
BD276E44
BDF990F5
3DB2ED08
BE1030DC
BD66CF98
BE3A6890
BE328A7C
BDB34D5E
3DAA41AC
BDA92AD6
BB0C7F40
3E313322
3D0962F0
3E001B66
3E0E3DAC
BDFB6B3A
BC1089F0
3D5A8B48
BD871C70
BE2442C1
3B690AC0
BD512510
BE39FA24
BD86469B
BE2ACB01
3E4095FC
3DDF8778
BE0D6ECA
BE2B801A
BE3249F4
3E3F9690
BD60B6A4
BD8BA775
BD82426E
BEC274D5
3E045618
BF0763C7
BE8B9552
BE1A279D
3E07CC56
3E158721
BE51DC17
3DCD377F
3DA88BAC
3E191DD7
3C6B4066
BE0E8078
3E2526BE
BDDE0CF2
BE3F276E
BE109B89
BE02114C
3EA1FAF0
BC968D53
BE27801C
3D6F0654
BBC25843
BE48ACD5
3D3E0AF7
3E53E819
BE2B64EF
3E50B46F
3E8C800A
BC9B6A46
BDE0AA5A
BE1643BE
3D66784C
BD51739D
3E32CD2E
BD7923C9
3DDE70D0
BD48DB74
BD9CFB7C
3D2E1EE9
3CDBB443
BE09C05D
BE457A33
3E1368AC
BDD98896
3C5B682F
BD88BA53
3E3894A1
3DDACA33
3E1F64DC
BDCC2637
3DE17B1F
3E247D29
BE263E36
BEF6A12C
BCFDF5E0
BE877281
BE19F867
3C8D41DE
BC86CE95
3DBBE6CA
BD9E795C
3DE2AC71
BD4A123D
BD030E8D
3DADE5C1
BDB84983
BE278F4F
BCB825FF
BE1D4902
3E060156
3DBA8EAF
3EB0B3EA
BD4E787C
3D2C5D2A
BDC903A7
BD0850A0
BE3AADF8
BC36B7C4
3E1D6A7D
BE00175A
3B7BE726
3DE9E17D
B8C7EB95
BDE49068
3E247694
3E07C7A8
BD14F7F1
3C2F4F82
BE02EDBC
BE2F0AEE
3C2C0C8F
BD2573D2
3D61FF80
BE620C02
BD7C86EB
BD1B43DA
3E10980E
3DB2D5D6
3DAD05C3
3CFA8A84
3D36B2AA
3DCF4CDB
BE4F78AB
3E1E5FF7
BDBBFB96
BE38B49B
BE23512D
BE381D7F
BD6107DF
BDB26D4C
BD23BB7E
BE1C6CB1
3D67DD32
BDE0790F
3D986387
BE06E515
3C351445
BBF5D451
3D3A1BBD
BD26DCAE
3B866FE2
BD3CC404
BE0F934E
3D2ED701
BD93417C
3E1347A7
3BCEFE4E
BD856066
3D4B1678
3E0AB8C9
BDF1CC0C
3E0B5042
3E0F7EC0
3DF7FFB5
BDFBD3F4
BC50E641
BDA75B69
BCB5BB60
BD5C8888
3C9A4C75
3C4B2DAF
3DBF3B9A
BD4646EB
BE11DBCE
BE2C8D17
BD881605
3DFA16DD
BDB76811
BE1CFC24
3C8864D2
BD99A911
3DD1C0D9
BE3BE1EB
3D61240D
BD34B817
BE195768
BC06C307
BDC873EE
BDEA6BA3
3D8062BD
BD1FA510
BDD95A1F
3D99B88C
3E28E574
BD115F44
3DF0DAA0
BE3E7B15
BE4024FB
3E2C80E8
3DB55624
BCB86CC8
3D6A8100
BD57AF78
3D897DAC
BDBDC98A
BD5E43B8
BD7B0D3C
3D9FD36C
BD179710
3E1D7E92
3DE75004
3C6B8930
3E2DB094
3DA43AF4
3E36AD46
BD7C8700
3DC57DCC
3E0172D2
BD8B3B6C
BDC0FF6A
BD521998
3DB1504C
BE0D8386
BD5B15D4
BC8B7BD0
3E1E86E0
3E336AE8
3E1BFBC4
3D16BD4C
3E396186
BD945624
BE177A90
3DF4D6E4
BD0C4C0C
BE2C70C1
BCEB45D0
3DF650B0
BE2CDBE3
3C9C1AF0
BD74B2EC
BE3DD16D
3DB5E684
BDD3ED26
BC5B72B0
3E3CE39A
BDFDAD1D
BD14EABA
3BA6DD49
3E9CBBDD
3D3E9BCB
3E4C7146
BE0B44D6
3D51FBAB
3E77C426
BE238B47
BE3AE618
BDE50091
BD80AC7C
BE3F1B2D
3E48A453
3D7D4482
BDC58FD9
BD937EF1
3DCDBBAF
BE1DEAEB
3D5FE1A8
BDAF22F4
BE04D3B2
BD4012CC
3DE118D3
BDD9ACC0
BC94EF7D
3E706337
3D15F152
BCA3FF57
3DD9FBD0
BD8BE4D1
3EA1ACAC
3CD255F3
3E50003E
3D567C7B
BDA39E93
BE0328DE
3DFE22AE
3D46EEE1
BD25A3A5
BE331451
BE3EB06B
3CA1DBF6
3DBC9713
BD9ECD79
3E186D7C
3CCA24AD
BE5BA459
BDB4372B
3E8225E1
BDCC1414
3E501DED
BDA6F532
BECCB9EE
3E5EB5BC
BE9F24F3
3ED1863C
BF1267E2
BF61411A
3E101819
3D3798BF
3E276615
BC16B84F
3E0ED244
3E81DCE5
3E125C0B
3E525FEE
BD987F5F
BB6E3963
3DBC6224
3DC8B6DE
3E74141D
BBFBC790
3D12DF8E
BE8B777F
3ECFBBAA
3E70C8DA
3BB55F97
BDA488B1
3D4367AF
3DD9C237
BE8D55D4
BE75490D
BBE6B91E
BE245164
BE407088
BDD16BDE
3E563773
3D3D47DD
3E2D1A52
BD6961EB
3CC2C1D3
3D3D91A8
3D0F832D
3E0C8A00
3D96D635
3E2E59B2
3BF2324F
BB5CE362
3CE1B0EC
BE5758C3
3DE8663C
3E3D98F2
BE8129DF
BE1B41D3
3CB1EAF6
BCAC7DBE
BE8E6501
BD4852FD
3D530E30
3F20E17A
BE3768E2
BCC2C116
3E4D252F
3D160373
3E34D8C9
BE4E8AC1
BC27BB6A
BE10C815
BDE85F09
BD785B1D
3E24F8B5
BDFD5247
BE3C4B62
BDF81E69
3E5A70A8
BDE249E9
3E683736
BDA694C8
3DABDC59
3E671D6D
BCB15990
BE005E90
BD541B66
3DEA3E94
BDF2548E
3DD0FE5B
3CABC91E
3D5E0EA0
BD4AD045
BE93076C
3E03A846
3DCF536D
3E04BAD4
BE634514
3E875465
BAD82F62
3E48C848
3E0E8724
3D93F24A
BDB1E85F
3E1F0B69
BC71F000
BE056480
BD39C7E2
3E3807C5
3E145DDE
3E5305AC
BE12CD21
3E0E096F
BDFE39DB
3EDE1D06
3E485BC3
3F342234
BE9DC310
3ED0BBA5
3EE493AD
BEB6207F
3DF30293
BE4AE9DE
3D9EDE5C
BD0A3538
BE99A5F0
BE3F7ABB
BDA28EDC
BD9A40D5
3D268AF2
3DE1D369
BE4133EB
BECA4C33
BDC4B6FB
BCE1AE14
3C8F8452
BE9A63F8
BEA9F487
3D641D8F
3DFDED74
3D88A60A
BE4A0EC9
3D855DE8
BCE0BC4F
BD21C2BE
BD85A2C6
BDFAEB4F
3DA98DE9
3E0F175A
BE77B8E3
3CD49ABE
BDF7D4F6
3DAE6493
BE2E45AC
BC50A461
BE49D534
3DDC5870
3BA1AEFE
3D4BCA9A
3CC5C8F8
BE4BAAC2
3D8F9536
3DCD174C
BC50BB70
BE145775
3C313934
3E6D50D7
BE03114E
BC925927
BD17F7D9
3D7B9B58
3C60F58F
3E24B863
3E577538
3DCD59F7
BD8CB912
BDDF7924
BCE14D55
3D457F5F
3E13B34E
BE3840A4
BBAA2F83
3C8664F3
BE157B3B
3D99A326
3E26AA7D
BDBB27CC
BDCC8852
BE6586C4
BE467864
BD71712B
3DB99CD7
BD9585EA
3DF57CB2
3C8BEE5F
3DB7EDBC
3DF977A5
3C3B9A06
BE3637E0
BDF0D619
BE093603
3E1D7104
BD7D054E
BC9BE0EC
3CF5396F
3D2DE283
BCC1F3AC
3D007417
3CB333FB
BD8FB932
3DAC6215
BE228A89
BDEC043E
BA9070A2
3DEF0C03
BDCCFD93
BD5DFD3F
3CD13B0A
3DC2B3CB
BE0D8E5B
BE175879
3C487A6C
3D2D2EDE
3E11B7EA
3E27A1F3
BD7950C5
3B8E6826
3E15E105
3E208928
BDB73656
BDB8DDBD
BDF114BE
BD6CEA46
3E023B18
BDCA3669
BD54FDD9
3B897073
BD0E3301
BE13C662
3C82A191
3D5B66B4
BDFFF397
BC88B1BE
BD2C95DC
BD36D657
3CC2EE2C
3E34BD78
BE2A8CFB
3E1211CC
3DAF1C44
BD2A40AB
BA4DB8EF
BC66F706
3DA1B303
BC5B77D5
3D677002
BE2A7BEB
3E219C92
BDF78CD1
3B3B8322
BDF66AC5
3DFE2844
3DF7F314
3DF4DDFA
BE43B3C7
BE0B09AC
BCAD23C6
BE25285F
3D0D423C
3E00AD18
BC1E2DA5
3E13B974
3DD3DBC4
BE3516C5
3D40A214
BCDA2C2F
3E19BF63
BD4B156C
3EA3F70A
BE4792FA
3ED69E67
3F63208F
BC7CB354
3E0151A5
BE1DCF3B
3D1AFD9D
BD804F99
BE94849C
3E1F4FF7
3E2DBB1B
3E510210
BE1D8875
BE26B5F2
3E21D218
BEA21903
3DA0F510
BE46F5F7
BE16E0B9
BE9686B9
BF00BECE
BE6AB2F6
BD8220C4
BE8009D1
BD8B5995
3DBDA259
3DECF1A0
3E433E8F
3DD6654D
3D1C22EF
3D1F88AC
BE0A284A
BE534D17
BD31D932
3DF712EE
3D6B355C
3E133D08
BDBDC274
BD510764
3D3DA9CE
BE1922A6
BE43712B
BD16EA5E
3DC66085
3DBAB4A1
3D4F74EB
3E2FD5C8
3E6AE38C
3C82C120
3E498C1D
BD9EEE0F
3DDC5048
BCEE95C0
BD0510B0
3E289C40
BD99A252
3E30AA36
BDAC4B7E
3D6D6284
3CBD45C0
BE23D070
3CC4B798
3D3A61E0
BCEC1C78
BE39AA45
3D52E290
3CE0FDF0
3D30C69C
3D032CE4
3E2FBEF2
BBC7A6C0
3E151F16
BDD4C17C
3E20E86C
3E371E18
3E02C192
3E044722
3DA07598
3C967DF0
BE1F5B82
BDA638E1
3DDA5FB4
BCD179D0
3DE0ABA8
3E269762
BB594940
BC0EDC80
3BDF1C20
BDA5CD7D
3DAF1250
BDE32613
BE030A65
BE3DB361
3DCE9D6C
BDE6E6F4
BD5BFB1C
BCD98BE8
BDC913AD
3C613A30
BE366653
BDD5ECD9
3D8760B8
BD2D7DAC
3CCBD628
3E2AC4A6
BE1D63C7
3D85EB84
3D5A8BC0
3E081508
BC9E9148
BD5C8CD8
BBBC3760
BE099B5A
BDD37A26
BD1A725C
BD688064
3E065AF8
3E03F28E
BE32315B
3B914D40
3E3D7E44
BD3A2BB0
3E316ED8
BE3F6BAD
3DD3DF10
BE04CBBC
BD806BB2
BDA17AB8
3E0D144A
3D275FA0
BC20DA70
BD2F5350
BE3F7541
BE04910A
BD37D2A4
3D920730
3D53EFF4
3D8B41DC
3E1B3B3A
3D07CA30
BE14D057
BE1E7963
BD35D6F8
BE1BE03A
BDC32187
3D86D8C8
3D8B2BC4
BD0B6C0C
BDD6A705
BDEB742E
3D0A1838
BDF84EC1
BD8B9628
BD7590B4
3E24ADDC
3C22D790
BE176A22
3D4B63FC
BDCA5C58
3E10DDF0
BE34DFB7
BD89455F
BE2B4B4F
3D86F3A8
3E178CB8
3CD6EE20
3DDD9400
3E0F157A
3DE4037C
3D8BF8F8
3DA59298
3D249880
3E2910B6
BDAE548E
BD187C98
3AA2AE80
BDB34314
3D496D80
BE134DAA
BC984008
3B547280
BE03E152
3BA090E0
BE077CA6
BD8A2EBD
3DB5B738
3E248674
BE2C5F2E
3DCEC528
BD66009C
BD94264E
3E058BEC
3DBF0900
3E410570
3D8F6CFC
BDAD6A8C
BDB2A286
BDFFEA57
3BCC3860
3D410128
3BD820C0
BE1B89C2
BE28E9DA
BD777020
BE30E946
3DB07850
3E002EDC
3E031242
BE01EE0D
BE34FAC8
BE04E6F8
BD568FC8
BC736930
3E24E884
3E86AAA5
3EB2F23B
3DAEAE5F
3E924661
3E2885D6
BE896148
BE22B6A2
BE496515
BD5A6A5A
BE04595A
BD038FC6
3E1AC15A
3E365866
3B548438
BE12F48C
3DCFD843
3CDFCA3B
BEB0B6A2
3C11F6D6
BE8A5509
BECB7FC9
BE0090C4
3D4A66BE
3DDF399B
BD62716C
BD1220A8
3EBE529D
3E8706AF
3DE23049
BE30EEC9
BE4F3E3C
BCADA957
BE08DA1D
BE1F9CB6
BD16CED3
BDF4A68F
3E45A362
BDC367EF
3DD24CF4
3E75528E
3D17E1A2
BE24F642
3DDDB931
3DF8D714
BC878F89
BE245E18
3CEF6C76
BD303A2C
3E4D7011
3E09A3BD
3E20BF58
3DC0BAE6
3B25747D
3EC6D45B
BE1BC4D4
3EA4BF6F
BF0A5C7A
3EFA0BA8
3EFC93B6
BE8CD017
3D8ABE13
3D5E77B4
3E419800
3D6F8B1B
BE7DCA64
BE4327D4
BDCCFB32
3D224471
3DE7AE3F
3D8EA89F
BE68AD92
BE89F962
BE2993A6
BD43F5A1
3CDCD975
BD034E29
BE4D3300
BCFBAC48
BE3A6BDA
BD5F6865
BEE7B1C0
BD2D0ED3
3E9050EF
3C9D5E70
BD9E263A
BCABFBCE
3D558759
3E06DFF1
BD4E95AF
BC5AF778
3E103D12
3DE92196
3E185496
BDC95FB6
BDC11FF0
3E336823
BCF66936
3D1835BB
BE1234D6
3D2F1389
3DA6A7FC
BE0024DC
BE093EC6
BE5DA1E7
3E41CBA0
BBCA33BD
BB672EC4
BF058B34
BD356B3E
BF099F45
3F1B682A
BEB2F083
BF11DF0C
3DA82915
BE160D95
BDA4EE44
BE0ACC3B
3C876295
3D2283A2
3E1DDF9F
3E2C729F
BDF08BFA
BDAB2463
3D9B3CBD
BE1EFE37
3F04F813
BD18B36A
BD8D06E0
3DB1E38B
BCBA6144
BC1E9F37
3BD0C193
BCC66673
BE0C9769
3E779AD5
3BBB363A
BDFAE649
3E226401
3D9C8474
3DD857FC
3D85D174
BD7E5ECB
BC2FC9A6
3D8D86BF
3DA956C1
3D99D02F
BDE50322
BCE0C980
BDE230DB
BDB8CE62
3DD38A6A
3D60F2FB
BBA3F807
3DC0DFFA
BD391F63
BDDD7108
BDFED06F
3E2DB3ED
3E14A182
BD9092B2
BD9F0A69

