BE0FC0AC
BCC80B1E
BE16F4A5
BE093FD9
BDE62255
BDCD3ACE
3E4D97ED
3D43E5F4
3BE14961
BD2D7F7A
BE03F749
3E37C3EA
3DA05CDC
3D3D0CCE
3D0614CD
BD3317DA
BACE8300
BCB960CD
BE5CD0DE
BD95DB1D
BE677CF1
BDFC9E16
3BD3BFDF
3DAC30E0
3DC7A31C
3D559D2E
3DE819DF
3E431954
BD9F5FD7
BDB35323
BD3F8F88
3D400B44
3E34FD83
BCBF3CAA
3E1BE033
3E05AF52
3C483310
BCFC6BAC
3CAC7B28
3E02A39E
3D4DAA94
3E1D9C4C
3E04E853
BA80C080
BC969585
3DDF9B2F
3E1FA7BA
BDEC2210
BD9564C2
3D825836
3E02B4AC
BAA0EC00
3D2AFE4B
3C5A3AD7
3E113AE0
BDBD7237
3E066194
BE0898CB
BDA05E97
3DDA58D0
3D01BCC8
BD1EB638
3E008167
3DEDE158
3DC2E310
3DA2336F
BC72BCDE
BE049B82
BD12F1D2
3E13616E
3DC3DF49
3E045A10
BDB4BBD0
BE37315C
BE639151
BD1FF79E
BE5481E9
3E2269B7
BD8004C6
3E16929D
BDB45100
3E4581C5
BE1EEC6C
BDC98685
BD2B97C2
3D92BF6E
BE322DB3
3E355D79
3E776C63
BD9E8560
3D977491
BDCB9A3F
BDE49303
3E2FDAA1
3B7B7740
3DE9B886
BDF45B11
BD8943EB
3D94BCC8
BDD72B9F
3E2D8304
BC9AFA3D
BC37DA55
BBBA08D6
BD7D3E2A
BE44B55F
BD9FB621
BCC89550
BD50E3CC
BCC59439
3E494C91
BDF4F69C
3D91CE00
3E00D1CC
3D5AC354
3E17925C
3D4A1ABC
3D19F087
BDAB2146
3CF80880
BDCE5040
BDB67FDE
3D199673
3D976970
3DB8D9C8
BDFF097D
BD48803A
3E092A24
3D885B32
BE0FCE7C
BD81E3B3
BD5C4BCC
3E0AC79E
BE1AC96E
BDEBC89A
BE2732A6
3D5F4528
3DA36FA8
3DCB7501
BDA539B8
3DE3EEE7
BE234696
3DCA6B58
BD81E2AE
BE1F6BBC
BD4DB7DC
3DE497DF
BDA119B0
BE153F2F
BD085AEA
3DFF044C
3D14C574
BE17AAB1
BDD7005B
BDADB404
3DD25E78
3DEDEE54
3E08F3CE
3DB93AC8
BC9537A1
3D63AE08
BCEE0850
BE0875EA
3CB84828
BE03D648
3C233CD6
BE2F9B97
BD76B688
BDB7A8FE
3D57FF66
BDE5D7D7
3DFD538C
BDC6A7CC
BDD2A52C
3E0E99B8
BC243640
3DFF08C2
3DB58528
3DA91495
3D7735E8
3DBEE40C
3DEDEE40
BE2CDA49
3D3B04C3
3DF6D9A4
BE18DC4B
BE386F4E
BC54F250
BDC9B486
BD81E441
BC66CB56
BDE42794
BC88A860
3D791DBF
BDF5B35E
3D9F9136
3B9B6D16
3DBA3164
BE17FCB3
BDAD0344
BE1F9AAD
3CA3BEE0
BE33BBBA
BE03D5B1
3DD56394
3D0A7AB3
BC94E1C8
BE16BAE0
BD0E49D6
3DBEDA58
3DCABD3C
3DA700EA
BD492998
BE061530
BE2548F5
BDD7650C
3E1F7BDE
3DB698C8
3D6C1244
3C9AB900
BDDEDF0D
BE3CCD78
BE246B04
BE22C20A
3E0EB08D
3C203DA3
BD1E6736
BCB714CD
BCAAE698
3DA72349
3DB3FAA5
3D61007C
3D960D47
3CBF336C
3E5DB791
BE391349
BDF25992
3E3F40FB
BD76B4D0
3E235886
BD8EC27E
3D9EE284
3E156795
3D62B210
BDA8EE38
BE13EC02
BBC1CB4A
BDB5B5A8
3D8CAEE0
3DFE16D5
3DD5E534
BCF6BD8A
BDC854D2
BE1EB4DC
BE0A4291
BE1CDF30
BE254F91
3E076965
BD2F5BC3
3D662164
3E04DC90
3DFAD4CF
3E2652D2
BE07C065
3CD2ED19
BD3F1092
BD35708D
3C390360
BE0822AF
BCBA643C
BDB02C08
BE11EEBF
BCDFA534
BDB216F1
BDF5B330
BC59F160
BD43FC15
BD9F1856
3D56C898
BD806F24
BCF43139
3E422154
3E05C897
BCC2ED90
BD284076
BDB81FC2
BCDB2933
3E0608BE
3D9E2F87
BCD5BB34
3E927BD1
3DA10B14
BDA8FBD3
BDDC186C
BD955DFD
BDE6E9D3
BE1DA0E7
3E326DC0
3C84834D
BE25946A
3E279662
3E1D6BFD
BC408E40
BCA0D18E
BDBCB1EF
3CA5A159
BC88AD78
BD0657FE
3BC2D5D9
BDE89676
BC613B79
BE28A6A2
BD82A734
3E1AF620
3AFC2C5E
3E123E14
BDEF7D35
3DB23D42
BDF4EE03
3DBA82E0
3D3316FD
BDED3B00
BD19613C
3DBB10DA
BD9D679B
3C04468D
BE2243AA
3DACDBD3
BDB31646
3E4B74D4
BE1C7E18
3DED918C
3DBF72BC
3D751B30
BCAC2306
BCB144FE
3DAA0AAE
3E04D1BA
BCE49570
BE210AA2
3E1C13CA
BD918271
BDF91E02
BDB5952D
BDD3AA72
BD56527B
3B62949A
B91FC086
BD06AF04
BE47942F
BDDB1DAA
3AA4D700
3E201972
BCC2B2D5
BE1D0DA9
BDF44A06
BDD6D7FE
3D927519
3DADD041
BC5B34C0
BC88BD68
BD506173
BD9D7541
BE00B7D4
3D2C22FA
BE5C5899
3BABD220
3C30CB00
BCD1D7F9
3E06EC80
3C3F5706
3D451CC8
BDF98E62
3CE19DEB
BD210BF6
BDA32BAC
BE8244F8
BCE7DBD0
3DC75987
BD626EEC
3D2553AC
3D35238B
BD792AC0
3D5607A3
3E3F5922
3E06EADC
BDD7CCA0
3DB3574C
BD5B0EC8
BE13D067
BE005CA0
3DF113D0
3E0BD98D
BE1F859F
BE083E80
BC010560
BC536C93
3CBD5DB0
BDF082BB
BCECE40C
BCBB6A6B
BD865AB4
BE1EACE7
3C89D1A8
BD9AB8CB
3CCD4153
3E1C73E3
BE09CBD9
BE558BEB
3DB11842
3D11F8FA
3D44F378
3D70C6D3
BE416A7A
3D1D88E0
3C938775
3D9913F6
BD7F030B
BD87CD9C
3E167A29
BCC53AFC
BDB44AE2
3DB223B3
BDBE327C
BE0D70FA
BC83A7B7
BB45C5D9
BD87A399
3DF15F54
3CD63C59
BD5B72DC
3CAAC4DC
BE4869E8
3D18CB74
3E044D56
BE41697B
BCCBE5DB
BD9893F9
BE1ABACF
3B68B08F
BD17313D
BDB9D269
3D8F5A20
3E1BDA7E
BDB15932
3DFF5BE4
BE16D32E
BD9DECCB
BC3F5FA9
3CFC94B8
BD369962
39F11E82
BE0A7D66
3D61DFCC
3C61410A
3D21A768
3E6A9692
BD897D3D
3E6C75AE
BD24953A
BCFA87B0
3DE48E59
3D927821
BE009BEC
3E18D70C
3DCC47B8
BDA11557
3DEBD0C4
3DE65CCF
3DE6AE24
3DA685BC
BDA8E100
BDC780D4
3DFBCD3F
BE0723CD
BD820741
BC1B55C5
BE1E90C8
BCC2B418
3D91B3E6
3DD92044
3E4775B2
3E294D2A
3C98E690
BD2E469C
3E2B5EAF
3DF45184
3C145B40
3ADB08C5
3D178DB0
BE48123E
BDD861EE
BD620E20
3E1AB58B
BD6938BE
3E2FD7A9
3C49119B
BE1EE99C
3D38C648
3CF60218
BE546B73
BD4C9E9A
3D17130D
3DECB4CC
BC751827
3E319574
3C77A682
BD137E18
BDA3B9C8
3CCF9239
BD9AD6CA
BD1D7547
3E0C2EF9
BE17BA40
BC602D4C
3AD74480
BE867008
BDC56B0B
3CB70D4F
3E055735
BD95E659
BD6B7CD1
BD6EAA00
BDF6C184
3E3BBA3D
3E3BC9AF
BE2E2E4D
3E0C2733
3CF91CD8
BE2E59CA
BD8E4EED
BD7662CF
3EA40865
BC7F3350
3E0B87F6
BDC34FFA
BD77F1E8
3E2465E1
BE2F6827
3E0FB323
BCAF82B0
3D2D6D85
BDB6D811
BD2C02B2
3E0A536E
3DE33CF8
BDC42186
3E3EDD72
BE987BD9
3C55212B
3D3F7E92
3D8AA8A2
BD5BDBBA
3D87CF90
BDEE4C6F
3DED83A0
BC583F50
3D7A502E
3E04C3D5
BD90CEDE
BE07AD91
3D5908E8
3E1595D6
3E46427A
3DBC70AF
3DA51598
3E5AED48
BD4340BC
BE2D2737
3D8BDF0C
3DF6C861
BE0982B1
BDB5F9F9
BDAF8184
3D9EC9CD
3DDD4428
BC2D6890
BDA60B9D
BCA6927E
3D81F8AC
3E5516E9
3BE23C72
BCF90815
BE211C52
BDE004AA
BD0423B4
3E237115
3E11E811
BBC34122
BDF80DDB
BC944510
BD9633E7
3CAC729E
3DE6E2BE
3E0EF70E
3D7C90D4
3E253BBC
3E41A522
3D321614
3DBE3D76
3D4D6C06
BC369570
BC620D3C
3E160436
3E2BFA2B
3DE7B62D
3D37BB1C
3D744992
BD40EAD8
BE234541
BC805440
BE063372
3E177267
3E1B4F17
3CE799B9
3B992FC0
BDC5F54E
BDD68A71
BE100D71
3E0EDE40
3DF66F52
3E0F0D69
3D4280F8
3D62D2A0
BB7A82FE
BCE77898
3E371FF5
3E1552B4
BAEBDCE0
3E27A77A
BD250655
BE002B4F
3DECD07B
BE4D3134
BE363AAE
3DB9A7E4
3CB64834
BD979CF8
3E1BE367
3DA61785
3D6C2DC4
3D943231
3D718F70
3BC43617
3CC1ACD3
BD2FB1EB
3E451130
3D489602
BD901391
BD97C076
3D076CA9
3E453156
BE2882DE
3E10FE44
BDAB63F9
3D0A560B
BD3596C7
3E05C233
3A2CD700
3C82997C
3D5E0A57
3DDA15E8
3DAE73D9
3D95546D
BDD18E3C
BE4D594A
BD8FBDC1
BDA7EAB5
3D137BA4
3DDAA8DA
3DF7EF9A
3D3EDECE
3DE9D326
3D9B9724
3DCCCB38
3E29A36E
3DC6E1D8
BDDF3060
3E055998
BDA5F8BE
3D96F5D4
3E1A925C
BE00C137
3D71B489
3E0D9AAE
BD53364B
3DA22B0F
3B8584C0
BDD69F87
3BEF1431
BD7B184F
BCA97378
3E99D060
BCBBF06B
3D018C93
3DEC25B3
3DCD8538
3D79DFF3
3DA51F5A
3D114C40
BDE10B4E
3DA4062B
3DB7B6F8
3C97BBF8
BCC7B100
3DABA1CE
3D18DAEB
BC16CEC0
3BF6FD60
BDC7B44D
3D9834DE
BD7E25A4
3DFA586A
BCA168D8
3D95597E
BDB50CB9
3DABABC7
BCA01EA4
3D47EF90
BC137493
3DC50958
BE00ABD4
BCCA7980
BD9FDB6C
BD858778
BD00CC14
3E06B3C6
BE10785D
BC2B0A76
BC30F995
3D71C712
3C077430
BD096B2A
BE0FB9EF
BE1182E1
BCECF384
BBD7AB9A
BD0CB0C2
BE69FE79
BD2AC6E0
BE185AB7
3CA1EF2F
3DA43E63
3DF0506B
3DC9C81F
3DD4F104
BE6D063B
3CC010E8
3D8F60F9
BDDCE34B
3CA46015
BDCC181E
BD9DC89F
BD5F14DA
BD13C009
BDDCA35D
BE691266
BB02BC60
BD35EFD0
BD79208D
BCB72724
3D1AE6AD
BBDBDA88
BE3EBF98
BDB2A237
BC82BBC8
3D0290F0
3E12BC41
3D090D2A
BC8F9FE7
BDD38B1E
BCB74CA0
BC3E43EA
3D2F8ABD
3BB2484F
3D9A8B38
BD886440
BDDEB83A
BCB35898
3D44748C
BD4D1D72
BC90A809
BDACB3AC
BE0DF828
3DFD3B18
BDA28D08
BC4FBD50
BE0578CF
3BDA42A8
BE024816
BCDDE73E
3E116494
BD955E2E
BE1F6F5B
BE56CDBE
3E178EA3
BDB327B0
3DA584E4
3DC79E91
3DC16F08
BDF3EA7C
3DCCA057
BCBF4D64
BDEEFE27
BDA2FBF7
3DD3FBC6
3E0E3B51
3D7D4915
3D3D4B30
3D0DBF08
3E1F1FBE
BDDD4447
BD222A57
3D30994A
BCCB93D8
BE0D90B5
3E752C17
BDEACC69
3DA03C42
3E14393E
BD36062A
3DB1F751
BCB77EC0
BD1EC067
BDF00097
3DB41AB8
3D1DA417
3B3EC080
3E25BF4B
BE0A4401
3DA2765A
BD44F795
BE10B710
BD1ECBC8
BD5FF376
BC983688
BD732EC6
3D55B6CC
3E2AC001
3DE2CFF8
3BA9966D
BCABED91
BD12F640
3D654050
3E0F7CF5
BDE3BE03
BE184A76
3E0E1BB5
BD5E6663
BDDD0AD7
BEA83114
3DCF3A74
3DD2A99B
BDD10E30
BD63B9DF
BDEF0771
3E263AFC
BD23B36D
BD2AD818
BDE1E700
BD24A610
3E03A7EA
3D64FD0C
BBE1338F
3E092F76
BC345639
3E083EF5
3D0BE15A
BD9DE998
3D9FD998
BEA9973B
3D97769D
3D64E48F
BE0FB2A5
3DE85D3B
BD794B8C
BCF6091E
3E275AAF
BE133A1C
BDF68D56
3B93BAE7
3DD2796C
BE0F6F23
BD136CA2
BD5399AF
BE33295A
3E09C3BC
BDB0576D
BA381714
3E12FF83
3D636234
BE239AA8
BD8DB487
BD8E5C0F
3D3F29BC
3DFD31A9
BE1150DE
BE04EF68
BD66AF72
BE8439DD
BE1D587B
BE1A4794
BE126B64
3E1C8B8C
BC3B4C26
3DFB9946
BD2D7EE8
BE589DD3
BD61FBB4
BD42DC39
BDED8E59
BD6C3DAE
BDC961FA
3D832D88
3E6BDF4F
BD5795B8
BD6EB351
BDF7A1EF
3D3C6C48
3D874A7E
BDF769BE
3DB51005
BDEBBCCB
3DC7C16D
BE3B8DAC
BC10B77D
BD3FDBA4
3D18D83C
3DA3D5B9
3DA04639
BDAB69A2
3DA3D4BC
BDA08D05
3D66CE98
BDC4DEEC
3DBB1311
BDE804FE
3C927480
3E095A06
BD2C96D2
BC8C2713
3DCA7B99
BC517E90
3DA21878
3D2B6FDC
3DEA8AC0
3D815E36
3C93DF58
3DA86835
3D6F2418
3C99A970
BC9FEA58
3E160ED3
3E57BA71
3E38B1FE
BDA723BC
3DF6DFD7
BD252E5C
BD6279CE
3C030F27
3DB9A129
3D1951BF
3E1E35C3
3DD04FF8
3D9823DE
3D43398B
3DFBF0D4
BDFDC73F
3D163615
3C9B257D
3E452577
BDD1D586
3DDAA215
BDE7E339
3E06B7D0
BE0A5B8C
BDBB2C36
BE1E9AC5
3E07D755
3E2D6C23
BBE0ABB8
3E2261DF
3E3E7170
3D7DDB6A
BE969640
BAC8B079
BC74A55A
3E175D1D
3D490324
BD30E9CA
3DADABDC
3E2AFDCB
3E03B13C
BE18A08E
BAF36C80
BC92992B
3E0686D9
BD72F65F
BE2D5AD9
BD136890
BCAE5CAF
BD62C875
BDFCC9A9
BD6758CC
3D1A3BA4
3CA9F923
BE23F22A
BC219205
3E0A9A66
BD1D6130
BE16A0D4
BE5613B6
3E44A5D3
BDC9C11D
BE213F94
BD6C3DA4
BDA2F51F
3D2CB887
BDDF7356
3D1EF9DD
BD1AF5D8
3D816853
BD8B84F8
BD26276E
3DEF1710
BDACEAE3
BD9B2D4B
3D87F5C4
BD1CFC9C
3D856952
3C5786E0
3D05C89C
BDCDFB1B
BDE5A8FC
BDC0727B
BCDDDA63
BDC2560C
3D73B666
3DD70488
BCC84FC0
3E612EB4
BD291D1B
3DD416C7
BDD8C310
BE24E7AB
BE1C0D74
BD161F3C
BE2495B7
BBB1429D
BCC17A70
BE1EAF4C
3E23AF88
BD5EBDC9
BCCCD13B
BCEF6848
BE4D2856
BE55BA42
3CA402C8
3CC59458
3D4D3D48
BE22341A
BC95835C
3D533455
3D82D1A0
BDD096BE
BD2709AD
BDEFD8D2
BDDBC980
BC938990
3D4B55CC
BE23FED9
3E0F1E30
BCD9DE3C
3DC18EAC
BDCAABC1
3C0FE9C0
3D5F6874
BD0A6FAE
BC5FBB01
BDD93C2A
BE0FF0C6
BBE220B4
BDEC3DD0
BDCEEF6F
BDB2524B
3D1A23B1
BD7379A7
3C9139F7
3D531508
BD475C6C
3E10E876
3D9708CD
3D9E4367
BE01AA83
BC645B42
BDFA1F17
3E07D699
BD6B794E
3E26209A
3CCEDF48
BDEE1098
3CDCFFC2
3C9C69B8
3E1C3366
3D05C0CC
3CBE14D0
3DB5DBD0
3E2467AA
3DCF6136
BDDA2345
BE03B202
BE8124C5
BD1020C4
BE52BACE
3E21F3B6
3DA44220
BD8D1C8C
3DF37D9E
BE06751B
3D9BEDDD
3E136B35
BD4D8B5A
3C6B7440
3E94312E
BE418273
BDBFDEC4
3E00AE76
BD60CA1A
BE31BA75
3DEFAB8D
3E3B8455
3E3153B4
BE1FF965
BD9EBFE5
BE08AF92
3CD1FF98
BE1A5126
3E18A966
BE04FFE8
BE0F272D
3E33255F
BCA2D458
3C1DDEB0
3DEF4A08
BD82CC7E
BD7C4957
3DD3FFA8
3DBE8960
3E6D1432
3E166448
BE160296
BCB14A10
BDAC47B1
3E7EE084
BD5CFCD4
3DDDF758
BD8D7A7D
BE353DC4
3DF8860C
BC40B0D0
3D61FBDC
3DC1E65C
BDA14933
3E0E7968
BDC2A7F4
3E627994
3D970740
3E1F6D7C
BC8882F4
BE186CC9
3DEAF274
BD116420
BDC25EA1
3C8AE8A1
3DA4D3B0
BE238892
BDCA06E1
BDB17796
BB40193A
BE00BEE8
3DFD576D
BE13F752
3DE26BD4
BC978D31
BDD2D0AB
3C73A802
3DD3951C
BE0E1E02
3C969775
3D7DF5BE
3CD61894
BD04C2D3
BE021BCE
3D864756
3E26034B
3E266A8A
BE0E4390
3DA85077
BE1C842F
3DC26997
3DF2B798
BCCBABAE
3BD85EA7
BE0D6FDB
3E6B4B5A
3DB60380
BD3DB3FD
BE269DC3
3E02D6C0
3C25D912
BE765C3B
BC795164
BDBD10E6
BE2319FF
3E01033A
3C902BAF
BE0DCB60
3DCD5214
BDD34B36
BDFDD4A5
BE20A187
BE354F1A
BCE419B4
3DB01CB8
BE0B70FA
BD18B869
BD796084
3DA64A24
BDE9D59D
BDF7A480
BDCE3479
3DEB0738
3D75D2CB
BDBD606D
BD9A0AF2
3D3CBD0E
3DDE7B18
3DBBB606
BD23A6BE
BDDD23B5
3DB87201
3D879F7A
BC0FE240
3CB9A92E
BDD5D7A2
BD885EF3
3DA5CB94
3D7D7428
3B529780
BD7231CB
BDC0F2FE
3C8F6538
BD338546
BDCD1C91
BE15684B
BDA75982
BD2C99A6
BC3BC0A1
3E1A2C78
BD818B37
3DAD226F
BD126D14
BE14A3F3
3C208D20
BD999D80
3E1F8F07
3DB81436
3D1FEDAC
BD9C6D54
3E0CCECD
BDDE0AC2
BDB8B71D
BC90EC40
3CE647A8
3E3DE4D7
BD517FA4
3E0E13CB
BD53AFC8
BDA43A4A
BE0A1782
3D885A96
3E0A1E24
BD3F7BB0
BDDF96F8
BD98AF48
BDC017A6
3E3285FF
3DA8DB1C
3E1669BA
3CF7BEC7
BCF20669
BDD5DC9A
BE07772B
BB9B8616
3CD69D42
BDC6293C
BC09AFB7
BD3978C5
3BD657C7
3E17A07E
3D413D4C
BD9D36F4
BBDEC506
3E1D6560
3E2A7513
BD347F4D
BC8753A0
BDA96016
BD98B830
BE46DE31
3DA94439
3C7099DB
3DEEFA44
3D9B823C
BDDCE87A
3CFB30C8
BC2EB5DB
BD695CBC
3E5DA60B
BBF830B7
BE5D3C04
BDDD4488
BE2EB420
BB66143A
BCF3DC99
3E21D03F
BD627CE0
BE408BF7
BDCC1463
3E141A5F
3D92A220
3DC062D2
3DB171F7
BD9E327B
BD0886FD
BE0068A7
BD81D72B
BD807FDE
BE19CB40
BE06773F
3DB570EC
3DD17DFE
3DFC7EC0
BE19592E
BC815C5D
3D82E97C
BDF2974A
3D4839EB
3D801258
3E0889FE
BDE6E616
3DC1D540
3E3D3D4F
BE123285
BDF39F96
3DAF542E
3D570DE0
3DFEC418
3CF78B32
3DD41E80
BE04ED27
3D8C4E25
3D6F05AB
BD5DE72A
3CD897E9
3E138328
3B49E240
3E178D78
BE0CE79F
3D0311F1
BE3113AE
BDB7403F
BD08B824
BD60BC76
3E1EAE1C
BE1E6478
3DDBAED4
3DACBACE
3E200819
BD642DBA
BCDA91C0
BD8998C0
BD265B64
3C2E9BF0
3D953F74
BDC60E26
BDB96439
3E231AE2
BDA39D1B
BDCAEC71
BD398F24
BD8577AD
3D090AF1
3E07B8FA
3DDB097C
3D786B24
BE11A7E0
3D85F618
3D75795D
BC19A2A0
3DD6236B
BCE6A6F8
BE23870E
BC726C60
3DC225B2
BD7A80AE
3C861FB0
BDECE4AE
BCE18520
BE06CAAA
3DB0AE23
BE1E720E
BDF4A7DA
3E00A5CF
BCD615EB
BDC7D0B4
BE3ED21A
BDD7AC06
3DD2DBC1
3DB48568
BE12EEC1
3CE6388F
3AA22146
3D81E18E
BD8E6816
BE1ADDC8
BD920AE4
BD0AA9F2
3EA04C82
3D9AEC3A
BDC1773D
BE3A983D
3E3584AE
BCE8EF07
BC137E53
3CEA3CA7
3E1DD468
BCD0F62C
3DB70B44
BDCD4D06
BE2FFC03
BC2B09B0
BD50E1DE
3DECCE03
BE150076
BD4802A3
3D10B789
3D8B3E1C
3DC8259C
BB82CA46
BDEFFA5C
BC6159B0
BDCF4D46
BDDF7282
BDF4C52C
3DBE1A53
BC859351
3C7A6A38
3D277648
BE1341B7
BDC68206
3D9C94E3
BD3E70E3
3D27E74C
BCCA23C5
BDC3BFD5
BBDB44E4
3D069F9D
BE167AD7
3E07D2AA
BDAA3F5C
3DEDEB68
BD444E92
3D4D173C
BD895A25
3DFB0DEC
BEA328C1
BCF4DBD0
3DE88438
BC9A4784
BD849AB3
3D8B9E59
BCB1A58A
BDA1B546
3E7118BD
BD9B4C26
BE19D379
3C2335D0
BD96C430
3D386752
3DAFC19C
3C9E3AE0
3DC0DBF0
3D0E1A4B
3D4015C8
3D66BD5C
3C19912C
BE252A3D
BE23763B
3DECE82C
BD281AB9
BD752C8C
3D812BC8
3E0B07B5
BD4565DF
BE18D017
BCBCEAB8
BE0B053C
3E0219AC
3E1710F0
3E0BD697
3D8787FE
3D122A5A
3E17FCC6
BDE3A6E6
BE0C1BFE
BE1D51E9
BCD4F84A
3D344994
BBF7714C
3E13AC3A
BD55E88C
BDDAE978
BDADC71D
3E07BA5D
BDE3D162
BD31F13C
BD8BD6FE
3E1008D0
BD00478A
BDA454DA
BE097ED8
BDDD0E8F
3D57A46C
3D292029
BD68E24B
BDF63D6C
BDBD9DB9
BD0B8340
BD946D90
3E48C140
3E16CA59
BE2584E2
BD9CED29
3DFFA8E3
BD4578B1
BE360531
BDA8A3A6
3D1B180A
BDC846AB
BDD25D97
BD813047
3E2028F6
3DF6E788
3E11B2BA
3DDF08CF
3D6070A3
3DB048F4
BCF3FFEB
3DE7A839
3DE54A1C
3E512847
3E09F276
BDC34F47
BE251D52
3DC39D14
BDC6DE25
BDF296BE
3D9A8F95
3C34D940
3D6ECA60
BD8567C8
BDCDC949
BD506F8A
3DE7F744
BC1CA3D0
BE24824E
3DCA16AC
BD45F1E3
3E5051EB
3D9B111E
3DD4F52F
BD898ED7
3C688120
3D8D8AA2
3D166BCF
3EB03E9F
BDE62A3A
BEA40C2C
3CD873B0
3D82FCD6
3DD95DA0
3DB13424
BC4A924F
BD6A24D1
BE8306DA
BE955597
3D91075A
BE15ACE1
3BF36B20
BDAD73FD
BD80BE4C
BD84E244
3DE5BE24
3D9F8F28
3E387D10
BE05983C
3DE67DAC
BDCDED89
3E24210C
3D8FF0D9
3D5038EC
3DE4F9CC
BE4AB42C
BC37BCB0
3DCAE8F0
BE8F5585
3D103D88
3C63FDD0
BA876D00
3DC6FDDD
BD5FC115
BE196898
3D8F4D48
BE32DCC0
BEC77843
BD59E771
3E001D32
3E049E03
BE3BAE44
BC821DC0
3D9EA3B1
3D4C9C68
3DC4D6FD
3DB54760
BE147C60
3E07010C
BDC6BBF4
3DB215F5
BDAF3352
BE00A919
BDD6844D
3E3231FE
3E26CF4C
3D0F6DD9
BE7A3F9C
BECDC1F8
BD84601B
BD4E51E8
3DE556B0
BECF7039
3E1ABD1B
3D2A9217
BE1C5194
3E813F26
3D8D680B
BE3C0242
3C5BE8A2
3DB75AE5
3D9F4750
3DB9F35C
BDCBAAA6
BCF2CF88
BE35DFDA
3E131C87
BDE284CB
BE0359A2
3E0F3FDE
3E0B5739
3D83F6A5
3E2B06D7
3DB0EE93
3D97E328
BD9C8906
3E16D102
BDCE15A4
3C778D40
BE5489BA
BE3AB010
BD0DC91F
3DAD289E
BD99585E
BC145BC0
BD5C7E5E
BE0B1F1F
BE2F8081
BD9891F7
3D250904
BD2D3ACE
3E08AE49
BDC4CA09
3D71DD18
3D8E4996
BD4FB836
BCB48E1B
BDDDE045
3C92D358
BD915B1C
BCC33C88
3D584CD0
BD096727
BD959F80
3C8DBCE8
BAB8B480
BCDB7E00
BDDD5DBA
3D8E1B78
3C960D9E
BE40306A
3D7F780C
3E14A83C
3CBDC200
BE06C81B
3E189D24
BD48E5EE
3E19AA38
BD099874
3DA38928
BCEC8498
3D209050
3DFD15FF
3DB326D0
3DF26206
3E05E458
3D123500
3DBDE9F7
BD739F82
BE086991
BDFB647C
BD93D29A
BD354852
BD92D6C4
BDA80AA2
3DC8B673
BB9A4337
BD2298A4
BE174564
BCF472E2
BE24AF0F
3D70483C
3DFD399D
BE01A81E
3D111994
3E053C1A
BE1EC7E9
BDFF2A55
3DF1C7C1
3DDD3794
BAAB4600
3B161448
3D01A730
BDDB4B9F
BDF7B3C3
BE12FA27
3C6650FE
BCF2EA88
BCC4CA51
3D4FADC4
3DA7E5D9
BE1137E1
BDA411D3
BD7D9A8A
3DB8F130
BDF6EA4C
BD5F5D4C
3D13E8EC
3CE3C2D3
3DC9299D
BD6A4BCC
BD5346EF
3DC0A8F8
BD0109B5
3D1A5808
BE33B633
3DFB2BB8
3D0DD172
BCAD8B26
3DCA1A10
3E114B04
3DCF69FC
BD2AAF5C
BE409B15
BE1CB2B9
BE044276
3DC3C54C
3CD5C3F1
3C8B1E50
BD434A1A
BDE71530
BD21226B
BE1273EB
BD1B8F03
3DE4D72B
BB711800
BD96D89C
3C87F010
BE1AA19A
BD0E0754
BE00FD23
BDBC38F2
BDB0F728
BD846B39
3D37D4FA
BC78B0B9
BE137590
BB24713C
3D567890
BE186242
3E1A1F64
3DF19B73
BE068842
BD62B52C
BD6A575B
BD856B05
3E198DD8
BD68A3A4
3C86E798
3E460B90
3D3B7890
BDB8E93B
BB7BFC7D
BDC55F0B
3DA5C45A
BC229200
3E166C37
BDCD39D4
BD8DCD90
BD7C5BAE
3CB913D0
BE2CC292
3CE86F48
BDE1668C
BDF71E63
BC3896B0
3E0B53D3
BDA4BB7B
BCFF96AA
BC06202A
3DEFB09C
BC9FE69F
3E07A7F8
BCEF6C48
3E2189CE
BD62BE4C
3DD24F14
3CD44337
BDE89EEA
BE2760D0
BA88BB8D
3DE7BBE8
BD24E78D
BB297740
BD994A96
3D9391CA
BDE18EA4
BC232EA0
BD3B22FB
3CB593A1
BE0E5651
3E1B1D22
BC910CF8
3DED0A04
3E33F39B
BDA49463
BBEC608F
BCC706AC
BDC28F3C
3E1EE112
BE09C60D
BDADAE14
BD31A3B7
BD818010
BC0FA750
BCC069D0
3D9DE0C8
BDC2B0B1
BE3A0D32
3B98FA60
BC4D5AF4
BDA6DBB9
BCBD26DB
3C0530FC
3E0F5099
3D6EAAD8
BD3D098E
3D9CC1EF
BE0DE0FC
3CEF1743
3E1B99DE
3C832A90
3D40ECE8
3DCDCE6D
3D66652A
BCD6C54D
3E047DB4
BD55ABAE
BE076A34
3DF9B8C0
3E1095B0
BD9529B4
BE0181C5
BE07CDFD
3BE12777
BDDEFC32
BE40A0C4
BDDD730E
BDA2EED9
3EAFC55D
BE0631AF
3D725D75
3DD85ACE
BE0FD7F9
BE015048
3E16A548
BCB67A6D
BB9131C4
3D03EA1C
3E023BD2
3E2E7192
3DBC708C
BD18DAB4
3C78AEC2
BDDD47C6
3CB22D00
3D40B302
BDA77E9C
BDC2D252
3E162A7C
3CF98D48
BE0302C4
BD9FB44B
3D4D6D7D
BE0FFE69
3DC95E0D
BE1BADDA
3C4A7320
BC5C494B
3D994E30
3E236CE1
3C285150
3C868F90
3E377D46
BD3BEE9E
3AAA0280
BE902FA6
BD80FF89
BDC20BF8
3E0DD9A0
3D06FD35
BE4DC6B6
BD70D1C2
BDDFC1C9
3D10179F
BE0935A0
3DBB6E58
3E180C3A
BE7B2559
3DEDFD64
3D8EF1B6
3BC246C0
BE15110A
BDA0FEDB
BDB1BC4E
BE268DB7
BD098CF5
BDBE77DB
BC035D40
3D54E1A2
BD6FC6EE
BD468BAC
BA7B30E5
BE018993
3E1C819A
3DA75F27
BD28F17E
BC191AF1
3D4A8BA9
3D1902DF
3D737764
3D14B9CC
3DC11352
3E2B34C4
3E5D2DED
BD58F37C
BDFE00E3
BD27978B
3E157D9E
BDE9B3A6
BE0D91C0
BDBBCD56
BDE85EF0
BCDE10D2
3E46A6F8
3DFC0CF8
BE199461
BE2E7AB2
3C75FA50
BDFF605A
BE24CC5E
BCDF5B74
BDE56998
3D17AF0B
BE078B4E
BE3CAF59
3C89374B
BD8C0A02
BD427FEE
BD848A7C
3E0707EE
BE2A284B
3D9BD2E4
3CBE47E0
BDE9EAEE
BE22844D
3D49B0D8
3C52F349
3D340591
BBC004DF
BD8EF6ED
3E3460D0
BE2E97CE
3C008A07
3E0D2060
3E26C976
3DA5E16C
3E52F708
3DDCCF25
3D990B59
BD2F421E
BE7825A9
BCE80723
3D58D274
3DE796C4
BE4CCB03
3E81F682
BD912B96
3ED30DB3
3DC7F7CD
3B414AC0
3DE49FF7
BDEFE578
BDEBBF09
BE271FB8
BE36D99B
BD0B1CCF
3E21078A
3D9D2D2A
BDFF54D6
BD5FEB51
3D2FCB7B
BE058387
3DAEAC0E
BDC6F146
BE47FBDF
BDFC58E0
3D8B75E9
BE254DE1
BE1EA950
3D8F28C1
BD8A3CEC
3DA98DEC
3CAFB103
3E0BE4E2
3E002C31
3E2BCAD9
3D193FF8
BD0C4578
BCF43270
3D9178D6
BDD96272
BE02C52A
3D28E078
3C9D0E1E
3DEF6BB9
3D0F9389
3DDAC444
3E314850
BBC464A6
3D249BCB
BDCD26C3
3C940F7C
3E253CD5
3E55BCE7
3E1D1FCC
3E32CAF7
BCFF989A
3AC1C69B
3D9E2388
BDAEA86E
BDACE447
BCF8010C
BD07604C
3D8A39BE
BCFDF724
BE51EA60
3D6B4DD5
3C896990
BDB113EA
BE1ABA4A
BC66A1E8
BD0D7FC4
BB4C6D00
3E4467A7
3E7621DD
3BDA56BC
3DF242E9
3E37749E
3E0F87B8
BE248307
BD983B22
BE1F7F3B
3CB253EB
BD918723
3E04DE38
BE270826
3E1372DD
3E459D47
BBD3750C
3DB0D95F
3D97BD4C
BE02640E
BD741591
3CAEF728
3C963C68
3E18AAF8
BD8A9A68
3D1BDF38
3DAE1A15
BD6F472E
3E1D8CC4
3D0F7834
3EA95488
3E03EF75
3DB3F49B
BDBAF696
BE159B0A
3D95FEF2
3E3B409E
3D550DDE
BE0EBACD
3D9867E2
3CF8D692
3D018762
3A60FA00
3D60F4F0
3D8CF5F8
3E0355FA
3D9AD52C
3EB5BE4E
BDE98CA0
3E07C288
3E20432D
BDF1FEE1
BE2D2155
3D47E453
BE05ED93
BDE6FFB7
BDF5CBDF
BE18EA1C
BE10F5C8
3D618957
3DBA2508
3D2F4EDE
3D966F84
BAB95C00
BDC6F240
BD825BE9
BCCD625D
3D945A50
3C050E20
BDBDE8D0
3C10C1A0
BCC0A7BC
BDF293FA
BD6018D0
BDAEF93C
3E098E5F
3D8BD69C
3E22B614
BE003D76
3D026507
3C91A781
BA984A96
3C4C8540
BDCE2220
3E1B283F
BD47EA15
BDC2E7B3
3DF1319E
3E0BC94E
3D495A63
BD73C5CD
3DD0801B
3D021DCA
BD8A4C59
BD172584
BD8B0B4E
3D3C14EB
BD9E1407
3D0BCCA5
BE148941
3E38EA6F
3E011E54
3DC2EF88
3DE45CB4
BE51CECA
3DCBDB2E
3DF65AF2
3D068644
BDC82B01
BE1AAD6F
BDC90E34
BD40A3DD
BD9FC539
3D77E642
3B8F7667
BBD5452D
BD189BEB
3DEE2C40
3DBFCE2B
BCA28466
BD9523B6
3DA1FC9C
3E474AF7
3D6A9D5C
BCF44D19
BCEC68B0
BDA62DE3
3DCFA258
BCCDDB1E
BDFC9506
BE0B0EC6
BD807BAF
3D7030CF
3D49AEA8
3E09A3BC
BDDC45A3
3D0905D0
3D29A340
3E2E6683
3936F923
3D666254
3DC340E0
BE0F7E95
3B522862
BE10CDF3
3D9F8A6B
3C3586C0
BD859200
BDC9479F
BD44BEB6
3DEAF0A8
3CA4E4A8
3D0B5CEF
BDE14F66
3D6A75AC
3E02579A
BE19440B
3C4B9E50
BE210390
3DBD0BF2
3E0C7BA8
BDD42200
BD36C8C4
3DD88314
BDB92A74
BE3B0930
3DE27E01
3D87E713
BDB3577B
BE11C91A
BD000D40
3D60055F
BDDF0BF0
BCC338CD
3DC47E8C
BDDBBD9D
BC108994
BDCB076E
BDA49BE8
3D336981
BDC3AF88
3D5513B6
BD780C0E
BCFCA529
BCADFD2D
BDCF39A8
3C51F2FA
BDE4F33B
3E0D5D9A
3DCF5ED4
BE086CB8
BE2079EC
3D7F13B7
BE4B519A
3DCB6028
BBAFED21
BD8A1F98
BD30AD07
BCDC9640
3DD79386
BE11E981
BDA808BB
3E1927E2
BCC0F80B
BD7C7029
3C0AF9EC
3C5CD710
BBED5E88
BE09299B
3D831C86
3DCF478B
BDFD5558
BC9503BE
3E4B9719
BCC11AA0
BE48E9F5
BD381E00
3D329BD0
3D18F77F
3CE760C0
3D3D1850
BC570C50
BD37E445
BDE2B6D8
3E263952
BD0FDF05
BDB21E0A
BE1C7002
BD85BACA
BCC3CED5
3D8CA982
BE1E3BA0
BC678104
BDB4F82F
BE12DFAC
3DD7E0E1
3C82AFBB
3DE1AF98
3E086B67
BE0103F2
BE20893F
3D658181
BCC60C8B
BE1ED647
BE19EF26
BD91A957
BE239B45
BD7CF0BC
BB9A173A
BE05B104
3DCAE812
BC8985FF
3D7875A8
BD2A315E
3BAFD549
BE2DD9FC
BD982B0B
BE243BD6
BC5A8F50
3E50E4CA
BD9877A5
BEB3A9DB
BB631E88
3D508740
BC905BC2
BDC2EF04
3DAA5FFE
BE17DB7C
BD8D566C
BBB969AC
3D08A360
BED286BA
3DA685A1
3DAB9C9F
BDCA8356
3D7F2BA4
BDC6630A
BD8D81AC
3D8AD67D
3DF3FD80
3A88ED9C
BD839B52
3E17A5A6
3D883724
BD53E81F
BE10E911
BCBA3100
3DE83224
3E363DB1
BD9329A9
BDA21F19
3DE09F08
3D354464
3D1E60D2
3D5E42B0
BE5F660D
BDD2F185
3D141FE0
3DF5E322
BDB40D02
BD103790
3D21FE44
3E0C1230
3E17F8FC
3E482910
3D3C5462
3D47DC80
BCE6145C
3E2437B0
BDD0EAE1
BCA5F230
BE17CC02
3BFEACA0
BD83F43B
BA6E8C8A
BBB624DC
3DC4E518
3E0F036F
BD920D0D
3DF83D92
3D878227
BD9584E3
3C95525A
BCDA752D
3E1767CA
3E88AAF5
3D8556C0
3CBCE5C1
3E9BBF36
3C4DE784
3DC13CBE
BE097F05
BE66E67F
BDDA1E66
3DF05D70
3AE41AC3
BDDDA8F9
BE21BD0F
3DEEC009
BE61678A
3E2C94B6
BD551F42
3C427C1C
3C5AD210
3E15EFF4
3BD0DF20
3DECE6EC
BCF77A95
BCB54810
BDC15665
BB8D22CB
3E0291D7
BB9E27E5
3D630813
3D10A976
BC7CA2FB
BC3EAEF7
BD13D190
BCAB5EA0
3D7C9A88
3D7C9ABB
3D1CFEAC
BDA2C198
3DD0BD1A
BDE0F573
3D26A0C8
BE5FBA2B
3E23E9AF
3E05C627
BDB01279
3DDBA34C
3DE3BE19
BD429247
BE96DC8A
3E8267E0
3D2C6AAC
BD49E5A2
3D8CEEE5
BE0A14F2
BC43D2C0
3E10326A
BCD620A8
3DEA2F00
BC7882BA
BDF07435
BD0ADC9A
3E10B5B6
3DA52C3E
3D533B35
3DB43C12
BDBDBF7E
BE20F99D
3D8FA1E3
3D0ED294
3C391A50
BD3AC7DD
3C76E31A
3E03EBFF
3E0715FC
3E064D18
3D72554D
3D8F7406
BD4B361F
BD7591A5
BD8A78D2
3DA30698
3E15803A
BE0306B4
3E1CB9C8
BD3F50E4
3DDC279E
BBAC2E55
3D90B8F0
3C86D2E8
BDED6586
3D1C74B6
BDCA4172
BE089C72
BE0D6703
BDEF55C6
3DAAEBC0
3E03E61D
BA224800
3CCE3383
3CBF29F7
3E02CC39
BDFCDBBE
3E07C973
BE034923
BE45F7C5
3D83C1FC
3D8A6DCA
3BABD7AB
3DCD5633
BC863B23
BE01D8E7
3E0D9D34
3D5470B7
BE033F40
BE58EFBB
3DE5DF6A
3E1E1F2F
BE143443
BC1565E0
BC6AAC4B
BD9AC762
BE26829B
BD32233F
3DB5B89D
BE60EEEA
BAC713B0
3E22DF94
BE21B9E7
BD56A2C5
BCBD8410
BE0BC47A
BDF70459
BD4D9392
BC4C63F3
BD34B2BC
3D967B12
BCAEC2C8
BE17BAC2
3E438F3A
3B1E8EBD
3DFF1E0E
3BA70AA6
3B423850
BC7D6D7E
BBA13900
3D7B3308
3DEF2C88
BCB9735B
BD8E7DDD
BDCE774D
BDD4CFE9
3E0D9213
3DA2D21C
3C9F3EE8
3DEE972D
3C87F16D
3D1515B0
3E22295E
3D84A1E5
3DBC6DD0
BDCC9FC2
BDD74824
3E18AE4E
BD8CF9F6
BC9DEBE7
3CFB44C8
BCF2B680
3D49619E
3D8F42B8
BE08BEAD
BE220FFD
3DCFE150
3C7C12B0
BE020EB3
3B535280
BDD0E28B
3D89D669
BDFFC697
3DD2F288
3DADEF67
BCF3AE08
3E27319A
BD017705
3D0654AC
BDD77CFE
3CB4F8B0
BC412AE0
BE0D3A13
BDAE477C
BE1D14D4
3E03338E
BDA31DE7
BE1FCA16
BCDFCF20
3DBCEF58
3D567614
BB596E00
BDAF76A4
3DA61090
3E0D0CD0
BDC2824F
3E12151A
BD30AABC
BE30E500
BE0B431C
3C238C90
BDA2CC28
3DCC20B5
BD8A8E1A
3DDD5F70
BDBB77C4
BDDCAE81
3E1C6FD6
BDAC12F3
3D03A964
BBC8EB35
3CACCC77
3D6FE3AC
BD3EA7BD
BD0AE196
BDFA2079
3DE0BD70
3D267522
BE3256B1
BDDAE002
3D86F5FC
BC397455
3DCED3EA
3DAD3EF4
BDB78D8B
BE193B5F
BDA1BBFB
BD1807A8
BD662779
3D989F3E
BE1DC83E
BE103A94
BE36A91A
BE275735
BCF2593D
3C5B82C9
BD103F55
3D9A3E5C
BDA19DAC
3CBFE7A8
BE012E8D
BDD29C28
3D9C527C
3DD9C864
BD07580F
3C0BEE66
3E12AECB
3CF7CC01
3C0EF0D1
3D9DA564
BE20A352
3D74F8D4
BD4723B8
3E0901AC
3E0251ED
BC8AD293
3CA764CD
BDFD5D69
3E0B1663
BDD1B89E
BC8BB229
BD073F58
3DD330CD
3CD73D6B
BE215EF8
3D001995
3E14A6CF
BDA15403
BE05EE8E
BBDFEDC0
3E1B9246
3D4B0FE6
BDA41C1D
3E102C86
3D5735BA
3DF88888
3DF27628
BE15ADA2
3D374DE4
BC8F2A88
BD2EDD48
3E1959B0
3E2A2A42
BDEE17CE
3D8B4A82
3CAE9EE0
3DB23D44
BC4C6F50
BDB39687
BE1F962A
BE27D860
BE1DC1E6
BD68C03E
3DDCD794
3D2E569F
3D19219C
3E1B22F7
3D979202
3DED3600
BD999FA0
BD91838E
3CBFB2A7
3E141C66
BE1CC29C
3DD97738
3D5FBD54
BDF88C3E
BDC50692
3DF371A8
3D97CC86
3E0BA9CD
BD45450F
3D0210F4
BDD68082
3E0EB8B7
3E269D8E
BE0F37D9
3DF6F08B
3DF409F5
BD74523A
3DD77307
BD961DDE
BB1A329B
3DF08872
BCD7E798
BC0F8971
3CF4781C
BDA5D06C
BE0A86F0
3D88224B
BE490B93
3A0534EA
3DD348D8
3E0D53F0
BE535C56
BE225BA4
3D971F59
BE19F75E
3DAEB801
3D317195
3DDC682C
3DE7D3DD
BBD78E01
3D2019F5
BC5819ED
BD7909B4
BD9396D8
BE2352F5
3DCCA6FB
3CABF13E
BD3982B9
3DBF1BFC
BE1BE406
BE01968E
BC0F5752
3DE283F4
3CC68397
BD068970
3D1263AE
BC024F85
3DAE1F46
BDB55D05
BD0FF604
BD997D5B
3CF32868
3E261948
BD084A01
3DEC801E
3D33AF29
3C64FB78
3DF7D588
3E0BB3D0
3CD9562C
3E2EEF44
3D440A0F
3D55581C
3D8AEC74
BDBACD8A
BE5A718A
3DD1EA61
BE023E20
BDFF4FFD
3DD5ADE6
BD8D3FFF
BDAC0309
3D05980C
BD4CD50D
BDC70B2C
3DB6A81C
3E12FF4D
BAB6E7DE
3DC3C204
BD9ABB6B
3DCF343C
3BC1E09A
BD7DB2E9
3D892530
BD789468
3D1869CA
BB8A04A0
BE0A5034
BD65A823
BD6AF914
BDB6A5AE
BDEAD57B
3C874550
3C80C335
3DBDA750
BDAB6C2B
3A43A34F
BE04845E
3AC15E4C
3E072780
BDA4680A
3C51171E
3D9AAF82
3D32198A
3AFF22D5
BD02B6C8
BD30BD1E
3CC4B200
BDBB230C
3A926154
3D23D32E
3C51CBF0
BE12938D
BDC04565
BD2E95B5
BD86B143
3D6CA3B7
3E12732D
BE07460F
3DBE7084
3C59C08E
BD36FD83
BD6702E2
3BFA2A80
BDAC314D
3CF908B3
3E077D30
3E010E44
3D994F4D
BD3AB30A
BC81961A
3CD2EF58
3DB77DDC
3DEB7636
3E4A20EC
BDBE4B69
BD6DF09E
3CAD7986
BA9B13C7
3DCEA655
BE59DAED
BDF6CACD
3C449585
3E1635E2
3E0C1654
BD92CD76
BD1B885E
BE8F7A49
3DF8A986
BD1A5ECA
BDC69077
3C307D74
3DF2F4C3
BD30A779
3CE356F8
3E14D2B9
3D216DC7
BCEB62F8
BDD5FFD8
3D775775
BE00C10A
3D4FE7C1
3DC9C438
3D08CC0C
3D393A00
3DBF9FAF
BE0690E5
BDB9B732
BD0ACC2A
BE00FCD7
3D2B003C
3E005749
3CC89155
3DEBF1F7
3DDABE54
3E09A2A4
BCE48C32
3E040FC3
BE04EA45
3DE0C6FE
BDA75D68
3DC84093
3D9D2C17
3D9C5AE0
3DA1CE06
3CD7D722
BCE019D0
BD2559DE
3D92B47A
3E0F39FB
BE0AFAA9
BE1C4216
BE1B30CE
BDA9B9B8
BD83A4DE
3C0FFB9C
3D5A36EB
BC9131C9
3E14DB62
BD581652
BD3FDE9A
BE3957C8
BD85BF00
3DDF6560
3E10D6B0
3D691340
BAEDCD80
3DB806ED
BD053EEB
3DC62FF8
BE132C5C
BD5509C4
3E22F515
3E176195
3DF68610
3CFF552E
BD234E4F
3DFBC244
BD979259
3D99AA04
BD3CF3BF
3D1AB718
3DBE3671
3AED3480
BDD7AB27
BCCE9430
BD18C300
BD9E750B
BC5F9C1F
3D447F43
3D9C9A4F
BDB9BB79
3D96EAA7
BE2B2410
BE3733CB
3D7B2774
BD47A9F4
3E194F49
3DA94436
3D448F42
3D732F5E
3E375F3E
BCCD37CA
BE0D87CC
BDB0A8AE
BD830E51
3BB1E0D8
3D582810
BE1EACF1
3E219E2D
3D895127
3E225872
3D21DCD2
BD95A67D
BC719518
3E23712E
3E29C8E9
3DBA2403
3D65B29D
BE5FD7A5
3DC41CA7
BE05202E
3A127B00
BCF9B0CC
3DE50DA4
3DD885F4
3C331FE0
3E07EFA5
3DC2FCB1
BDE51EF3
BD3F2F54
3D8E1CDF
3CB66BB6
BCF02A8C
BD434138
3DA21266
3E1D8B76
BCA9EE42
3DBD9B67
BD9DCF70
BE251504
BD6B5ED4
3D9937F2
3B8DAA3D
BD20960D
3C35D196
3CCA96CD
BD95F1A3
BDC30661
3E6E5C3D
3D7FF35B
BD1E792F
BC06F190
3DB2AC03
BDDD618C
3DBE5DAC
3E0D4BEE
BD9D96A4
BD909D44
BB0899C0
3E32D388
3D6C4E1C
BE22290B
3CEF5E14
BD50D8EA
BDCD4F2A
BDAA390B
BE1375DC
BD4BF7E0
3E03D0F7
3DE1A00C
3DD22818
BE10BABC
3C046272
3D2E7CA5
BDC879E2
3D5DEDE0
3D924D97
BD7078EE
3BDE4ABC
3E0EC026
3DE51ABC
3D95D15B
3DD9E0E0
3CF2B14B
BD17121A
BDB85AD8
3DC3AC5F
BDBC558E
BD95B69E
BD909FBC
BDD603A8
3E03D380
3DC98CD9
BCC48926
3DA12D9E
3BA9ACBB
3E08A5B2
3E0B89E9
3D1DB23C
3DFB75E3
BE0D9610
3DD13373
3DB27F20
3E2AD88D
3E2BEE90
3E7AC92F
BDC702DE
3DF6664E
BD8C7F9A
BCB1E401
BD1AB493
BD942329
BDEBF0A6
BC054764
3D8741FC
BDCDEE7D
BC3BD80C
BDBCAA96
3E2446D5
3E0E192C
3DE9D4BC
3D3D2A26
BD48DA61
3C644AF4
3C8A5E91
3E0963FD
BC59B387
BE330ECB
3DBAAC97
BCEEA2D2
3E8BF1E8
BDB664E8
3D1FF11D
3C8CD778
BE1F655E
3C6C276B
BBB61CEB
3D4715F0
3DCD0FA7
3DE572F8
BD953872
BD07AAE8
3D2EC1CD
BE00BA3E
BDD421C1
BCEC7270
BE095085
3C39E660
3D91AE97
BDA11881
3E22BCB1
BDFF9783
3DCB66A8
3CBF2760
3E055C53
3DA59B8A
3DC5E044
BE0C03AF
3D2214A4
3D010CD2
BE4366A6
3E83D344
3E832F2E
BE1CC5BA
BD6CDF72
3D3A67A6
BD8B75BE
3E0E026C
BD8E366A
3E6AF57F
3E01A64A
3EAEE60C
BDDBCEE6
BE124510
3DA34817
BDFBA42C
BE082269
3DD689DB
BE295A67
BE56FEA0
BDC596F4
BE095122
BD825A08
3E02B1F6
3B7D0400
3DC34A80
3D1237C8
BDA80357
BEB3F554
BD931C7D
BE14AA19
BE09C9EA
BD5B4D8C
3DF08D87
3DC640A4
BE876641
3DFD065E
3D0F5B24
3CE734F3
BE4FB5FA
BDDD3EF5
BE0896F7
BD86A8D6
3DEC2BDC
3DC6617D
BC484146
BD5E7A56
BE126138
BD9A829A
BE04726F
3E0AECA8
3CB0C8E6
BE103DDE
3D181DD4
BD9318B0
BD887732
3BBE26EF
3E23B068
BDEA0806
3EA4AE95
BD190914
BE900506
BD70AF26
3E03C057
BBC18979
3E343B42
3E20A254
BE432FBB
BDBA3EF5
BD98A56C
BCB751C2
3C7281F0
3D40822B
BDF94B01
BDB651AB
BD133643
3DF4E704
3E47254F
3E1D9FBA
BCFB203B
BE372BE1
BCA7E755
3C929AC9
BE119788
BD6EA61E
BD922168
3C4B3F5A
BE295A78
3DAD630E
3C9F11E8
3DA65B24
3C340180
BD607AE0
3B9D21A7
BDE03ADD
3C296980
3DEEF561
3DB1F864
BCBBE0E8
BE055CFC
3C283723
3DED15F9
BE1FBB0C
BD4BF81A
3E1D48DC
3B35FFC0
3DD2979C
BD3812C0
3DE270E8
BC865BDE
BDCFBB4C
BC8BF039
BE2EBBCA
3E0FD321
BD779C6B
3D0F704C
BE04AFF8
BE17CFA2
3C63ABD0
BCAC4840
BE052B73
3CE19C92
BE1F7A06
3DF61A2F
BE1CCAA0
3CF78388
3D0808B8
3C951A90
3E094A1A
BD0042C9
BDC099D1
3DD14300
BE0CE527
BDCF69F0
3D831342
3E237B05
BDA683CB
BDE7E0B6
BDCB90A4
BE0FB7E2
BE282C60
BD81A8B9
3DAD075C
BCE59061
3CC8E5B0
3DEBE9F4
3D43377C
BE1E6E4E
BCC9810E
BDE09AF8
BE31CCC7
3DBBBA61
3E0616BE
3DEBBABC
BD76CABE
BE32C65D
BE293BDC
3DEDFA4D
3D142EC4
BE07664E
3E04150A
3D07ED61
3DF25C3C
3D8B74C1
BE11C37E
BD6121CA
3E14CAEE
BDE44522
3C93E048
BD211EBE
BE03D954
BCC34C2F
BD23038E
3D6474E1
BBC12934
3DF04A29
BD849BCF
BBEC1949
3D845EF0
3DD2F67C
BD700C13
BE42F32E
3C916BEE
3C4140D0
BE3EC706
3D5068DA
3CAB3C43
BBDEBE36
3D75FB8C
BD23CF51
BDAF9296
3DA53234
BDE52F11
3DE09896
3D169192
BE120CDB
BE1946BC
3C249C40
3C0F7363
BC8E0178
BD536D4A
BB9074C0
3C1CF68A
3D4B1012
3D8C661F
BD2632B7
BB0CBFEE
3DA2A830
BE0C4B1B
3C420FB0
3DAEC75A
3DB4D830
BE02A05D
3D82C07D
3CF87095
BD5E34DC
BE17277E
3E09124A
3DB4BA14
BE416247
BDB465EF
3C161448
3DDFD0E4
3D33E4E6
3E0301FB
3DB190A8
3D74D017
BD734C5E
BC5951BF
3D26D40E
3D69F458
3DF0C76C
BE496982
3D78B7AA
BD41317E
3E2D8288
BE006A58
3D891571
BD0D028C
3C96F170
BE35B038
3C26024C
BD94375C
BDE3BDFF
BE2E5B5E
BD914403
3D083950
BBECC34B
BD222DA3
3A406421
BD82B6BF
3E23E508
BE39541E
BCEB2EC8
3DE67E9C
BD3E9942
BE2213FE
BE14BCE9
BCE901D8
3C82ED87
BBF0C83E
BDD6482C
BDD90AD3
BD9FF0D4
3D93F06A
3DA1B072
BC1018F0
3DB52842
3DF28052
3E03FF8C
3DABBDE2
3D99ACCC
BD6457F8
BD898C64
BDA88F21
BE30CB3B
3D7FFCCC
3D155B18
BD28E2E4
BE22A239
3CC4C3D4
3AFF94FA
BE0DFEC5
BD9C2EC9
3D96A4D0
BC152729
BE3A8C3D
BE078F04
3DF5D90F
BD3B154C
BDEAA1C4
3DBB4D29
BE23377A
3DA0884E
BCB34860
BDE47132
3D98B250
BCA770D8
BC7E4240
3D8097E2
3E042A3B
BD21BCCB
3C679D98
3D916457
BE14779C
BDE5EE36
BC3D4046
BE18625A
BDD0DBD3
3E0D1C38
3DA0D177
BE499023
BDEF0FAA
BA950A80
BC593558
BE0FC799
3D737A2B
3D7945CA
3DD903F7
BDD8AEE2
3C34DDB8
3DC1CCEC
3DB6AA04
BDC1EAC7
3CCDEAEF
3D3155A7
BD3CFB62
3B58BEB9
3E2918AB
BDA8F6D4
3D5F680A
BBCCDDDA
BD7D119F
3DB62C1B
3CD5E860
3DE59BF2
3DC66743
3DA86B20
BDDA319B
3D771554
3E1DB7CB
3E032994
BDC0B368
BE186CEE
3E440717
BCFD5732
BDBCC5CC
3D14DF60
BCA984FD
3DF66FF1
BDF00D98
BDA1CC92
BDF385B8
3D85C3E5
3D81AC02
BB50DAEE
BD66B6FB
BD4DF508
3DBBB188
3DAE24C0
BD0183DD
BD9CBC4B
3DFB76CC
3CC36988
3E4D03C4
3DC789C0
3DD9670A
BE4DEF0C
BE2362EB
3D8D1639
3DAA7FEE
3E39A685
BDC14F59
3DF8D020
3D2912AD
BE72B1C1
3DC70C84
BD7477A0
BDFEEB80
BE813738
BC8634B1
3CA1B694
BE246B3C
BDBC9627
BD8214C0
BC5FCF2D
3DBDF84C
3E350F54
3D7B1473
BE1D0A3C
BDD82279
BDF0CD35
3CBFBBF0
BE1C423A
3D3587BC
3D29B270
3E332D3B
3C39BC33
BD83DD58
BE1C5500
3DA470AB
3D0B0470
BDCA30CE
3C479A6E
3DA89D0A
3D9B5A05
BD86BDD4
3E16F6F6
BD34EFA0
BD7A703A
3D89E4F7
BE74C8E9
BD71FD78
BE7CF195
BE19D716
BE3D0AE0
3E0611AE
3C01252E
BDA20CE2
3B9F78B4
BDF8085C
BDC4E107
3E010D71
3D873FEB
3DBD0C47
BD50B42C
BE1BF3BC
3D39ECE5
3D336BF0
BCBA5A86
3DA895FF
BE23F797
BC76D075
3E0FBEE2
BD7D3E1C
3DCED858
BD09562A
BD6AB8A0
3C245622
3D95F21A
3D168E28
3D513710
BE5600F5
3CE7FB72
3CC46BC9
3CA8906F
BE0CB298
BDC06215
3D618DC8
3D190428
BC8868B7
3C9E41A8
BD5D9143
3BD54B4C
BDBB1340
3DBA22F8
3E41DABF
BBC4D62E
BDE8FA53
BCE09D4C
BB88C099
BD15C5E2
3D0FB8B9
3DDFAB7C
BE08990E
3DF44808
BC89CC33
BB72CAFE
3D3062FE
BDA379EC
3CF9E290
3DA54A50
BE735BA6
BD9F3758
BE068538
BDC548D0
3E42ED50
3E24F5E8
BC52FD29
3CA4CB0E
3D90EB88
3DF5B54A
BD60065C
BE0881CF
3D15DEBC
BE0C3268
BDD83D0C
BD4BA8DE
3DB2BDB8
BCCB0A88
BE23953C
BD86B61C
3D5CBC68
BDEA0923
BE0F0D6E
BD073686
BE3B76EE
3DBA8AAB
BD22CCDA
BDACC2E8
3DC03648
BCE1DD9E
BE0BD2DB
3CC27DC5
B8EA7FEB
BE4B36E1
BD7924E6
BDD1A4B0
BD05ECB9
3E12D200
3D14D3AE
BD87D898
BE5A211F
BE21DFA3
3C657E90
BD7F3594
BE13BD90
3E2E3A4A
3C0149F6
BCC26108
3D931EB4
3DC389D0
3DCFD0BD
BDC46E5D
BE2499EC
3DC52EC6
3DD96468
3CBF5859
3E12E6C9
BD3C231C
3CE22619
3E01BC9F
BD4E067A
BDE7B606
3DC397BF
BD115263
BC908F39
BC2D0A50
BDBAA83F
3DEB0DE5
BDDA7C10
3D9E6FF5
BE2E180D
3E177871
BE1F9BEA
BD9D0B6D
BD3BD26E
3DE95A84
3DEA98DF
3E292747
BD916FB0
3E25AA4A
3C0F5A2F
3E14DC32
BE6561AF
3BDB2CA3
3DD728EB
3D7902D1
BCA1CAE0
BCA94294
BDE60103
BD2C7CE6
3E1E6A86
3DFC4188
BCCFD775
BB05B274
BD797026
BE0FBE88
3CCA9109
3D127F73
BC965DE0
BD3BAA5C
BD2A187D
BD6B62E8
3E0EEF08
3D961374
BE1D1F92
BD89B517
3E3E6728
BC59F4B7
BD6B518B
BCF4F020
3C0A6FB0
3DBD3DC3
BDFAA6C9
3DD85212
BCC5FD58
BDF8F4F8
BD55486A
3DA51AC6
3C4B38CD
3D7D20EE
BB8C1400
3D8C2DCD
BE1A235D
BE416378
BDB372F3
BB5400C0
3D887AAF
BDC3EDC7
3CA1A568
BD4201F4
BD05A174
3E58A9E9
3E187BC6
3E4B298E
BDA1234E
3DF6C46C
BE0B1184
BCBD5D81
3DD13068
3B3F4E8F
3E0625BD
3CCA9A9D
3DF3EFF0
3DC2B69B
BDBAC4B7
BE0F275E
3E25EDBA
3E4D88DC
3DB8D608
3D1A028C
BE14901D
3DE065C2
3D58F11E
BD9FE4E5
3D7E27BC
BD4A888C
3C325F2F
BDBF6DB0
BE274F23
3DF38D48
3DF7EA07
3D7B12DA
BD8A3A1E
BD437411
BE10D737
BE0BC597
3DD1E1A7
3D5DDE30
3D5421C4
BD9E49DB
3DCA9449
3D0429C1
BD82F1DD
3DBB3288
BDB333FD
BC3C7BC5
BDD559E7
BE14BD88
BCAD81C9
BDDF7F0E
BD177D84
3E336D18
3E23644A
BD562CAF
3DDC01F8
BDD50D78
3E136E44
3D742518
BD366AA1
3D77DD2B
BD348A7B
BE13CDFB
3DB18D7C
BE160D7E
BDB9149A
BDB9264E
3C1A23F8
3E041267
3D2ED178
BD4D30F1
3C248E20
3E0856DC
BE258BFE
BD24A926
BD6246B8
BD1EBCD2
BE0D8FF6
3E2173A2
BD43D70F
3B058FA6
BDEE317E
BD15CC44
BD9DF87E
3DEFCB6C
BE160C3E
BD946D83
BE0B67D7
3BCBF33D
BE16963E
BE31AE0C
BE35C2BC
BD3325E2
3D956882
BD1F793A
BB9D79A0
3DF5A111
BE09238B
3CDD7998
BE285D36
BC882790
BD3162C0
BDF4FFD3
3CF0CDE0
3D879890
BD7F9068
BE0E4113
BDD10AA2
3E046934
BD408885
3BCC1D20
3DF48DD8
3E15FD86
BD9EE4E8
BDFDA7D0
3DACF60E
BCF499F3
3D39E088
BB65B71B
BE297B76
BD609105
3DDC7800
BE39DC94
BDFD2B78
3D0D5F44
3DF145A8
BDE87F37
3DB35EFA
BDF96EED
3E2370FE
BCC4C81F
3DE5B523
3D965B17
BDBA12BB
3D745F53
BD9C5FAF
3DA6F25E
BD8F8C6E
BDED12D6
BE0E9D4A
3D3A0B41
BE0651B7
BD20405C
BDE32FF7
3DB3EC38
BC34B964
BE07E623
3DABB590
BCD12FE7
3D863DA2
3DD85372
3DD35B31
BE0B8E29
BCC8075E
BDCF6B6E
BE3E1D06
3D9C8118
3D0AA057
BDF57A0D
BE26C687
3D5E3D00
BDD72045
BDDC050B
3E0DAD77
3DE97D2C
3DEC0684
BDB478D0
3E05CD1C
3D8A01D6
3DCBF924
3D22E0D0
BE0D8BED
BE387D4B
BE0B0EC9
3E1B8011
BCC9369E
BD77E046
3E45805D
3D81FCD1
BCC26050
3D148C4B
BD5346EA
3E1D5117
BBEEE625
3E232674
BE8FB04D
BD5E9F2A
BC9633DA
3D0B7590
3DEBEFFC
BDFE93C6
BD79F16D
BD3E655E
3D6C7684
3E98BF19
BD4C867C
BD345E63
3D7BA43F
BD850414
3E38FF6A
BCEC3724
3DF91E74
BE01555D
BC7149B5
BD27EF3A
3E03BAA8
BE1610DC
3D1BD8E8
3DD1A729
BDD0CBFB
3D6F8274
3DF50382
3D2BB96C
BC2F78ED
BDE19EE1
3D7EBD34
3DFE00F2
3DF63608
3D67A0A3
BCC57B27
BDEBD2FF
3DA19D10
3E32E7DD
3D24EF7C
BE071CDA
3DB43D58
BD105726
BDEA408D
3DE5FEBF
BD070408
3DF65760
3DDC3455
3BD24F10
BDF9A0F0
3D4B6F2D
3E08E057
BBC5D78A
BD4F6990
3DFF9C69
BDA1DF80
3EA199AA
BD925F21
BDEA3A27
BDCAC2B9
3D41B404
BD1DC24F
3DA1DBA0
3E2A2F69
3CBAF141
3DDF2758
3D2386DA
3D9B3F88
BDC08AEF
3C8B3DBB
BDCFF8C6
BE56CAF5
3DE2ECAE
BD9EA4B2
BD04D4E6
3D940734
3E68CF84
3DD0F974
BE4591FB
3DB16089
BDE5BC8F
3E1DE4D7
BDACA99E
3D7E6E57
3D96AA1C
3CCF33E4
3E15220A
3D950C5F
BE202671
BD506292
BE4F4BE6
BDBA9264
3E00BC75
BDFFCDA2
BD976506
3D18C4C3
BE1FB028
3D9781FA
BD9209F6
BDD3DAF7
3D423ED9
3DE1D483
3E3C3A34
BDEABFD1
BD390FF0
BD7FF4EA
3D34C237
BE1DA206
BE0E640D
3E24F7AE
3E03E23D
BE2B6A97
BDB1AC96
BD1EA894
BE1C906D
3D46BC79
BDA44326
BDF9B4CE
BD9672A5
BDFECE9C
3D04DF42
BDD4FF89
BDE7D8B5
BBB1D6F2
BDFBD5BD
3CBC3B18
BE00DADD
BE3773C6
3DE6D736
BD987553
3DB5993B
BD298351
3D3F0618
3CB3F8B8
3E34C58D
3E111B44
BDB0E2BF
BDFDC7DF
3D701A74
3E1A555B
3D664C1C
BCF87E40
BD77B1A3
3DD308A4
BCFCDAF6
3D581EF4
BE214D5B
3DF6DD9C
BD74C74A
3D8B2546
3D2DECE3
3D25C824
3DAF15DE
BD938761
BDC6AF69
BD5278AF
3D248FC9
BD4AA078
BDB620A3
3C9DA265
BD6FCDE1
3D836B74
3CCE24FB
BDD7B021
3E18C876
3DD85F21
BD8D4BB3
BA036884
BDD80872
3DBFEF30
BE32CFD3
BC377695
BD45D285
BE1795EF
BE278179
BDAC253F
3DD32695
3E06B012
BDE15DFD
3D66BED6
BE0746C0
BDFAEE46
3DF07E08
BD8B99FB
3DF61F0C
BC1F32B6
3D6280F6
BE1988A8
BD8804C4
BD8A2E03
BC88C79E
3D4D83D2
BB7AAE7D
3DF1F239
39E56600
3DE489C2
3D6D6580
3D3B65E7
BD75153A
BDEC1F0A
3CEF1BC0
3D1CDE13
BE14F847
BDBA264D
3DB1DA51
39EA2989
BD30A2B5
3D0538C4
BD886146
3D80D2E6
BDEFF5DC
BD489C90
3E09CC11
BD45C970
BCF3E922
BD3A7A68
BD5D1414
3EC0CF7C
BD8C5F0F
3CA37713
3DA59D3A
3E1696BE
BE334DCE
3E0A0E3B
3E53E4E8
3C2D7701
BD0382AC
BC362CA7
BDFE9D73
3DDA26E4
3D39B260
3DB3A7E2
3E2E61EE
BDD2D630
3E681202
BDB2CCD0
3DB44F90
3DB616D8
BDE9B047
BE63809D
3E010D47
3D934CB5
3D091606
3DECD870
BE24FD19
BDF42700
BCB30439
BE4554E2
BDFA8F18
BD4B51CC
BE0A02EC
BE1C4384
BC710130
BC8054F8
3B17EBA6
BE24C1A6
BDBF1C09
BD91B569
BE6A88CF
3C9BBB16
3D41C68C
BE1D07E7
3C4CA265
3D3D9DEC
3D122E0C
BE1E4786
BDA75216
3CA5A38F
BDA876CC
BC114080
3E2AF999
BD5FF95E
BDBD2A8E
BDBFFC6E
3DA4A81D
3D7C5DB0
3DC62348
BDF1F316
3D08F94B
BAA4307E
3E262DAB
3DACEE62
3E89970A
BD300C8F
BDCA3F44
3C89D3EF
BCAAEC44
3E52B697
3E67C265
BCE9A6F8
3CCDA42F
3DA0B7C5
BE2F9313
BD11707C
3DAAA68E
3E316C21
3E1E03D6
BE4F2886
3E35BCDB
BE03D20E
3CC1356E
3E02146F
3CF76D41
BCA59E6A
3E48B4E0
3D6092AA
3D867438
BE1C7B67
3DE0A604
3E7C6369
BDEC21F5
3D2ED77C
BD6D3D5E
BCC2532E
BC88FF66
3B8D5634
BD37CF52
3E07E7C8
3D504B60
3E3C38A1
BD7BF8BE
3DB45BB8
BCCC4278
BDCD935F
BE13A397
3D8F52D9
3E09C81F
3D0C8BD5
3E091242
BD65F982
BDF1ABCC
BDFF93C9
BE13D4E6
3DEEEBB8
3E0936A5
BD9059AE
BE5DB509
3D361D9D
3DAB785A
3D5295E7
BDCB88A0
3E1FAB58
3E10DDB6
BDE450EE
3E62EE6A
BE0576D3
BE2E72C5
3E0760E7
BDCE6264
BDFCB093
BDE4725C
BE0C8D03
3E0A0838
BE3EA077
BA81B90F
BDE769EE
3E11D8EC
3D1015C4
3E3FBC9D
BC9F3D18
BB41E9F3
BDCB8AC0
3BF51E40
3DA8551C
3D1AD908
3D52924C
BE2AE501
3D83DA9E
3DEE32F2
3D4BE024
BE74DAFC
3D8CA9DB
BD715246
BD630E3A
BD549ADA
BE15DC91
3D9C3D70
BD114B80
3DD00FE8
3B5F5DD9
BDD2C088
3DFF1B30
BDF9774B
3E0ADFB7
BD808CB7
BDBC9D94
3E13ACEF
3E085CE4
3E1A5078
3DCEEE7D
3DF48164
3DE92878
3CCE17E4
BD63F518
3E31710A
3E135DBD
BAD01AB8
3D87B600
3DDE6669
BD40E0C2
3DF5FB80
3DE668F0
3E00289A
3E012453
3DCA2746
3D8DC763
BE08FDB4
BE527BE9
3D37E050
3D56FEF4
3BB1355A
3DF6A21A
3E1619CA
BDCBBB7F
BB201377
3D1808DE
3DAA233D
BC3CC0B8
3CAA2CDD
3C969AC4
BBBD15C0
BC889038
3E21F8CA
BE20D5D0
3DB0F21C
BE04ED29
3D858124
BD9E2B69
3D7A87A0
BDACBC3E
3CEF9112
BCCDD023
BDB95AB6
3DBB4DEC
3E0FE7D4
3DC354CA
BE124D28
3CC997F7
BDAA502A
3D4AC892
3A7D8100
BD3AFC41
BD1A96A8
BD5F1A13
3D191576
BCE18458
3C9B29C8
BD5B5306
BE3C7F96
BB310009
3DB7CE3C
BD66B46C
3D8F9975
BD71E554
BD9A61F9
3D24E0E3
BD8C39D5
3E194186
BD8086EB
BDED80B6
3E0D6E40
BD3D4EB0
3D9B819C
3D884835
3D9CD65C
BD88E549
3CC60A63
BDBC1914
3D15E338
3DD85DD8
3BDA7EA1
BE096AFC
BE260ACE
3DA6D030
BE201BE3
BD1811D1
BD18AD00
BCCED428
BE1933F7
BD682010
3C342E78
BBD86180
BE1C4397
3D69C02C
BCACC318
BE235F60
BE0DB06E
BC0113D0
BCC35D68
3C922608
3E0EB1CC
3D11E6C0
3D9F7A0D
BDE8B95F
BD9D20C3
BE22A516
BD212D3B
3C129E60
3E09BB19
3DC37B4C
3DE498A4
3D8D44A8
BE1FDBBA
BD0D5B05
BDC5CD0D
3D2D66E0
3DBBB2BB
BC2AA0B2
3D76246A
3DDFEFB6
3D77C7F5
3CF273A2
3D7097EF
BDFA81BB
BE030C04
3DE5535A
3D88E5A4
BDB7336B
BDBCF898
BE0C8F00
3E07318C
3E048AE1
3D64EA10
3DE40336
3DC955CE
BE41ADB5
3DB9FE0C
3D70687B
BE2606F6
3DFBBCD4
3DA4DB8E
3E0DD758
3DCF4234
3DFC9EC6
BDCBDF2B
3DA1157E
BE19DE76
BC3A4342
BE08A060
3D4AEAB0
BD7D0C3E
3DFA7314
3D1868D5
3DDADE56
BDCBC0E7
BBA13AE0
BE1E4232
BE380F2A
BE1511D0
3D57244C
BE080BBE
BD567080
BDED7BD8
BE55F8FF
3D42F95C
3DC0928A
3BEEC988
BCC9F7F8
3DE76F2C
BCA7F365
BDF9C57C
3B461C6D
3DE558F8
BA4C9009
3DE23E20
3DD3AAD0
BD021B24
3E445DD5
3CEE4AB2
BE05E061
BE29F0E1
BDA89405
3DC5B604
BCA40FFD
3C16D8E0
3D35EE88
3DBE7A5E
3DD586FE
3D42B62B
BDA8D370
BD78C112
3D82ECD0
3DC5A948
BE47EFF0
3C8B244C
BD9BA234
3D150D98
3D9DAA90
3DA78260
BD8632EA
3DC1353A
3D41AAE4
BD9806E0
3DC6CCFC
BDFEB47A
3E03F41F
3D9BD856
BDC5CCD5
BE036E14
3C7B9300
3DE330C4
3D7047F4
BB35170E
3DA9DB3B
3E21B9BB
3D070B3C
3D79C2BE
3D4E7EF1
BD3D6DFD
BE021CC0
BD5A814F
3D1DDB6B
BD156618
BE2EC05E
BD028764
BE09FB83
3DBC2ED5
3D1738A0
3C44259B
BD0359EA
BE0AEC7B
BDAA2B71
3D930592
3D2ACB20
BE08D65D
BD7320CA
BDA6E18B
3CE55AE9
BC261411
BD667DE8
BDDC8688
3DD8E778
BE003EE1
BDDED04E
3D46E68C
BDC6599C
3DAC4BEF
BD1773FD
BD1114B5
BE2C1ED4
BDB4C740
3E0F5F0F
BBFC4000
3D4799F9
BE176485
3D7A7579
BD426D9F
3D72BB30
3CA85A90
BD94DB11
3E16E3DB
BCCE1FD1
BDBB20BC
BD8BB1B8
BE02E804
3D57A961
39B2DE00
3D8FCB28
BA941580
3E0368A2
3CDA0D3F
BC6F313C
3CBEE9E3
3DF9A251
BD514C56
BE789934
BE20BD93
3D1CB9CF
BD0D5802
BDBF2F62
3DDB5C56
3DBF344A
BCDB8A57
3C8B3983
BDA20093
BDF7B1E6
3DBD22A1
3B5ED000
3DD40FD4
3DDCE559
BE31A8CD
BC7A1800
BE6BCF94
BD98CE0F
3D7B3D64
3C226321
BE0441D2
3D332FCA
3E02954A
3DE974BB
3E7F5F47
BE029FB2
3C853A78
3D9D662E
3C8DBC9A
BCC26E47
3DCAD328
3E1CA10A
BD3B5D00
3D068CB7
BDF329B6
BDC67D12
BDC9C361
3DB0F904
3D5FDE03
3BC766A0
BDF1C2B3
BDA6D821
3DC00AD4
3D32A752
BD0E2E55
BDA872C1
BC41A6A0
3D95842A
3E0B9DFE
3E1CB29F
3E284CE0
BE214B3A
BC65C82B
3D60AEEC
BDBFD96A
BD7A28E2
BB9FB890
BBFA26A5
BE0D9B97
BE5BADEA
BD925C88
3E1153EA
BC9DA657
3D5E6C44
3D3CE24D
3D46DCCB
BE450C9B
BE29C675
3E036206
3C70F934
3E15B6CC
3E07A24C
BE0858A8
BD2409FE
3DFB5FE5
BBD6E71E
BCA880B0
BD382D59
3DED43C2
BD15E999
BDDB8B85
BD000283
BDDCB2FB
BCF021C2
3E9F728D
3DCE889D
BDB8F94B
3CDF7D17
BB977D04
BDCFF3D3
BD5AFB44
BDAD0B3C
3DA36F28
3E118DAE
3DF96318
BD196618
BDAF0863
BAA1545B
BDBBFCC4
BDCDC6D9
3E0FAE7C
BE12E3A2
3E1DFC90
3E18A16C
3E0EC13A
3E17FE8F
3E15C2A9
BDC5BF14
BD83F59A
3D3E5160
BBF36360
3D23F83C
3D40B813
3D846F81
BE39488E
3DEEFF34
BE08823E
BBA5C9D5
3DCFDCD8
3CE287D6
3DF042C4
3D942AF2
3D291CED
3E1D5CB2
BE08D42D
BE293B08
BDA572D3
3DB866A0
BE1C1AB3
3D1B2CB8
3DB94018
BE1F1900
BDE51AFE
3C636000
BCF3FF35
BC69AE37
BE2F04A6
BDB3807C
3E0DD3D6
BD95173B
BDF18F28
3DFB4A34
3D86A0AF
BD8C6B0E
BC163F00
3B524157
BE0A1BD2
BDFD1512
BC3A3960
3D10CFBC
3DEB5634
3E1571BC
BD136DD6
BE1439ED
BCF7CD18
3D9E8833
BDC370DD
BD18FAD0
BDB29FF8
BE178105
BD92C5AA
3D28EF80
3D981CFB
BD82EE93
BE351522
BB871C00
BD9920FF
BDC69E1D
BD476EDD
BCFD0178
3DF368B4
3E228B82
BD658157
3DA60204
3DD9A7F4
BDFDF8D4
BD146914
BCBE4D2A
BE300391
BDABFF3F
3D28D403
3C926CF8
3DE201A5
3E167088
BE3E3345
BDA6893D
BD26DC20
3E1FD41A
3DD3B4B0
BC3509C1
3DCEF1E0
BDC96E2B
3D6AECF6
BD8E6A18
BE386F55
BE405186
BE1A685D
BE14EAED
BCA5636E
BDFB0E89
BD2141F8
BD054CFC
3D2D30F4
BD4AE238
BE365E85
3E18C822
BE265514
BCCA57DA
3C0F9F1C
BE4047DA
BE23F7DC
BDB8B113
BE249EC4
3D61C68C
BDDDC7C2
BC75B080
BD2B4710
BDD803F2
3DEDFF97
BE42BBDF
BE0053A5
BE06FB6F
BDADFD44
3DC020B3
BE05A1B2
BBAC8DF9
BE377658
3E112C5A
BD3AE4CB
3C6597AB
BD3CBAB2
BCCB6147
BD423492
BB50C7F4
3E0DA11D
3E1FCE98
3DA96980
BD22C416
BD2F2E4A
BD08C108
3D4B00B6
3C96412A
BD0A11D0
3E0EBDAE
BD5CA8EC
3D6D0B1D
3D6E86F6
BE226900
BE0C3DDC
BDAAF79A
BC8B3450
BD772A92
BD587B68
3E3EFDC3
BCF9DD02
3E13FA24
BC2B2DE0
3D8B2805
BDD79996
3DC97F14
BD9F3D7E
BC542540
BD32EA7F
BDADA863
BC573056
BDA8D55D
3CBDD2A0
BCF6A1B6
3D7E34BC
BDBD43BC
BC019D20
BDEE12E3
BDCD5F2E
BDF446FE
BDCECBFF
BD89C7CC
3DC53AE8
3E08FB29
3D5264A6
BC733650
3DBFD7BF
BCAD1F40
3D906736
3D90AC06
BDAB1772
BE0EF439
3DE2B361
BE06A0B1
BD9BE652
BC24E334
BD1F98E5
BCA6B68D
BE3597B7
3D392C97
3D3988EC
BDE56336
3D801425
BDBE202C
BDAD5A85
BD0D009B
3DBC228C
BE05EC80
3D854F8C
3D0C7766
BDE6E3AC
BD114AC4
3DDD0676
3B90DBA7
BDC8CC90
3D7B965C
BCBBFA93
3DA6480E
3DB83684
3D185DE4
3E23EE08
3A516D50
BD5F8972
3D78A474
3D8369F0
BDE7DD34
BC22FF45
BE03A2CB
3DEF45F7
BD92B4EA
3B54EB00
3D1CBD0A
3DF13818
3D29B8F4
3D29D3B8
3D6DB948
3D9F475F
BE21017C
3E188F76
3DB134BA
BDF775C6
BD5AAC47
BE232AF8
BE163FC0
3E0F3961
3DA87FE8
3DC7C241
3DA74AC5
BE02B957
BE314520
3E238FB6
3D832C6A
BDA60A2F
BD17B610
3D89E370
3DE0F80F
3C6F373C
BDD9C7D7
BD95FF01
3DA46613
3E030236
3DF3073A
3D90A366
3DF58895
BE1F21ED
3D59179B
BBD96F72
BD9F1347
3DBF81C0
3D6A4D18
BC05074C
3E04DE5D
3D62EEB8
39EFCE00
3D27ED18
BE357F04
3CC089F0
3DD8AF00
3D085B25
3E22ACA6
3D8A9715
3DC3E3BC
BE4D5642
3E23B3A9
BD93F059
BDB9A81D
BD3F0405
3D90A350
BE121676
3D29B660
3DE470D3
BD3A12BF
BE38194F
BD43F7EA
BDDC8806
BC81FBC1
3AA08E54
3CCE2998
3D5ADD01
3D1D9E0B
3DFD8D91
BD2C2163
3D17AA14
BE1FCD6E
BD9A8C64
3D8F693E
BE0C8ACC
BE2F21B6
3BA4CFAF
BE2AD4FD
BCA50F3B
3DEA1922
BCF094A5
3D38553C
3DBDE0B6
BDA03214
BBCC0F73
3DE85B33
BDA6B60A
BE036EC6
BD6BD3F8
3DA7F1D1
3E06E888
BD577C46
BD59AACC
BDB5BF1D
3CC8A234
BD6A3B38
BE164F12
3CEAE86B
3DBBA288
3DA6B95F
BD46F8A4
3CCDDA07
3DBCBA4E
3E0A77B8
3C84BE40
BDFE1873
3D994B29
BCAFFC43
3CC56D62
3CCB55C4
3E1AE01F
BB9B72BE
BE241C9D
BDA5AE75
BE256ACE
3E09026D
3CB73AE5
3D3A05E1
3E15969E
3D52A2CC
3E1121F6
BC02E1D0
3CE3DD50
BD2A1FFC
BCAE2EA8
3DEB9E74
3BDFF1A0
3DC3DEF4
3D28B84C
BC7E0E90
BD19FA88
BDA0ACD5
3E2410CA
BD6C0B46
3D488214
BD76D1D2
BB8D29E0
BDA48F21
BE208453
BC3844E0
3C004FE0
3DAF7AD4
3B3789C0
BE15E8DF
BCD41AB0
BDF04BD2
BD983A73
3D96B1FC
BE0A4F4D
3D373E30
3DB3A1DC
BD6274B2
BDF5569D
3CF2B5D8
3DA2CE4C
3DB770B8
BE215F66
BDE651FF
BE0664C8
BE114B49
3D4B65F8
BCDAFA40
BDFA8E7F
3E159EE6
3DA1550E
3D06F3B4
3CB9C1A0
3CA63F20
3E1EC25C
BDDC6F16
3D3163E4
3D246198
BDC7384E
BD56ECA8
BDBF1336
BDB8A65F
BE02E0CE
3C169060
BE05EA30
BB7E7200
3DD52128
BDD6541A
3D51A240
BCCEC870
3E0F4EE4
3CB31150
BD807547
BDE2A216
BE1336D6
3B9B4E20
3D8E293E
BCD9CED0
BE135005
3C557690
BD1B3D3C
BDC72179
BDB95E84
3D1637A0
3DDE9944
3DA9D1EA
BE024149
BE1A1CBE
38E84000
BE00D274
3DDF2BF4
BE1220F5
3E18C93A
3D69B8D8
BE12B0AC
BDEE57F9
BDB13C49
3D3C53D8
BDA2B773
BDFE9CE6
BDD59D06
BD51504E
BDAD3181
3C8EB9C8
BD87FDD9
BAD0E000
3B2A39C0
BD486B22
BB088DC0
3DF3DD74
BD0B4C74
BE25C90E
3C7EE710
3DA2D2A8
BD69C7AA
3DDB9EA4
3E067688
BDEDDF61
BD2F91B2
3D0C73DA
BD93EF24
BE3C806F
BD1571F9
BD2BF22E
3E54023E
BEAC478E
3E308361
BE0278FE
BE0E5503
3D631AF6
BE48C290
3D684244
3D8D64C4
3D3A506F
3E699395
BD239FB0
BE0E3F37
BE1F541A
3DC21C1F
BDDE7596
BD9CBE81
3E160DB8
3BF8F6E0
BDDF511B
3E09CEC8
BDF7B0BF
3DE8895C
3D94E85C
BDC6D5EC
BDBABBA7
BDA60A0C
3E201D42
BDE91272
BE31C198
3DB2D6BC
3E28F1EF
3E4C2E5E
BD350888
BB6B17E8
BD3FF670
BDF80E28
3D881557
3E0B2344
BD75F90E
3E042262
3D482548
BDA700BB
3D957858
3C509910
3E15B6C3
3DD48B00
BE2010B0
3E0E133F
BD8118A5
3D03F523
3CC189C0
3DB7B272
BDA46D32
3E1AC206
3DCC2AF5
3DB249AA
BE5530D1
BDC42102
BC345F00
3D5ED333
3DA71912
3DC02513
BD907D26
BDF2EB5A
3CEC3310
BE0D0B3C
3C458DA0
3E471F5D
3E8D02F7
BDC375AA
3D897FA2
3DBABE00
BE0289DD
BCA45344
3DE6AC22
3E00DCBF
3E1C0E33
BE1AE964
3C1D163C
BDD9F2BD
BD19A2B6
BDA97132
3905E448
BD96B3CD
3E0AADDE
BD8710FC
3E563C78
BDECE804
39E73680
BBC29060
3E10C40F
3D9CE681
3D9F4A71
3E17FED5
3E0C7613
BDCD0431
3E38ABD4
3CEF02A0
3CBFAF88
3DD674A4
3DF4226F
BE25E925
3D880D48
3E1FE3A0
BD64CFF4
BE1E1B9F
3E2B2E2F
3CFB343E
BDF3627D
3E334770
3DA367EC
BCAE7298
3CC9ACA6
BD96F30A
BC031A44
BDB48A8D
BC90607B
BD3AFAC8
BD8896BB
BD9BB5FC
BC2285A7
BD003373
BAFC1100
3DEA2028
BE1AC5B0
3DAAA61A
3E276376
BE015845
BDB70F13
3E1D612B
BD4D4F4E
BE47B483
BD3BE6BD
BE192F45
BCA046C0
3CF53797
BD0C54D9
BE1D3773
3D8C8FCC
3DEB359C
3D425E39
3DE0B658
3DC55FA6
BB2DF8A9
3E0B25F0
BC16E5E9
BE12CC94
3D91391C
BD3EB883
BDFD089C
BE118078
3D721FC7
3CDA5BE8
3E0BD224
BD6B457C
3CA6A9E0
3D55CC67
BD248E85
BDF56A41
3DFC8D55
3DBDC2EB
BCB27387
BE074F67
BD1CED78
3D76CA20
BE223680
3E1499A6
3DC4FEA0
3E30A3EA
3DE9AB69
3D1F2E78
3D8E7D93
3D9EA529
BD3B7C35
BC2E209D
3D16B7F8
BDF2DB0A
3D408862
BDC082A3
3E02998B
BE7B8679
3E011C70
BE07A6EB
BD97363F
3DEEFA95
3D4D6A75
3CE8F524
BBC5098A
3C5798ED
3DB33BDD
BD96E857
3D9604C0
3E2FB65C
BD9F0D7E
BCB031BF
3BBC9090
BE0E78B7
3DD8384C
BC8C7C35
3E1B4CE9
BC2B2A9D
3E231A34
3CCB0BA1
3E828D77
3D17CF0F
3DC8B43B
3D828856
BD1C91A8
BE0870DF
3D9B795E
3D3BDEB4
3E1E2998
BE1E8900
3E01C760
3DC34A97
BDA8846D
3E1F0A94
BDF03E28
3E0723C3
3C2D0C95
BD97EADA
3C23140A
BC88BE48
3E013C56
3D1444D6
BD2236DF
BE1DF848
3DAA1D32
3E1C524F
3DE09D58
3D7D4990
BBB0A7C0
3D41E40D
3DD21C9B
BD9E4502
BE0F0904
BD9A5938
BDFB94A5
3DDB0D98
BDC2E75A
BDA1F19B
BE2F43DF
BC754B20
BDD610E3
3DB42B0B
3E13C960
BE010B20
3C2CD1B0
BE0DE2CB
BE03574E
3D9F0812
3DE6FAD0
3D97F57E
BE0FAC8D
BE0F4800
3C9D1CA6
3DFDD750
3D87BC37
3DA8EE04
3D880A44
3E030CAF
3D8A6EF6
3CD4603C
BE183E30
BE01B158
3D92072E
BD2BDE2C
BE05B8D0
BB38B4DE
BE1B01CF
3E21065E
3D8E56FD
BE1DD36C
BE0521EA
BCDA0248
BE1E5055
BE119A04
3E0A9966
3DD02040
BE1B7158
BD2AC55A
3E15018D
BD8D099F
3C89D988
BE1AB0B5
BD0DA132
BCB3E1D6
3D582A30
3CDEA531
3D020AD5
3DE28A38
BCFE233D
3C09BD01
BD04256E
3DDF6CBE
3C2D3480
BE221F13
BAC5BA5D
3BEE439C
BDE36623
BE18753F
BD5E1FB1
BE238479
3DF5CEE3
3D6EDC6F
3DDDE8A3
BDECD274
3D91ACCC
3DF3C179
3BCFEA00
3D4D188A
BE11BF67
3D5A3DB4
BE058729
3DFAC94A
3C2D69E6
3DE84A84
BE1D8C06
BC8E55DC
3D8DDC18
3D25A44B
BDAAD4BA
3D4AF054
BDBED6C7
BE32B186
3D8A8925
3DC2E890
3D0F3DB4
BD4EA3C4
3E25F8C6
3C86F715
BE09053D
3C8626EA
3D9011CD
3E18ADB0
3B10DA6A
3D8B1B39
BE1662E0
3E23FAB0
BDC594CB
3DF63BD5
BAAEFF39
BC49AEC0
BBBE3280
3D3EFB2A
BE2B0700
3E025100
BE9BE96F
3C836DB8
3E10AC31
3D76CAA3
3E06A18E
3D8B7D7A
3DF74A9C
BDBF6317
3DE0EF3E
BDF6D0D8
BD613578
3E0B02D4
3E4BDAE4
BD983313
3E2B950B
3DABE97C
3CF6FB18
3E2E12B3
BDF7FAB5
BE1709D2
3D986057
3D9E1476
BDDA1BA5
3DE87668
BE3F34B3
BDAD244E
BA576400
3DDF6998
3E0E76DB
BD8AC6AA
BDD84090
3D87975A
BD90B80D
BD8D92DF
BB062657
BD81EFFA
3D73F8FC
BC0FCFD5
BCA63EE3
3E20BF8C
BD2EB44E
3E07AB4E
3D62D0A1
3D87266D
3BE36B4D
BD836899
BC252573
3DBD18B8
3DA83F2E
3D748132
3DC311BC
BD996CB9
3DBC0E8D
3DA103CD
BDDE46D9
3E053900
BE325CBD
3E246F87
BCA5AE68
BC2CF4ED
BE06B3A3
3E4502C0
BDC76CEA
3D2239DB
3D98447D
3CDE2AE1
BE41849E
BDBAC64B
3E903BBF
BD6F63FE
BD5DCAD1
BD70EDA4
BE190A01
3E19C2F9
3D326010
BD165674
3DFCAFEC
BE0F711F
BD89CC52
BE2AA70D
BCF8E924
BD249A57
3DD1CAC4
3DCF5D8E
3CAEBE0D
3E12FFFB
BD5834F6
3E110D7A
BCC5DAF8
3E116D33
3DC801E7
BE2FFA17
BD93082F
BE082082
BE0BE25D
3D9676F8
3D184CA1
BD9D3BDF
BC2691C7
BE0CB924
3D666D19
3D7C87A8
3DBFD9CA
3D971C51
BDBEDE3F
BE92FC85
3CC1B5CE
3D2AA224
3E023B80
BE9DF4B9
3E041783
BE01BE02
3E66E3DF
BCCF3E76
BE029C8C
3E06DF39
BCD90BB8
3D918828
BDB838AB
BE151F84
BD16E4F5
BD0ABF37
BE262018
3C848620
3D0DC727
BD7ABC52
BE360D76
BD0465D4
BDB5C6BF
BD21F4C2
BD75B264
BD285845
BDB029A7
BBC5BA20
3DEB3780
3D24FB98
BBC4415B
3E0C4319
BDDF2A42
BE12E36A
BCEF932E
3D84BED4
BDDEE1C6
BE032E09
3D6D8BC2
BD80FF81
3D874ECF
3E007738
3E22A353
3DB526F9
BE1A3D01
BBC74200
BE0C2EAE
BDFC8DB7
BDACFF1C
3E182F13
BD95CADA
BDC60414
3E98016A
BD81F897
3E3FE998
BDAF6A02
BBEE0B82
BE23B9CC
3D8C1D27
3E61D2D3
3DCE50FC
3DC1C0FC
3DC87AF7
BCB94CFE
BE16668F
3D74539E
BDC1E6AF
3C8EA558
BDC88DC9
3DA6FCAA
3E313F18
3E09B461
3D8EB252
3E3A81C1
BE672A02
BCE6FB4C
BD9FD51F
3E7370FA
3DACFA16
BD03B7EC
BBB6AD20
3DB03D9D
3DDF4C50
3D016384
3E173BEC
3D7D2BEF
BD7F00EB
3D71F48E
3D84C262
BCF7FB83
BE1FD1D4
3E082D0E
BD808AA3
3E1C6444
3D05F410
3E436452
BD821349
BD43C866
3D257029
BC9F17A4
3C498DD0
3D68C5AD
BD4D7DFA
3E32EE2E
3C2D2BDB
3E25ED7A
3DFDED37
3D1FDACA
BE01EF5C
BD20914C
3CB9A090
BE25F426
3DA656EA
BD5B6B94
3CC50950
3DA27632
3D8889AD
BC26E070
BD2A96ED
BDC578E2
3E12E117
BDF0D7BC
3E1C4528
BE255BA9
3C828F7F
BCD66A43
BE4B76F9
3E267187
BDA17E28
3DBBFAF0
3DEC8927
BE17D594
BE234791
3E10AAB0
BD02FA38
BD97E0BB
3D81CF3E
3D8A84C5
3D231F3F
BE18CE69
3E7B14CF
BD3A15D6
3E1870F0
BBAB59B5
3C62CEB0
BDC500A1
BDC18345
3DEFEE38
3D2E02D0
BD17EC1C
BC0322A1
3C9CA902
3DC2811C
3CBD3070
3CBA82AC
3C74BE10
3D08048B
3DEDD84C
3DBCAE29
BDF0ACC1
BDE553A0
3D96899F
3D77FCA9
BD4062AD
BDCE17A1
3C27DA50
BD3E1509
3E1F2231
3DDCF21A
3D095F55
BDF32CC6
BE326DAE
3DC98818
BCB6BE88
BD32EE2A
BDC2E1A4
BB35E51A
BCE2F8DF
3DFE8D78
3E4A918A
3D465FAC
3DAD8FB9
3B3B64E0
BCFCC00B
3E549184
3DE64612
BD522E1C
3DFFCBF0
3C892CB1
BD9FF0EA
3E01B2B7
BCE75E6D
BCF54E90
3D9D82AC
3DB1E7D2
BE186795
BDCC0DB3
BDB36B87
3CA25235
BD3BD348
BE0E3432
3D6D9811
3CD22313
3D78FD34
3D998A30
3DBDF4EC
3BF9D8A0
3DE6162A
BC30A1BA
BCD631B5
3E0CBE52
3DF958FB
BDAB3051
3E345308
BE092F27
BDC1504D
3DFB2EE8
3DB76914
BE1767E5
3E81E0DF
3E46EF22
BD779A1C
BDEE2EA6
3D63A814
3DE89B4A
3D83CBFE
3DA6D704
BD1AEFBF
3B3147C5
BC492E90
3ED22558
3D7D4178
3E1DF14A
3DF44FC4
BC9E5298
3DC1B4E4
3CBE0710
BDA5F47A
BDF83D26
3DF17DD1
BE122BEF
3BAA3800
3E469089
BE2F7E48
BDC9CFCF
3D89F034
BD44537C
BE2EC1C0
BD8F2CA6
3D6A70B8
3DC97D60
3D011C34
3E39FA3B
3CAA95D0
3D0725BF
BD921205
3E114FAE
BDA81891
3D1A911D
BD110DD8
3DD25020
3D4731E0
3DF32243
3D9985B9
BD445A49
3DEF2970
3DE47B99
3E1DE89D
3D418385
BD9FCACB
3E228539
B6879AD5
3E24BF0C
BDE9FD10
BB2A3BC5
3E1F9DAD
BE25227C
3E06DA02
38E3710C
BBC9629F
BE09F194
3E1FFE8F
3E1B89AB
BDD69FB7
BE044F52
BD996331
BD9574DE
BD6FD2AA
3D8E8376
BDE26D99
3E2261E4
3D818FE6
BE0B665A
BE1BFB04
3E3AE1D7
BD6F03A5
3E0F6458
BCE5C57A
BD5384B1
3D77CD9A
3E32D542
BCED4798
3D4966E4
BE1806BD
3D218438
3D8D6EFF
BCBB94CD
3D61A470
BD523544
BDC58626
3E5A65E4
BCA4A0D4
BE34DCB2
BDC52FD6
3DB09D8E
3DDF10C8
BDC6AF61
BD778366
3D9103B0
3D24B1A5
BE16AAD8
3E1B5B2B
3E170ECA
3CB815A7
BE0FFC17
3D90AA46
BC396A29
3E098918
3D325882
BD07B548
3D68432F
BD1819FA
3D93BAF7
3DEA175C
BD0A97FC
3DF23E12
3DF81009
BCDF24A8
BD5AFBC0
3D8A6D08
BDB95E2D
3D172634
3D270D90
BE0B14E0
BC7543B0
3D7C3F18
BDF85E2C
BC33B072
3E098D0B
3D0CFBEF
3DC25D18
BC66D3A5
3D8D4556
3E038470
3BD02551
3D9AFA30
BD952932
3E07CFE8
BE174A7F
BD5F6A25
BDA18B84
BD6EF998
BE1294AC
3E22CE50
BD80880D
3DEAA160
BE1E5314
BE8299B5
BDB38DE5
BDEBFBB9
BE140947
BE26D3F8
BE1EC90B
3DF71758
BE3BB4D8
3E24ADEE
3DEF23D6
3C5DCCE0
BD1161D0
BE39E07B
BDA03CFE
B9472C00
BDAA9F60
3E286BDB
3D687AF8
3E2B3554
3E3E8894
3DBAF3E8
3E0C5548
BDFB0E02
BCA693A6
BC164836
3D8CCD69
3CEA586A
3DBF9E95
3D53228C
BD95700F
BD3A9018
3DFD180F
3D9A9A59
BD9EA890
3DDD2A1B
3DAB4A56
3DC75138
BDB14A4D
3E1AFA01
BD972AE6
3E1927B6
BE9D284D
BE09BC7C
3E7C8BD5
BE323144
BE0F9AAA
3D767702
BD8DCE69
BE34A3F8
3D9EDFDA
BE5F0CF2
BDD3B211
3DD6D18C
BDF43EDA
BDD083EE
3CEF4F91
BDD64871
BDC7C64B
BDB0E16A
BD29A0C6
BE60CFE5
BE003635
3DC9F650
BD9D7C9F
BE23F2D8
3D5E0749
BDFED32C
3DC50F20
BCDE3714
3E01C8BC
BDD17307
BCE8C946
3DD32AA4
BCBB56BC
3DA91EE2
3E34D989
BE890487
BE6ED673
BDC76C8D
BDD39B3E
3E27C5B3
BE06EDE9
BD835C7A
3E1F8B94
3DB23131
3D8D981E
3B911380
BDFE8FE1
3D19FE70
BE01E862
BDC47FE9
BDDA2962
3D653EBB
3DF0F45A
BDF3ACEE
3E621039
BD1D3639
3D5918A0
BE06B5E3
3DF9E293
3DAA3AE6
3D899BD0
BE01166D
BC9CB3E0
3DA56219
BDBC10B4
3E0DB795
BE2170FB
BE127811
BDD4182B
BDD4D8CF
3C6BA737
BD88E8BE
3DBBB0AC
BDADB383
3A29D6B5
BDE809CD
BB9F6F60
3DD05F10
3BA40D3C
3C9A2FAC
BDB3A5AE
3E22AF60
3E0B62F2
3DEF2F57
3E116373
3D095288
BE201AA9
3D1EEE2E
3D666F41
3DD0F8A8
3D8194C5
3D8F65A7
3D694110
BD541BEC
BDBAD5C7
3DDBDDF8
3D745DDE
BDA9EAA3
3DC265CF
3C837423
3E004E64
3C11ACD0
3D058B44
3E0FDB0F
BE0B316E
3D2F0503
3D9C4CDC
BE37AA50
BD72E1F6
396B94E4
BCD896D0
BDB5E331
BDAAD13F
BC91C76F
3E227709
BE4119BB
BE53AAB7
BCCAC564
BE1E2D74
3D7599C9
BDFFA073
3DEAFF35
BE3D48A8
3C816A26
BDA21480
BCDFF561
BDCA3C29
BDA686C4
3D9D4B55
BD09CC03
BD84CE66
3E039425
BDE47FCD
BD855215
BE11620B
3E140513
3DB93E2C
BE4A817D
3D1B10AD
3D1CF433
3D7F0B64
3E0C176D
BD87A1BE
BE092B1E
BD2063EA
BD982DCE
3D7A19D1
BDB7F26A
3C799133
3C8737FA
BC6442B0
BDBD876F
BCC3A134
3E1DC4AC
BE0AC540
BE04931F
BD2F895F
3DEAFC9C
BD913E2A
BD8144E8
BCE12D21
BDF79AC3
3E06668E
BE1A2B37
3E0CCC5F
BDFF6B1E
BC804F6B
BDEB3201
BE0419B3
BE0B7DCE
3DD3DCAD
BDDF674B
BD85E0F5
BE001174
BE1D0454
BC268C9A
BD77FEAE
BC973820
3DE3F7C9
BD99E34C
BE01A286
3C157510
BE140B79
BD65400B
BDD21ACC
3DC898A8
BD7C5BAD
3DBE6CE0
3E089552
BC83F1C0
3D66C9DD
3D8E5329
BD8D6D64
3D18945C
3CCC2DF3
3D9A26A0
BD5DE41B
BDC54CAE
BE0AD581
3D2814E8
3DDC9E00
3DB3A884
3E1C327C
3C048EA3
BDFF1031
3DFF9644
BE05BD82
3AFAD8AE
3DB9A88B
BD83DC5C
BBD579CE
BCC09DA4
BD0BCBE3
3E0052A2
3DFBB378
BD7315CE
3D438DB1
BD831FCE
BD9937B8
BDAFC466
3D3024BA
BCDBA844
BE322AC5
BDF050A2
3DA86BB7
3A364DAF
BD833770
3DF2C2C8
BE517EEC
BD5D1D32
3DB095FC
3D028F5A
3DACB34C
BD706ECE
BE103A01
BDB77578
3D95AFDE
3E09D05C
3D667C10
BDA9F3C1
BE17E4DF
3DBC28FB
3E131F27
BE4560DD
BCC32060
3D4ACF08
BD455670
3E02B911
3E16381C
3CEA48FD
3CF0CED5
3E1B3E96
BDC2655C
BBDB8643
3D9AEF7E
BD999323
3D9F86D1
3E169B5E
3A6BF574
3C5CDB2C
BDEE6540
BD420A9E
3C68EEF0
3BC8B80C
BD9056E1
BE138D97
BC607F90
3E052CD9
3D4E9038
BDAA5ABC
BDDBAD7E
BD44BF80
3D0CADD0
3CE8B5F4
BDA6BCBA
BDED6FE4
BE2CE503
BE0BF7F5
3CAE5809
BE3E2DB0
BBE88AA0
BD403500
3E16FA57
3CAE8C70
BDC9A404
BD665712
BDCDD8FB
BCC38104
3E00138A
BDAB0B69
3D5D69DF
3D002EEC
3DB75C68
3DEADD14
3D13520C
BE149985
BD88D56A
BDB14A3B
3C459ED7
3E08217E
3E0A972E
BB07D540
BCADA1AD
3D6D6D82
BDEE8900
3DE22938
BCCC467D
BDAF7288
3D2EDCEC
3E140AC6
3D065484
BC04C654
BDC40239
3E0541A0
3E06D2D6
BDFA86E3
3DD13B4D
BC3314C0
3E11A48E
3CB20E07
BD46AD6E
3DF506DF
3DD2F6ED
BE062F2C
BCDD6DA2
3DCC13B8
3DB185CC
3D9B9858
3C793E67
3CBD07B9
3E1F1B92
3D9D7F48
3C3A31BC
3D24B5E7
BD815404
3E1F02C6
BD1545DF
BCEAB5C8
BE2FE1DF
BE3478B9
3CE0D9EA
3D4D0436
3D980B02
BDCEDC09
3E0F1330
3D8BC9AB
BE30E4B7
BD7C22E4
BE0DABB9
BD0BCF5C
3D931A78
BE1FB812
BD811276
BE07D2DD
BE0D9A89
BE03DD98
3E1FF23E
BE25D53A
3DBFE154
BD9F0F06
3DC68620
BCC868AB
3E074AFD
3D93484A
3DE2064C
3D891B3D
3E038DF6
3DD8843E
3CE3AD72
3D9D8C7A
BE38E849
3CA62D23
3C0F3035
3E48DFAD
BDC2D453
BDB2A382
BCAF08BF
BD44FD92
3E214D24
3DCFFC1E
3D2AFCAE
BDDEF606
3DDB0E4A
3E0DE198
BDBC379A
3DA9E973
BE1CDD0F
3DB369EA
BDC2CAB8
BB990840
BDAA567A
3DED9D1E
3DD27164
3DA10A1A
3DFD5E20
BDF70410
BDF8AE18
BE1EC385
BE111279
BDA6F440
BE05DB1F
BE0B4397
3D16F046
B96BEC00
3E107E9F
3C7124B0
BCEE88F7
BD9DC67A
3DA7BEF8
BBED29B4
3DEDB2FB
BD71B1F0
3DADADA0
BDF50F66
3E3AC0B1
BCB2EE4E
3E306C72
3CCDA7E8
BD189490
3C4E2998
BDF76525
3DE6176C
3D753D27
BD4456A3
3CF94A85
BD0B90A5
BCA4EBA1
BD9500CB
BBD29F55
3C4BD790
BBFF558F
3E18C211
3DBE35C1
3DC378D4
3E149CFA
3BA2E9D9
BE27FBF4
BB440200
BE1A964D
BDF112A1
3E41AD68
3D640488
BA95BB80
3E5F8DC8
BD7E5006
3CB7D1D0
3C88DD07
BE09D990
BDC38561
BD740280
3E0AD080
3CDE14D5
BD976CA9
3CDFD18E
BE1C64D3
3C01D25D
BD9AE0E0
3CF3B53E
BDA30BB3
3D1ABBA8
3D9A9504
BD60454C
3E601082
BC044AF9
BE1767B7
3DA8460C
3D4546EF
3D59E36F
BDD345CA
3C1F8F70
3CECAB38
BDB7C220
BDCDAF27
3E008796
3E257432
3D029590
3CDAFAA8
3D6CBE80
3E082943
BD4F3790
BDA630DB
BD58BE08
BE659889
BE5E5CC7
3D35FDA3
3BBC925A
BCC40470
3C6CE738
BE14B50C
BE012F39
3DB25874
BD001521
3DD1B22A
3E24E362
BD7EC7F5
BD8EB7C0
3DEB9A5D
3CC13318
BD28FCD2
3DB21F65
3CB7979B
3DAB21CD
3DDB2184
3C69594D
BE19C24D
BD58E2FA
3E72DE9C
BDE725FF
BE1C1E88
BCE76EE8
BC9F8780
BD306846
BD7D15C4
BDC2A750
BDE73B25
3DA20DF0
BE0A46FC
BE1EC1DF
3C24168D
BDFCC92A
BCBBB318
3D37A4BA
3D926757
3DDD51C8
3C5D6330
BD4951F0
BE3D82C3
BE181849
BD1ABC3D
3CB140A8
3DB9082C
3D603CB8
BDAF91E4
BDD4914A
3E06F2EB
3D7AFFE3
3C510484
3D736F96
3D55BE03
BDF7558B
3CC51DEC
3D803E6A
BD2F00C4
BDE9590B
3D9ACC98
BE568443
BD097041
3E06C509
3E05673A
BE1876D2
BD58F8A9
3E219977
BD9F879C
BDA358EE
3D9D4458
BE153AB6
3D20BC83
3D915A16
3DC4A22C
BDF4F465
BDC691FB
BE19954B
BE421D6D
BE1F49E4
3CDAE3ED
BE018897
BB2919D4
3BE2C274
BE0F6304
3E155FEA
BC040BE4
3DBCF94D
BE0097A1
3E2011FB
3E031976
3CA14E26
BD7CDE01
BD80B040
BE13216D
BE00D5AC
3D3ACF84
BDCE68FC
3DD0B6D0
3D0271EA
BE2607BF
BE2D4A68
3D824E64
3E18A57E
3E1E9172
BE0F9E24
BCB371AC
3D0AF45A
3DCB14F8
BDE90B3E
BD289FFE
3E0EC048
BE0721C1
BDE0D5BC
BD96C6A0
BD084094
BD4E188F
BD00C65C
3DB77C28
3C9B7807
3E3EF212
BD262D12
BDABEDED
3E003144
BD984C35
3DCCC42C
BD0FC110
BC6C409B
3DD926C6
BD6011EF
BE00A653
BE0EBF01
BDB0F475
BC550AB0
3DF3DA34
3D4B3A3C
3D9A282C
BDA50ED3
3D8ABCC8
3D86B0DE
3A022500
BD18FDCC
3C708AF8
BD4ABD84
3CC2BAA3
3DFE296C
BE34D6FE
BD1FEC91
BB0B7B80
BD733EFC
BE28C66A
BD61B9A0
3B4D91C0
BE03546A
BE0C0866
BD8A845C
BE21CF07
BE2037DA
BE324BBE
3E3E36F1
3BC564A2
BD9DBBB1
BD248E87
3A69E300
BD058584
BDE4E0C6
BE3CFD65
3DA79590
3E036D61
BD778236
BC63C77E
BE21E364
BE302F83
3D5010D2
BD41945D
BDE5FEBA
3DCA263D
3D1A058C
BD8DBDF6
BDD4CF03
BE08DE6A
3D1B4EB8
3C663B50
BD8B5507
BE234D50
3D2E4B33
BE276516
3B35B700
3D9243D6
3D60C496
3D6778E1
3E145A2D
BDF7E0DE
3D1CC61B
BDB35A9B
3D5ED1B2
3E1EF92E
3DFDC518
BCDBE42B
BACA8780
BD705134
BE3994D0
BD114BBD
BE0AF854
BDC0CC25
3DB964D8
BC9CF598
3DEA8988
BD34D874
3DB5760C
BE1E988C
BE2A8994
BC1AE2E1
BD989548
BE2B72D2
3DC7F39C
BDD357EF
BBB83BF3
3DA9C125
BCADA7FD
BDD88425
3D30E834
3D3F9D1C
3D254D1A
3D4584BA
BD37738F
3C5CBDE0
3D8984A9
BDECEE6F
BB6E20C0
3CDD4990
BE0B5919
3D6094DA
3DDAEBF4
3E13D234
BCD09500
BD66A98E
BDC527E0
3D725C30
BDD04559
BE06E726
BE2E11A7
BCB0B559
3D747A44
BE1BFC8E
BDB8D5F5
3D23EF45
BE1C3EE4
BD25079F
3B300DC0
3DB9BCB4
3DB6E12C
BD81891D
3DBD010C
BC73296B
3E0DE908
3CFED7CA
BC8591B8
BE00885F
BCD93624
BDF854D3
3D47B10A
BD95C7FE
BE10195E
BD10022C
BE10457E
BE2EBE1E
BDECB3BF
3DC43FEE
BD8388C9
3DBD49E2
BC91BD08
BE012F3C
3CAA64D0
3D097C5B
3D726B68
BDBD64DC
3E15614A
3DDC7320
BD6098A9
BD45CD40
3D906610
3DE39EEC
3DBAC93A
BE3282A7
BE2E9C79
BE00DF6A
BCBF1249
3DE64733
BDF96482
3CB66F4C
3D9AF1BA
3DA90038
3D33A1AD
BDB82B22
3DA58F22
BD586EDC
BC897AD3
BE430958
3E2268BA
3D5F258D
3DF1E2D9
BD96AA77
BC07E3DC
3E11DAA8
3C0D4F5F
3E0CD76C
3AEC4A51
3E03FADA
3D00C53C
BDD2857B
BD413B10
BC60FA00
3C5C8E4D
3C7EA677
3A45254B
3B07A885
BE037940
3DD560E0
3CC4427B
3D748740
3B9B57E0
3DB8B8FC
BD888383
BE08E3E9
3CCE9CAE
BD8CD2BD
3E07D786
3E20ECF8
3DF7274A
BD49A5C0
BD24E23A
3CEC16EB
3D9FE10C
BDD6F2AA
BE175CA1
3E0E4A0D
BD0EB780
3D1D00C0
3DC9DF85
BE2C9B3C
3DB5E680
BBE91800
BD772444
3D5E36C0
3E25316E
3E1694F4
BDA268C4
3DDF99B9
BE02B465
BD8D26EB
3E18A74F
3E0DD4E8
BE30E3E3
BE388CA0
3CB7B797
3D0C1B48
BDA76A60
3E08C331
3CC212E7
3DFF2310
3B575E40
BE196F75
3DC5EFE4
BD77EB0A
BD4C41F3
3DAABE2B
3C26EBB0
BE2C5464
BE1C3C52
BDB5D435
3E3551DF
3D4E0378
3E09FB65
B99D215E
BD8A3219
3D997E7C
3DBD9940
BDF89A6F
BD8325C5
3D82389D
3D77BFAC
3E158724
3DDCCB35
3D5A9551
BD5E20FA
3D5F503E
BD9B4AC6
BD9D8B29
3E00F45B
3DE8A7A1
BE20F6BC
3D7A0628
BD48E304
3DC3D8CE
3DF03156
BDA35144
BD93C59B
3E0967D3
3DBA3CBE
BE0DCA97
3E23A91E
3DF55F89
BDB9FCD7
3DBD4AC8
3DC6A4FB
3E1552DA
3E01346E
BCE39759
BD281ABE
BE5040CA
3E0388E8
BD0D8220
3DB08417
BD574B26
BDCE3B0B
3D174ECF
BE58EDD7
3CBE7205
3D53521A
3D1BB438
BDB4E25D
3C142620
3D611CF1
BD9A1F23
3DB98288
BDCDA1F7
3DFA3D5A
3A188911
3CB0E0BD
3E12C385
3DA15740
BE13B5C4
BD64B4CA
3D60B7C4
3DFF7C22
BCD99E3A
BC8A2818
BD4A68B3
3D3A7FEB
3E172472
3E82B9BD
BE4B22A5
3DD8EDBA
BDE29CF9
3CF60240
3D20B0C6
3E386359
BC646A35
3D7DF3EE
3E1E24FE
3DDED845
BDE69624
3D57F058
BE1E6A38
3D9B7917
BE674609
3E03C238
3F06D510
3C24F150
BD535000
BE016B27
3DA9FBCA
BE8AE8F4
BE1BB9CA
3C42C389
3E2B1193
BACDFA4D
BDB1CC93
BD3E2376
3D6933A6
BD4B5872
BE20E7DD
3D343DD4
BD8DBAA5
BBF1D497
BDF6F882
BDC3AD2E
BE10CA27
BCA18830
3E1566F7
3C9DCC60
BD46DD19
3E20A0EC
BE229404
3D8BC380
3DB9B6D5
3D705354
BDEA0825
BE15FDDD
BDA406CE
BD7BD05C
BCF5493A
3DF9B56C
3E1D04DE
BD03CED5
BDBBDA20
3D2909AC
3D05AC75
BDDC2C89
BD902781
BE01831C
3CEB7634
3DB3F99C
BB9ABD4E
3D2AB22C
3DBF3538
3E1CD4F8
BE64E293
BE3863E7
3DA67124
BDBADF7D
3D43609A
3CB3D4F8
3E13DB42
BDDBA59D
BE51D5E6
3E1A3323
BE09864B
BE25DAC8
BDC5A5C2
BDCD128A
BC1A3A28
BCC50F20
BC8C114B
BDCBFC43
3E8AB684
3D8632D3
BD9F9155
3C79E5F1
3C622670
BE939877
3E1AC74A
3DE01D16
BDD56E3C
3C322960
BDBE8556
3DAB00D1
3E051ED6
BD147619
3E0FF548
3E42350C
BC0DBE00
3DA588BE
BDB358D3
3D44FAF4
BDA6876A
BD30BD0C
3E3CD336
BD2B67E4
3C946ACE
BCBC608A
3DE50ED4
3DFC57A1
BDEFB79E
BE1FEF2C
3D2EEFE8
3E1BFD96
BE86DD2C
3E47D764
3D721E4D
3E286ABD
BDEE6430
3D6DD22A
3CDFA165
BE1F3AEC
3DD4918C
3DAA74C4
BE9F626C
BD352224
3D06BC63
BD4BD33A
BE2EF4BF
3E1FF1C2
BDAE6B00
3E1F5E78
BD500374
BB9D39D3
BD9C4507
3E045931
3CC61428
3E164AD4
3E51BE72
BC861C61
3DAC6E8B
3BAEFD00
BDDF2251
BCECAE47
3D8D0918
BD24E80E
BE1722E9
BE06CF56
BDC06D83
3DA2094A
BE34491F
BE72ED42
BD339B9A
3C2BBBF7
BE1C9271
BD9442CB
3E06DC4A
3DFACEFC
BE8EDB51
BD9197A7
BE05C5C9
3D6CC46C
BE38C065
3C9F12CB
BDF75E14
3DE5A670
3DD27B8A
BD0CE9A1
BE13C273
3E0C6954
BD29D4C0
3DA8C1A3
BE369765
3E1E860A
BC24CE4C
3E192CB3
BE34050B
3E75BD7D
3D4C10CF
3E1E677F
BD7C22B3
BD83D93A
BE2F0B7A
3D9E1E2A
3DC6DD76
BD84953C
BDC1A5E0
3E5819C9
BCA6578E
3DF8F628
BEB85AA2
3CBFDE27
BEA98CEF
3D93D37B
3E659437
3E196B9C
BE0762B9
BDD82A6C
BD8210F5
3DD52A25
BB5B6180
BCAD6814
3E070598
BE022531
3E05EA64
BE24A1F1
3D47F098
BE49CDE6
3D98EAF6
BDA6C53B
BD390344
BE49F8B7
3DADE38C
BE036A0A
3D9568C6
BD88FA87
3E0865F1
3E3E10BF
BE261E87
BD2E0820
BE1D4D65
3E1984F0
BD6A5A4E
BE0F6E71
BD114878
3D2A6CBC
3CBF2358
3C011930
3E0E229C
BDAE3682
BD896A34
BDF710B6
3C86D640
BDE325D6
3D944CBC
3CFBB870
BE02F6DA
3E0FE3D4
BDD35078
BE167DF8
3E183D1E
3E1D3254
BDB2EDFF
BE08F1E9
3E1B9BDA
3DD8C890
BB984D40
BB992300
BD916ADC
3E12DB64
BDF981B3
BDF0C22C
3DAEEEB6
3D91DCC6
BD0B00A4
3D75E2E0
BDD1E934
3DE97ED8
BD872A31
3D8CAE28
3DCD4A60
3D685334
BDDCA8B7
3D9AF0A6
3B4E96C0
BDDEC5CE
BE247CF3
BDB7860A
BBC0D920
3DE610D8
BD4FC648
3C5DBC60
BCAA7BF8
BD9EDEAB
BD6422F6
3DC4F32C
BD9539F8
BD66767E
BD7BCE1C
3DDB96B4
3E1F3034
3E0F0716
BD7CF29E
BE125046
3CFC12F0
3DBE7F68
3CA8A1E8
BC9DCD08
3B2E0480
3DE8A230
BBE7AD00
BD2C0D78
BE1D01E8
3E05153C
BD60A33C
3E1910DC
BDC8C4C2
3D47D7C0
3E171E2C
BE1B5A65
3D2D76E0
BDEA3EF8
3DCC0FC0
BD5EE34A
BD15AC50
3A80FB80
BDD6F918
BC8FA890
BDFCB754
3D7070C8
3DC877E0
BDD66BDA
BD9D355E
3C486F40
BE05B76C
3C49E660
BD99A83D
BD9BC7DD
3D7E2870
BD2319A6
3D741FDC
3D9DEBF4
BE1D8056
BD823368
3E0B5000
3D19F118
BDAE0338
BE10FB31
BD242BD4
3ADACB00
3D41B356
3DA0B62E
3D017688
3E7614F6
BE2795AA
3D587E16
BE055149
BD694BE4
BE0D83DC
3DCE435D
3E4921EB
BE2EE6AB
BE1FFD9E
3C9EBCB4
BD8267E6
BE18B89A
BE0D1730
3DDDAC95
BCA4A47B
3D934E78
3E9873F5
BCAE9C68
3DE026D0
3CE4E3D8
3DF1A400
BDEA8287
BDF3736B
3D6ACA11
BD86D945
3D425607
3DC24620
BDF7168A
3E34B619
3E238604
BDAA615E
BD67255E
BBA5FF40
BC3F7BE5
3D3163C4
BE202B58
3D5392D6
BD41C618
BE0EF5C4
3E169076
BDC8EADE
BD8FD833
BD924096
BE14AAB9
BD17B180
BB0A84C0
3D957576
BD920863
3DC1E650
BE2011AF
BDE54266
3E07C3EC
BDD8E14B
3DB19056
BE067AFC
BE0B7D84
BE317D3E
BBC52502
BDCF1E4E
3DDA5E54
3DCACD79
3D49FA05
3DC6DAB9
BD26BD78
3E140BE0
3DDAD4C3
BE1DDC2B
3D0ACB8F
BD044280
BDF00EFD
BDD95592
3C2707E0
BE216E9F
3DDBBCC4
BD6CD036
3E71FBA3
BDA8EBE2
BDBBFDD4
3CFB391F
BE154B15
3E44A6E8
3D87FC56
3E1EF332
3D235FFD
BDB6DAA2
BE25C5DC
BE1B8C67
3DE9A0E4
BDC4DE4F
BC1D358E
3D658DD0
BDD1052D
3DBABDCA
3DF50790
3DA72444
BDC53974
BD37D3D8
3D3D4489
BD845F16
3E3271B3
BD1E16F8
3E8CAA90
BE0DC2E6
BD89C9F2
BC3FBCF0
BD265E4C
BDBA514F
BD96D839
3DE874B7
BCA6AAE7
BE17F7DE
BE166060
3BA65B7E
BD85200F
BDE362AA
BD805504
3E35FEE5
BD8E2DBD
BCF79153
3D6085B4
BDF276A4
3D7FA448
3CA3E80B
BDAEF421
3DAE152E
BE17FBDD
3DE64744
3D7ECCB4
BE037D98
BDF865AA
BDBEE7D7
BDED4FA3
3CED8960
BDBDDDBF
BCED641A
BE329E4C
BD2077A0
3D842385
3CC1F790
BD057DA8
BE188ABD
3E27626D
BCAC1F1E
BDBD6D0A
3E10796E
BDEA5628
BE189C57
3E16DD55
3E0E84E2
3CE45578
BE001174
BD661D56
BDA0F27E
BDBACFBF
BD8522ED
BE2A270D
BD0ECFB3
3DC47288
BDC6EF69
BD7F3520
3E1010FD
3E35EA32
BDEECD6B
3CCBA4F0
3CE45A87
3A5C1D2B
3D818D4A
BD245ECE
3DF33BC0
BCB0DD8E
3D6858A1
BBBC6B64
BBB751F3
3CF71B82
3E79C959
3D9497AC
BDFC8B96
BD368655
3D01A0CD
3C136C52
3DFC27EE
3D13D2C9
3E68C801
BDBCDEE1
3DF35F2B
3CE30C6D
3D47B5FF
3DDA3F28
BDA40754
BE1298B7
3DEAAFB5
3E2C9ED7
3DFBEF9A
3E28AF8C
3E2CBC62
BBDF3FFD
BE809C5F
3E1C2EFD
BE23F67F
BD9E8DB9
3E0E9C11
3D550587
3C70E870
3E149EB6
BC5C2649
3D9A74D1
BE1700BA
3E0A6C17
3B0BB0D1
BD420869
3D00FC21
3D9608B5
3D5FACD2
3D8AF05C
3DA9B924
3E13FDFC
BCB1E1A0
3E04734D
BE0F7B8D
BDC6ABA0
3C599B40
3DE70298
3DDD7C3C
3E0DFE96
3D07AA28
BE1DA627
BE017CDC
3DFD1628
3CE1EED0
BD5DE346
3C566B60
BE0BFC0F
3E0C958C
3C8333E8
BE12378D
3D3054F4
3C9A2578
BDBFB91B
BDE97326
3E08C35A
3DBFAEBC
BCEA4068
3DDE5738
BDCCF00C
3DE16F58
BDF4A24C
BDDFFAC3
BDEF1118
3E177DEC
3C5ED150
3DDBBB68
3D5C08D0
BCB535E8
BE173283
3E0DAB0C
BDDEECA2
BD001640
BD81B121
BD5ED17C
3E199166
3CA5C180
3CD94458
3C9B0268
3CAAD128
BE1A90FC
3DED3C30
3E122C62
3DD11378
3C73DC90
BDE5A2D6
3DDB3480
3D24B2B0
3DDAC1C0
BCFADD70
BE037E74
3D8CF9E4
BD785A3E
BC66B050
3D8D700E
3B0F7780
BC7FCD50
3DEDBAD4
3DB535E4
3DEC2CE8
BC72B0F0
BD511DFA
BD822DC7
3D2F3268
3DF80E7C
3DFD05F0
3D04FDF4
BE15CB23
BE0138C1
BD4958BA
3CB1ADD0
3E19E158
3D252E54
BE1DF98A
BE03222E
3E20D580
BD635604
BD556096
3C8896C8
BDD17CA8
3D8252AA
3D9B810A
BDC7694D
3B1B60C0
BDE6E24E
3E250F28
3D57DEAC
BE042059
BDF8696D
BC951C08
3C789AA0
3DE7AA68
BDC523B9
3DE6C130
BDC134F7
BDAFEF8A
BD4AB0FE
BCA12FB8
BD9DE094
3E048424
3DB21554
3E1B2AF6
BE002500
3D9A70AE
BC5E6280
BE0F0988
BE05ADB9
3D268F78
3D632FC2
3CF7A837
BE1A4896
3DF3BC68
BE1DEF6E
3DA4FB18
BD945AF2
BE1E59F7
3E1EDE17
BCC583F5
BD09C9D1
BE064BDF
BD9A78FD
3E100F2A
BD23ACB9
BC6E75F0
BC903678
3CE109DD
BD7FBCDF
BDEDAE56
3E5B2738
3DF8D058
3B9ABF60
BD84E991
BD092870
3E448B84
BE3CC41E
BC57CDA5
3E3C0003
3E1EA9EF
BD670FF8
3E14D386
BE1FA119
3CC39D32
BE2ABE54
BE13B895
BE18CD2A
BD683835
3D3FB49C
BD305EFB
3DBAD376
BE06DD9E
BE4849A8
BDD83908
3DFCBD2D
BC44372E
3CAE9060
BACFF381
3DEB8C9C
3DDA0D1C
BD00CEF4
3D8490E0
3D7E3F61
BDAE2318
3D712610
BE1F39D4
3DB3E2C5
3E1476FB
BE2B5F78
3DD0A6B4
BCF0C44C
BDE6676A
BD8723DE
3D8C6EBA
BC801489
BD64A24C
3E91E64F
BDDE09CC
3C63C6EE
3C70A6A5
BC93A7D0
BD115B7E
3E074B54
3CF0CF66
3B4478CA
BE1D11A6
BD88161A
3E42248A
BDFD4BB4
3BFDECA9
BE0F138E
BD13C1BD
3E3999BC
3E1BC082
BD668C5C
BDE11AAA
3DFD0010
3CFB8A9C
BE5495D4
3E105377
BE1522FF
3D353B9C
3D9DD34D
3E04A121
3E03AD58
3D9424B4
3E18BB0A
BE28F2BA
3D2FEB98
3DEAC517
BC865AD2
BD85D3E5
BE2A5E10
BDF406E7
3D5EF188
BD3FBB94
BDDF6264
3D3825F0
3CB39EE0
3DC8F4C5
3E1D22A4
3D479666
3CE178EA
3E10D106
3D55CDAC
BE7EE604
BDA8BCC3
BCD99CC4
3DCBE57D
BD61FAA4
BDDA600E
BD2955A1
BE048B4C
BE29A7BE
BE029588
3E0AB0CD
3D043B69
BDBE859A
3D06B708
BE301BAE
BC8DF3A4
BC9F8C80
BE69AED9
BDE00FC2
3C359B60
BE083975
3DD8715C
BD4C1B98
BD38F5CE
BDED79E1
3D8D2E54
BE03B342
BD89C940
BC443230
BDD36EA3
3D97F0AC
3DF53E2E
3E0B66F6
3D7B0C00
3B93982A
BC8DC3C8
BC0BF892
3BE8BA06
3E0F4118
3DC8C096
BD4C9642
BE4F70BF
3D99C5F9
BDB9023B
3DBDCF16
3C41AD30
BDE5AF56
3CAEE788
3E01F70E
3DDF5241
3D7A0E2C
BCB2029F
3E105164
BE0DDFA0
3CC49B01
3DF2BAA8
BE148CDD
3DFBAFEE
3DF34E01
3D0EB2B5
BC4A2EC2
3D9A0EB5
BE1D30E0
3D9184A6
BC529320
BDF4A5A9
BD9367DB
BD7DF4C4
BE172E0F
3D7E45D0
3E41202E
3C4DB145
3D2D72A8
3D55E933
3DFA3382
BCA0ACCD
3E23B74C
BC49AF40
BD417BA2
BDB29C1C
BDC83D09
3E47A4E7
BD5802B8
3D252D1D
BCB9E1A3
3D2E5DD1
BE38BAD7
BDE565F7
3E0EFE93
3DF808FE
BB4201E7
3D8A5BE4
BDCAEB02
3E25D175
3D20C4CB
3D4691C8
BC23C427
BE07FE76
BD8C5971
3CD6C50E
3CF3829E
3CF62588
3E29858C
3B953B00
3DD2B1E0
BC17C020
BE04498E
3DFE4940
3DA50B07
3D443DF6
3DBD9C28
BDB247B1
BE27034B
BD97E9DA
3D667FD2
BE06F84E
3E0C7B22
BE3891DF
BD744BCB
BE188E46
3E08EBB8
BD95AEE8
3E232D1B
3C5A191D
3E241932
3DF6E490
BC8F5F9A
3DB10EF6
3DC62B14
BD54E9AA
3CAF4D68
BDEA6602
3D4E0D60
3E118B60
BD09262F
BD999A60
3D4E52D8
3DA56590
3B2556D4
BD81CEF0
3E16E2B4
BD481E40
3DD18994
BCC941B2
BE268235
BE00D753
BD8DEAFA
3DEAEB00
BD991468
BDE3DDB3
BD698A5E
BD8098D7
BDF4243C
BD30E616
3D7C4C99
BDE104A8
BD947341
3C7DDB85
3DFCC2F0
BE24F2C7
3D49DA64
3D414300
BD95F29E
3C5AB6C1
BDC5A97F
BD73BDE3
BDFCD8B1
BE2CE47C
BDAAD6C1
BE020EC1
3DC0909C
3DEAADA0
BD35481C
3E0894E7
BE3251F1
BDDA2B95
BE157BA0
3DB52B4A
3CA7DCBB
3CE05ADF
BD273649
BDE202CB
3D18FDC3
3C2AA78A
BE11E0A6
3E2A021A
BE1CCBA9
3E0001D6
BE1F6A5A
BD52082E
3DAEA218
BE009330
BDF4563C
3E0B3B12
BD91162F
BDD77E40
3DD2DA8C
3E1D94B8
3D62211E
3C15AB58
3CA4F6C9
3E01D7F2
BD546D0C
3E0AFCEE
BBAAFD8F
3DE8B59C
3CB85220
3E09CFB2
BB4DE1BA
BB2D08EC
BE0FC512
BDD2AE4B
3E1BF7B4
BDA28F40
BD048ACF
3D74C698
3E1AA6C0
3D34E3C0
3D9560C8
3D9916E0
3D1234CC
BE03C15E
BDC49C20
BDB67129
3E442F95
BD23761C
3E0A626C
3C946082
BCF8F3B0
BDE65D19
3C2378F6
3E1342DC
BD8BAE7B
BC9C2A90
3D88783F
BD4C68D3
3E01FD60
BDF0A185
3DEE3D9F
3E273943
3DE94BC0
3E63E92B
3E2434AA
BD911E6E
BE257FE8
BDAB9988
3D4E13D7
BDB287B0
BDFCD3C8
BDE1E0D6
3E292EB3
BDB92E70
3D4DB368
BDA31E74
BE270D5A
3D951D05
3E1D1268
3E1D2A78
BD7DBE4D
3E0B9E00
BE1426F9
BDD27081
3DC14044
3D1AFA7F
3D9FEA80
3C301251
BD94DA93
3D7CAAF8
3C6BF79D
3E0F4AC2
BDAB81B8
3DE10F70
BD84FE2A
3C8BA35C
BDFADEE0
BD70F422
3D5CAA1C
3D27E965
BCAAAC62
BE0868C6
3D329560
3C871CF5
3DE23468
3DB40FF0
3E106188
BE03BFBA
3E0BC1F8
3E198C88
3E251184
3DED39CD
3DB48EAB
BD46F74E
BE13934A
BDEAD8EC
BE182725
BDDE58A9
3E194D76
BE124175
BD7E6C3E
3DB03F64
3E049C8E
3E060E42
BD8AF49F
BDAF0F2E
BDF63A23
3C9FADDE
BE1783AB
BBBAF26E
BD858B1F
3E22F834
3B3D3CFF
BD68A099
3E45A40E
BDF0196A
3D39272D
BD9EDB50
3DD63B2B
BDF1E944
3D60837C
BD39C480
BDEB4041
BDBE886E
BE14BED6
3D3A9BB8
BE00C9FC
3E230420
3DA0B40C
3E251BA4
BC33FEA0
3E224E5C
BE33DC89
3D5975D5
3DAF6736
BDF737FB
BE1A2935
BDBDAA2B
3CDEACCD
3DA48B26
BDC1FB0A
BE119857
BCE143E0
BCA0DE2B
BE297EFD
BC8D7BD3
BDB442AC
BD269372
3DE7EDB5
3D7A70B2
BDBDF3A7
BDF85AF1
BE259E1C
3E7962CA
3DB2B0EC
3D4EDE6A
3E0D7CE0
3DF2547A
BDF14BF5
BB2E3780
3E22911A
3D89BF47
BDA94227
3E4B9A15
BD8B86CC
BD47C6E6
BB6ED580
3D697705
3E717DEF
3C7418D8
BCC7EFB0
BCCCEBB0
BDFB421E
3E16B6F4
3E1DC85C
3D2FE9C2
BCAC3878
BE2EC64D
BE1A00D2
3D32F6CB
3DBBB860
BE00AB6E
3D72071B
3C7A5A43
BC54C990
BD4F01F8
BE245EAC
BDAD83AD
3E07E4DC
BE27D29E
3E0F9B36
3DCE47F3
BDD49AF9
3E1110CF
3DB12D10
3DB6F582
BBE9B1F1
BD2C08F7
BD9A3CB0
BD8700F3
3CF7D6D1
BB1000D4
BD8989D5
BD7D6CD8
3D26B3B9
BCA8C7A9
BDB8DEA1
BDB4888A
BD02D3DF
3E4A9682
BDCA86CA
3DB11AEC
3E1E205B
3D358357
3DDC712E
BDC8AC9E
BDD4AA26
BBBC451F
3E1802BD
3D7078DC
BDC154B8
3E300083
3DB50424
BE2C3C06
3E15B92F
BCBCE296
BE297303
BC8FDBCC
3C39344D
3DAE623A
BD9D9200
3E1867F3
3DC3F6CC
3D5F8144
3DB2C812
BDC3165F
3D92D752
3DCBDEB7
BE08680D
BD60C882
3C811EDE
3DC91884
3D7AB078
3C00C4C0
3D470FDB
3D928FBB
3D81A4E7
BD9FF24A
3D038A26
BDBB669E
BE2B28E7
3D0DDA09
3D17BD33
BE1E6334
BC814990
3E543B02
BE1F1CDF
3E2E6106
BDEB0D31
3D3030A8
3DDC2E47
3DBE9FCD
3BF45580
3E25A60A
BDB55CA2
3D30B45F
BDA05B78
3AC04C2A
3D8DACE3
3C3F8A40
BDA0BC63
BE00C2C9
3E0F518D
3D12CDC1
3D32BC30
BC5C4202
3E0A3015
3D5E0D58
BE19200A
BDC1C633
3E1141A3
3C4CE9D3
3C8B4290
BD809039
3D8C9C5B
BE07FE08
3D05AC05
3D7482DA
3DA8013C
BE05181B
BD27C756
3D01D9CC
BD86507D
3D507F84
3E288B8A
3D1E7817
3D98F254
3D1159A8
BCF3D6C8
3E9FC965
BB0E5A49
BBF68006
3DDB2084
BD73A934
3E009371
BDFB28B0
3E0625D6
BE0163E7
BE20DA21
BDAD9914
BCC293D8
3D5F3948
BCA9052E
3E6DFEF5
BD9DF0BE
BDE0BBC0
3DFDE2FE
3E2D5D4A
3D9A1568
3D95BEF2
3E7EDAC5
3E45E2F8
BDBDF7F3
3E37CC97
BCA9B5F7
BE05E78C
BE1929CF
BE16D747
BD51580E
3E132DE7
BD63B499
3DD70F10
3E219A8B
BD054322
BCCFBA01
BE4B790D
BDEEEA5A
BE4C38F5
3DEC583E
BD8E8DB7
BCE2FAB5
3DB8814C
3DECB397
3DE18EE3
3DA6BC6D
BE12B85B
3C361073
BE907DE5
3D5311E1
3DED8713
3E3C205A
BDC82D4E
3E594CB2
3CB4A450
3CC90760
BDFEB094
3D80FE5E
3DC0D974
BC08F612
BDD6DEB5
BE1E31C5
BE08C644
BE2AC105
BCA877FB
3DD25D30
3DEE05F6
3BD16EE0
BD1BFE5C
BC86E781
3D3C2E89
BD011B90
3D5EAC94
BB6D396B
3D2AAF9B
BC6C71C0
BDA83AC3
BD8A6981
BC765DBE
3E0630D6
BCD9F3CA
3C566015
3E09F66A
3E05A846
BDFC6C0C
3E478F79
BDCDB5DF
3E1465FA
BA9F2C27
3C98A1D1
3C9F08C0
BD987060
3D253AA3
3CFF645E
BD8878D2
BD707E0C
3D81B22C
BD083154
BDDE7B9B
BDD00114
BDD8AAAA
3DA6A2FE
BE633DC2
BD571B0E
3CEE426C
BD07A2F8
BDDA7136
3E4C549C
BE930490
3D2E2BC4
3D870592
BD4942EC
BCB50ABB
3E241A2C
3E150E8E
3DD925C4
3E18B4C2
BE0BD28B
BE05C6FF
3DF9BA10
BCEF0864
BDFE65EC
BC64835F
BD5959BE
3DD58EB8
3C04DD53
3B62BB4A
3CBEF750
3B76B3D7
3DA0AAC0
BC38F0CF
3DEF18CF
BD8631D6
3DA325A1
3DFDB564
3DE47E50
3DD815F4
BE19D227
3DABC2A8
3E00C822
3E0EDAFE
BD9632BC
3D210365
3AB050DB
BDB18F25
3E1B9B9E
BE29B826
BDE1D307
3EBD4E56
BE1F65A7
BE842DB0
BDA9EB38
BAE75882
BD903989
3BCA2960
BE0B5475
3DF9291B
3E06C740
BDD4103E
BD9D12B6
BE82B086
BDDBAD2D
BCFDAB97
BD845212
3DBFADF0
BD1E91B4
3C851720
BD8F2879
3DE49520
BDB9CF12
3E876A48
BDA7123F
3CC1A818
BD0E1250
3DB210C8
3DCD1B58
3E0FA91A
3D7317C8
3CFE3398
3E068A68
3C830D70
BD008738
3D996858
3DB1B9B0
3DE3B890
BC87D5E8
BCC225E0
3E0054AE
BE16933A
BE22810B
3DEA582C
3E213786
BDAF0259
39929A00
BE0C8737
3DAEE9B8
BD6FAFFE
BE1F6ED8
BDFC1B96
BD8AE2F5
BDAF3C83
BD42169E
3DE16C80
3D6D9BB8
3E0A0592
BE135A6A
3E1DFAAE
BD6FC45E
3DC960E8
3E21E868
BD7C7498
BE08105A
3D2A28FC
3CE157D8
3D75F0C8
BC820B58
3E1AD36A
BAAB8600
BDAD30BF
BE14FCA8
BD9C9735
3E12C036
3DEA5C44
3D277CE8
3DE96414
BD407BBE
BD26F858
BC5C9280
BC89A770
BE2761DD
BE0D3A94
3E011AC6
BBEA9FE0
BC81C0F8
BDBA1D39
BC247F70
3DD9E338
BDCF4374
3DEE6E50
3D703C00
BDBF8328
3CB427F0
BDE62384
3DB446E0
BDB43700
3D0D1794
BD7DDE16
3E10B6B2
BD392FA6
3E240B78
3D660384
BD771F1C
BDC8319A
BBD474A0
BE0C9F2E
3D168740
3DE40F24
3DC2954C
BE22AEF3
3C895EC8
3BAED2C0
BE15D51C
BE056546
BDF478D4
3DAC263E
BE0FF9FE
BDE510FE
BDEB368E
3D844448
BD0F3D5C
3D0AFE84
BE101801
BB72CB80
BE234E15
BD8616DE
BE1C0123
BD8EEB0F
3C25A240
3DB07450
BD31EE84
BCEFFF68
BC871DD8
BDD51366
3E1F52BE
3D8CA6F2
BE13A7E6
3DAA3D66
3E298B74
3E27B3FD
3DB3C970
3DB7CD10
BD94078C
3D9F586F
3E0A5C19
BD2646C0
3DCD2925
3D963364
BDE0AEE8
3C30B389
3C0001D0
BE203786
3DA2D0AE
BBE665EF
3D93FC18
3D542F79
BE2CADD8
3D97FABE
BDA552C5
BD39C034
BDA93DBA
3E33E98C
3E09F36C
BE5DC589
BDC89DA8
BD6D2FF2
3DBBA5B4
BD22209C
BDAE3A58
BD9F6D70
BE02D302
BCD9C738
BC8A9C7D
3D8B1E82
BC43CC88
3D29B876
BD361B72
3E16C57F
3DADEFCE
3E9917A9
3DCFB2B5
3DA5AF18
BC496E49
BE3242CA
3D0CEBB8
BDAD7783
3D5EE320
3DD37802
BE0D7604
BC224860
BDAD2CD2
BE1394B6
3D52EB58
3DF38F11
BD3E71B2
BDA6AF8E
3D39F177
BBAE4891
3D2DEF00
3D2F8D8B
BCA545A2
BD758C0E
BE0D5AA6
BD042C4D
3DD22296
BDABE839
3CD67BB2
BD5BB9F8
BE2A6C29
3D927544
BE1A413B
BE38FDD4
BDF99750
3E3F46C0
3D2490B3
3DBFB37C
3E62FB5D
BE02AE21
3E09BAF9
BDFC2C1D
BCFE8AE5
BC99D242
3E35EE88
3DAE4637
3D4D2A87
BDA58F76
BC9E0621
BD86FE73
3CAC55CB
3D14DF5C
3CAA8F97
3E226D44
3D6C3AA3
BDBFD2D2
BE1CD343
3E23A132
3DC0607B
BDF843BD
3DAE0EEB
BD9067B3
BE077B1A
3DC77CA0
3E1BD0C6
BD946610
BCB8C602
3D093758
3D8FE6A0
BDBC6827
BD0B1977
3E0256CE
3E28FDB7
BE030580
B850455B
3DD54DC6
BE0910A1
BC096732
3E051C51
BD9B135E
BD9D6298
BE17E795
3E10E467
3DFFB8B0
BCB5E8A0
BDDDBEFC
BE052843
3E297A5F
3DCB36CC
3D307A11
BC8FC170
BE13345F
3D170544
BD846131
BE083E0A
BDAD7DD2
BDA1B3BB
BDF4D21C
3D0ABD44
3E128690
3DC47B90
BDC86BB6
BD6112EE
3D502038
3CB00A08
BCD390B8
3DB4EC42
BD1BB7DC
3CDB60F0
BDCC6B2E
3D5042F4
3E1A9642
BD36A26C
BE359F42
3CD0A735
3C9AAF80
BDB14FAE
BDA594DA
BD25D912
3E07CBC0
BD0BC4D4
BDA18051
3D0482E1
3CB3B801
3C93FC78
3E07F7B0
BD43D209
BE2FF742
BDEDF529
3E0A16F0
BE08D252
BD605C68
399E72FF
BD85FAAF
3D0389E4
3DDA9C72
3DFBE9C0
3E66942E
3E000140
3D524659
3DF9EA67
BE09229D
3CC93C71
BE3F0555
BD879B09
3D8AF914
BE306360
3D8368B5
BD53428C
BC874230
BDF22A51
3D80A0A9
BE08DA9E
BE190510
3E17D340
BE34B3D5
BCC34DA7
3D8D40A9
BE032E7F
BDF227C9
BD5FF401
3C5AECE0
BDD4432C
BE156080
BE027700
BE05DDBD
3C324410
BE093FC1
BD6999D8
3E27C3CC
BE169996
3CC2DD32
BD221421
BCE1BB30
BD9B2530
3DEFF10C
3E107282
BDB7A4AA
3D832ABA
3E0B3C37
3D0AE21C
3D8C6A0E
3D5026D4
BDE53C2E
BE07885D
BE013C72
BC2E200F
3E0B6BB5
BDD6B7FA
BD794790
BDFB5628
3E294E8A
BE25E274
BE137097
3DD032AB
3E0A1DCB
3E1DA72A
BD8709D9
3D7D3BEF
3D9C00E6
3B5B4FC0
BDD5EB1B
BE0F2BE8
BE087009
BE0D6C3B
BC723CE0
3E4F740F
BD8BE525
3DEA0B7F
3BCA34BA
BD126D93
3D90A96E
3E124528
BE27DC55
BD32D082
BDC9BDC1
3DDF5B44
3D8AC85C
3CAE25E1
3DDF74E8
BD875ECC
3CAA3CE6
3D992598
3E1D8456
3D11337C
3D37E8CE
BDCF56EC
3D4244BC
3E2702B5
BBD77E90
BDE5AF22
3D519DF8
BE0BC818
3E4FB027
3D963FD0
3DBC6DA7
3C9D6F08
3D1EEF46
BDB428D4
BD864792
3E0C0AA0
BD4E0E4F
BD5944FB
3E12C6A2
3BDEBADE
3B6B5C09
3DB119BA
3DBFC4ED
3D00A038
BDF0A95E
3E01855B
3C4F25A9
BD75BF8A
3E2A77EB
BB82728D
3DA0015D
3D7C0DC8
3E0CBAAB
BE279735
3B26251C
3D9421D6
3D1E9060
BE709C6F
3D5AF725
3DE82839
3E7D8F8A
BD2AF731
3E0C2C88
3D85E606
BE34A63F
BDC4E0CB
BDB77842
3E0B64C5
BDAC2B78
BE036001
3C34F320
BD575D58
3D525427
3CA4FB79
BDCD3D3C
BCD011D7
BE86E46A
3E149465
3CE9EF61
BC84976C
BBAE8A69
3E11DA23
BDB2D41D
BD3C79BC
BD7217A8
BDEE6863
BE03E8BD
BDD2FCE0
BD848E5E
BE2107D4
3D8CC742
3DF02548
BDC90C9C
BD82EB61
3D97BD68
3D2B1DDC
BE24481A
3DC1D818
3D9E9A97
BE2541B2
BE260BA0
BC8D5771
3D944B1D
BD9C544A
BE0D9717
BE1544BF
3E0963C6
BE1008C6
3DA09940
BDFB471B
3C6EE280
3CD7CC18
BB069140
BC957D79
BDF32848
3E0D7102
3D6BD6EE
BD9D0031
3C7F0400
BCF1C720
BDBF559B
3DCADEA7
3D622B24
BB7FA1C0
3E1942A0
BDA30E5E
BDF5D43A
3D9C7CA2
3B1E350B
3E17EE5A
BD22B310
BD709CC6
BE04F7BE
BB4284A1
3C828E60
BE1DF2F7
3CD433CD
3E23414C
BDB4D0D8
BD609ABA
3DDD7FB4
3D7CECA7
3DE83531
BE178141
BDCB9283
BDD8E45A
BDEF7263
3C8DC3B8
BD9E7BE9
3D5CEB7C
3E1BC9F6
BDEBEFE4
BC6E6164
BDF3211F
BDD3490E
3DF9CB14
3D866966
BDEAA026
3DB966BD
3D72FD64
3DC0CA5A
3DF2B2DB
3C56BD3B
3C5CA910
3D90B259
BCA413F7
3D6024BD
3DC2DA80
3D788BA0
BE267A3F
BD621F8C
3DFFA8D3
BDC48014
3E139739
BD9A04AA
3C649F6C
BCC01D24
3D4247F5
3B6A4917
BD651327
3DFAEF24
3D44D12B
BCDE47F8
BE0D6FCA
BE03971A
3E2117A4
BDE261AA
BDCAD67F
BE1C9539
3DA4B4CF
BD11768A
3E00B7CB
3DA7F70A
BD262B33
3E16C0FA
BDA25420
3D0F1A4C
3DEB5FF6
3DB2B6FE
3E102298
BDE913D6
3DE4057A
BDDA6176
3E1F5DC3
3C1A7F56
BCB5D0DD
3E2AB787
BDA285A2
3CF333B6
3D8FAAD4
3E0B9CFD
BD9407A9
BD9D9DC9
3D9A5D4F
BE122D26
BE154160
BD4F4130
BD61CFB6
BCC021AB
BD94E943
BD5EB293
BE0A2591
BDC97334
BE03E54D
BC22C820
3C5EA94E
3DA4E097
BD03A448
BC61F636
3E18CAB4
3DD30408
BE0D5AD5
BDC07B59
BC141CB5
BE1406EE
3E14ECD8
3C73A030
BDE741EE
3DBFCBB0
3D8329A4
3DAE310C
BDA9ECF0
3E4FF528
3E0B3360
BDE40B74
BD517066
BAB29E00
3DFE29CF
BDD039C9
BD073428
BE225B59
3E0C396A
3DCD4CAB
3DA4B489
3C8AFA29
3DDB71BC
3E3879A9
BE06416C
3C4CBD0C
BC967AD8
BDC09D40
BE31EB1A
BE1F0B63
BDA8F28A
3D1ED24E
3E297D58
3E29E3FE
3DC57414
3E611CFE
BE061F6F
BD8996BD
3E37A528
3D017DFE
BE41D78B
3D543329
3D1EF20C
BE4077D0
BE6022A0
3DB2FF8C
BDC7B0D0
BD0653B0
BE23F97B
BD2B6BB9
BE0E91FF
3DB67282
BE1553C2
3BE02818
3D85346B
BDCE1731
3E2EBE55
3BD6439C
3EA19E6E
3DAAAE78
3DA976AD
3D0C7064
BE003685
3CEDA9FD
BD94E013
BE202C97
BE110628
3DD207A7
3E1BCEDF
BD054E95
3D86A5DD
3D1B2E38
3DCA0ABC
3E17A7A8
3D951E7E
3E0CC148
BDBF3EE4
BDFEBB43
3DA4648A
BE0A5A30
3DE1139A
3E10580C
3E2A8BD8
BDD1E933
3D403A07
BDA28E3A
3E254B76
3E623CFB
3DA58B4C
BC97C9C1
BDD0D597
BE0464EC
3E0298B2
3DF11FB8
BDA81E4E
BDC577C3
3CDDCAA2
BC582E86
3E0B62DE
3E884272
3E04B26C
BE0652EE
3D6C3950
BBEC7BC0
3CC14F01
BDA867BF
B983B871
3E1A7041
BCF65640
BDB3BF0E
BD882808
BE15EA34
3D157FAC
BD0496A5
3D82C1D6
BDB4245D
3DA1DE32
BDFA5FAB
BDBEF668
BDA3C29B
3DE64C00
BBD084A2
3E052B2E
BD68E187
BE291D4F
3E1F2DD4
BDB1D3B9
BCADD071
3D51C520
BD9A4435
BDFB9863
BE0CD3F8
3DDC6206
BB51B635
BE1BC17E
BE0A9C56
BD405C20
BD3DD5BF
BB428D80
3D223EC8
BDA748A9
3DE4A5F8
3D15B777
3DE75481
3DA770D6
3DD26046
BDEE3A8E
BE3FE96E
3DC7E257
BDDB0E00
3E5BC9FE
3E12A02F
BE5B98DE
BC0D1430
3DE7CD04
3DCA6823
3E595F5D
3C07D70F
3ADF3800
3DE5F4E0
BE4844B2
BE003974
BDB4E37A
BC0CDFC9
BE0DB3F5
BE7AB626
BE45555D
BCB2076E
3E421A1A
BD95D2AB
3D0D7188
BDACFD12
BD8014A0
3D82C5B8
3C7E5C22
BD4CA709
BDA50048
3DE59CFC
BD313912
BD94A65B
3D46F705
3D1DA580
3D514AAA
3DA37F72
BE978C32
BB8C3BE0
BC89CCA8
BDE72BBB
BDF26EA6
3E4FD489
3DC4AF41
BDD5AAC1
BDF5A9EB
BE113CC7
3D3D5E84
BD888870
BDC73D5B
3E05B252
3D917E3C
3E5CE480
3E396C24
BE6E9278
BE088BC2
3DA6843A
3E473255
BE0D3EA6
BE0A6406
BD6A7472
BD0C944A
3CA169C9
3D7F139C
3E83FB40
3C8B0AE8
3D5D2070
3BDE0C80
3DCFBD74
3E51E68E
BC3FDF5F
3C86575E
3C587853
BD26842F
BDB7B31C
BD2EA1BA
3D11E03B
BE0B0936
BC76C044
BE025D31
3DBC0138
3E941FD4
3CF1C4D8
BCE3BD40
BDC6C00D
3E19CD6E
3E16A8BD
3E26B9BC
3E84A29D
BE857B15
BD97EA6B
BE49E30B
3D1919BE
3D757284
BDFAB176
BBB6B080
3D76FF46
3DDA3B8F
3E0B1C5B
BD2A4ED4
BE1847E1
BDDF76C2
3C801366
BD2467BA
3D6EB72F
3D1AF51F
3B626F80
BDF68E4C
BDC4B069
3D33F801
BE0BE11E
BD7F5AFA
BE999212
BD76941F
3E51EC93
3E4CDDD0
3D5F6E63
BC588FF6
BE6F2B87
BE20C571
3E127685
3E87DFF0
3DC277E6
3CB176E8
3DCC56BC
BE2EFBCB
BC2335B9
3D80A594
3C1BD6F2
3D6CC130
3D310829
BE41D141
BE00B916
3E5EC1E7
3DA90DA1
3D9D088A
3DDDA98C
3DFA1688
3D8AB36A
BD461479
3D89C4CE
BDB18A40
3D7645D8
BCDC2ABF
3DE4913F
3D97B838
BE5A9030
BDADD715
BD258920
BE82DE0B
3E268844
BDE44445
BE0036A8
BDF913F6
BDB6F85E
BE06BF45
3E005963
BD81C46C
3D0EDA98
3E7F82DF
BC330CB9
3D6D7E6C
BE24BF90
BC080460
3D91E942
3E4C4BB5
3BF42F9B
3D2F74BE
3E0198B6
BD415A6E
BCB25EDF
3D2F8724
3DE1BB38
BDFD6E17
BD8E09AC
BDE1C932
3EE89519
BDEFB200
BDEC9247
3E15684C
BE191F09
BE02283A
BDDB3F18
BE1503C9
BE227FBB
BE18A96C
3DA9A0F0
3C384B40
BE01C82C
BE05A840
BDCFEC75
BDB94650
3DA70334
3DCD616D
BDDA1C06
BD22E95E
BCBD8E68
3D7A000C
BDB8DA8A
BC31B8F0
3DC18633
BDA59BEF
BD5A94DA
BDA188B1
3DCAFCDF
3E1076FE
BDAC2697
BDDB74FC
3DBA2A01
BDDE32CF
3DD532E6
BC9AB208
3D16427D
BE3113A7
3DD48909
3D6267C4
BD48823D
BCFA73B8
3D98E114
3DB621C0
3B20053C
BDF5405C
3E33814C
BC36F730
3DC4D8C1
3D0CD6D5
3E45C568
3DDCAA6A
BDDC9080
BD856327
3D533680
BE15066F
BE205084
BE30A4B6
BDA05FDD
3E948E71
BE1E4D26
BDE12503
3CF87CB8
BDCDD3E0
3DAFE8F8
BDB0A9BA
BD420ACB
BDDD1EC1
BE066D42
BDAAF90A
3E120918
BDC88942
3E0A2278
BDA33187
BDB7C4B4
3C29DF35
3D6E48ED
BDD02012
BDFDC718
3DD0774E
3C302057
BDCDFA91
3DB769F3
BDD3850C
3C74AD90
BE079859
BC49AEE0
BE0A5D00
399B3600
BE3ED91B
3DE92A9C
3B840225
3E3314D0
BD5B8D1B
3DF43710
BD1DC5F5
BD3A260B
3DDB71D5
BA80A89F
3D830552
BE0E66C2
3BA81FEC
3DF8E673
BE255B79
3DFC7834
3DEEEAF6
3DB3B47A
3D96F938
BD6013A8
BE26A4B6
3E1FDE8D
BC983A10
BD809F3E
BE099FB6
BE16E2B7
3E11DD8F
BDE7D30E
3E4CB330
3DC379EB
BC4B878A
BDA0667C
3E243F09
3DB56758
BE10EC79
3D5CF960
3C67CCF6
BCDC5133
3DC8CEF0
3E0059BE
3DE5509D
3E0717E4
BD7AB12C
3DCEEA7A
3D1A802C
BD03FCD9
BD553B66
BE29F201
BE252B46
BD12A9E8
3D590C89
BDED29EA
3DEA88A0
BE117FDC
3BF5ABA0
3E41A59D
BD31EFBF
3D112EA8
3C1A8D20
BE0D9D6C
BB6C0353
BE18D9D0
BDAC3015
3D355075
BDE5714F
3D275D14
3E0700FE
3D220AAB
BC7E6372
3E2EBDDB
3E11D99A
3D3ECA17
3DCA8977
BE0A88D1
BDEDD6AC
3D5A13BD
3D08FA3B
3BE6D4D5
BCB76300
3E0977B2
3E0F2DBD
3DC7F618
3CA18023
BDC19735
BE7658F3
BE1ABEB2
BE05FBB4
3E8E38D7
BDF0D19A
3DE5E945
3D35176B
BC3AF692
3E1718A6
3D9E37F8
3E39DB60
3DF5A569
3DACA8EE
3D8AFBD6
BDE35068
3B3FECA9
3D2BE00C
BDB2CB13
BDB55D49
3D22F559
3E402378
BE0CF595
BDF0A944
BD3000BE
3C3712F1
BDAC692E
BDC36410
BC3D82F0
3DD734E5
BD98B039
BB25B942
BE1C28F0
3BF439C1
BCB31748
3D4774B4
3BD53896
BE22A9FD
BCD782D5
BDA93BEA
3E1E16AD
BDB7D21E
BE2842A9
BD06F668
BD120718
3DCF01EB
398A9CC6
3DC54878
BD025034
BD650F3F
3D4C7A1F
3D8CF7E8
BDB52DD4
BDB283E7
3DCF9CCA
3D55C228
3DD5E474
3E0D8F28
3E214EE6
BB0B4F90
3E17A253
3D14EA51
BD0E5F10
3DA70E66
BD049A8F
BDE83CBB
3E22BDC7
BD9AE661
3E0DE47E
3DECE50A
BE1F3B1E
3E1DB884
3E181738
BE0FECB7
3C0EF141
3D29AA6C
BDCA7B1A
3B8FA2CA
BE12425D
BDB15B0F
3D765EB4
BDC08CAE
3D2C9AF4
BCF07110
BD9ED832
3DEF0AE1
3DEC3C66
BDEF7145
BD252EC3
BDBB5341
BD7DB9E4
BDC99B18
BE31DC01
BE1CE0FE
BDFA8743
BDBA10B0
3E1AFEB2
3D772E8F
BD455037
3CF20370
3CE47BDD
BD3107F2
3C9475E7
3DD4FFA9
BE17B2EE
3E3CD042
BC725CA1
3D35AAC4
BDDA7D10
3E34928F
BE08630A
BD005DDB
BDB1F492
3DED78D9
3CAACC64
3DDF1143
BDB0727C
3C152666
BDE1BF41
3D60CF1E
3D1CD700
BE4C50CD
BE038AE0
BD7E9C14
3CBB89FC
3D7F5617
3D97D90C
3E2C4F36
BE249B98
3E27A8E2
39C2FC00
BD210B3E
BD8B9B21
3DD3CD3D
3CAC0E20
BD8BBC54
3DB4C9CD
BD92EDA6
BDEDD6D8
BE0CA321
BDAFF3D0
3D82D8DD
BD1FC88B
BD991A50
BDF52FAE
BCD7FCB8
3E07031E
BDF21568
BD4A505E
3DDBF010
BE2F1E3D
3D92D608
3D839DA2
BDA3FC06
BD3D79E8
BE0EC183
BE0BC4CD
BD9A61B3
BD5913CF
3CF1F6C0
BE04E868
3DC8B48F
3EB904C0
3D360F2C
3DF25039
3E20ABC0
BCA55418
3CC69E48
3E0FB5CC
BCAEC231
3DF0C4C8
3D86CE01
BD9AD50B
BCD28DE8
BDDD88FA
BCF24610
BE0015AB
BD651A22
BD5BA856
3D92478A
3DB80BD4
BD9CB648
3DB74D64
BDAC1F98
BC70B900
BE067545
3DDE7D38
3D993FC2
3DE808F1
3E12FDD6
3DC2AD00
3D61D7CE
3DAAF7A9
3D150864
BDAA75F2
3DDDB168
3E758808
BE11CCFE
3D936F1A
3C8C2538
BDA2FCCA
BDC92CCD
3D941986
BD85772C
BDB4AD28
3E1DCB70
BD79D8EE
BE097258
BDE0BB4B
BE04A6C4
3E04E7DF
BD99EE68
3E13ED97
BA038A82
BDBCD0AB
BE0C8FA7
BCCCB791
BE04B601
3E073468
3D45F66C
BD9EDE32
BD8750ED
3CA7D967
BAE86885
3B8A7440
3DD056B8
3E0BBA02
BE5F706F
BD544786
BE19BFD8
3DB3B52F
3DDF49C3
BD448F90
BE4702DD
3CABEB0F
3DCAD13D
BCD84AD8
3D9A3A71
3E219E60
BE369687
3CC22915
BD049300
BE0747F8
BDFFB29F
3E0F2CBE
BE31D271
BDA46E87
3CB5A4B1
BC133990
3D7D2AEB
3D918ACC
3D909ED6
3DE28CD4
BE2A1CE0
BE3E2E38
BE3013C4
BE11573D
BD02C902
3DA39B7E
BDD065EA
3DEB373A
3CE24B0C
BD690A97
3DDB93FC
BC798231
3BA0AFA2
BDA171BB
BD7C634E
BD082118
BD37F919
BDBB80FA
BC5D6940
BE182936
BCFB13D9
3DD865B8
3E264C72
3C16BDEC
3D027C87
BD143E28
3C2F33AB
3E117CBA
3E06E859
BE1BC2A0
BDD6B5B9
BD2D5BC1
3CF4545C
BDD2E67E
BCE2BB90
BE7FFEAC
BDC78090
3D8549D8
3DA11FA4
3D70706C
3E2B5742
3E054A06
3DA214FC
3DEECCF7
3D6CFC90
3DF975CE
BE083598
3E1A2359
BDB39763
3D57E8B4
3DAF6182
BD563CCD
BD59BFD8
3E269F1A
3D9021D6
3DE8D76A
3E252C42
3D256124
3E24A7EC
3DB3F86D
BCC13FC8
3E2D235F
BE11473C
3D86FE05
BE0AB26A
BD2D6EE3
3D4E0DEB
3D3D9AF7
3E40934B
3D96052C
BD48B34E
BDAA94E8
3D6703C9
BDF2F863
BD2FDDAE
BD0957CC
3CCB6D08
BDC2E898
3D3655A0
3C8CA86F
BDC7C0DE
BE448504
3DB88FA2
3C6CAD30
BD375C0C
3D5626B4
BC60DCB9
BB4CC91A
BDF81845
3E12554A
BDBF0166
BDDE7164
3E4CFA0F
3D1499FC
3D90A615
3E175385
BE155195
BE0845B0
BDABFA2B
3DBA57A2
BDD6719A
3DD8B420
3D93AA08
3D81B8B3
BDB4C28F
BE1C5333
BE56FA2C
BD68465C
BE0D39A4
BD9E70FE
3CA77518
BDA7078B
BCA6A424
BDCF52A7
3D918F89
BDED5136
3BED3BBC
B8F94000
BE14B64A
3D873CDC
BDD90422
BE26409F
BE0D35F7
3D50CAD3
BE0F60CF
3C643417
BD7EEDB9
3E0C934C
BC7B9F09
BCDEBA14
BE091AE1
BC1E5240
3D8C45F4
BE480131
3BCC28A0
3DF38C52
3CBF5F3B
BD2BF108
BDE1F164
3E20FB3A
3C42D788
BE1E6B19
BCA6FF87
3DCC797E
BDCF6096
3D4E4558
3E008360
BD096A1F
3BFD7A0A
3C9FFCB3
3CD32520
BDC9A232
3E05795A
BD69360A
3CC91328
BE89031E
BD57B2C4
BCC7A82E
3E1AA6CC
3E0B912C
BDF646CF
3E071192
BE0313A7
3D9D3ACC
3C25F3C0
BE195490
BD0A9F98
BD6701F1
3D936044
BCD9D86E
BDC20FB4
3E1C5999
3C983B4D
BDD0BD79
3D2DD2FC
3C4E3140
BC995689
3E1D8C1C
3E4F303B
BBB08041
BBEFEA2B
BBE86059
3E111D62
3C92BDA4
3BFFAE2B
3E48FFD2
3DA80DF1
BE3495E5
3E92607E
BE423A2D
3D7737A8
3DFAA2AD
3B4A81DB
BE2BC788
3D1FA4F2
BE084CE6
BBE44823
3C85A1FF
3BCC1EF7
3DC8D2A0
3DF235A0
BDBE6891
BB50B35C
3D5205A5
BDDCA083
BC4018A1
BD197F7F
3DECEF9C
BE551026
3E03D04A
BD68D790
3E26D3F5
3C818ECE
BD24909A
3CE0EF4A
BBAD4A10
BE76C444
3E0CA104
3E20ECBA
3DD681DC
3CE9474E
BB817FA0
BDC67F7C
3E18852A
3D716068
3DF86759
3D9A2625
3E05A318
3E141240
3CDE8158
BE64D048
BD8CEC8E
BBC2EE66
3D6FCC34
3E11E76C
BD91948B
BE12CD40
BE03B5B0
3DA5A31A
3E1E4710
BC917F42
BDA6D315
BDFAF4AF
3D7F8774
3E417A63
3C2ABE35
BD75D372
BDAF37CA
3E183036
BD221346
3DED6693
BD43240C
BDA6B423
BD33F261
BCA13171
3DC30C46
BDAB821F
BE07565C
BDEDCBBC
