3D9F9D0E
BD61C31F
3D89B25F
BDC6D0D9
3D61B8EC
BD0A1DA8
BDD2A8EA
3D6F354C
3D7B03A0
3D090E30
BDF09606
3D9C97CA
BDCA03C3
3D7AF185
BC3BAF00
3DE03DA9
BD621BA4
BC0F0780
3DAB7926
BDC056A0
3D36FF60
3DB47E8C
BDB779A7
BD6AF459
BD2DD12B
3C004C8F
BDD436D4
3D481115
BD816524
BE12B2D4
3D8C61FE
3DB1E93E
3CE0E3C0
BE0540A5
3DAC498A
3D483865
BCB5AC50
3DAB90C2
BDC8E74D
BDC00CF0
3D74E692
3CD98EAA
BE13FA72
3BAE74C0
BD22EC2E
BD907265
3DB9E7E4
3C4F0360
BDE2BECB
3D3320F0
BDF9A308
3CC03100
BD697D62
BD1BE949
BDE4854C
BDC5B83C
BDDC2A02
BD6AD98B
3B3B3480
3B42D980
3D06D2B5
3D056542
BDB80433
BD6DFA78
3CD9C25D
BDC82AF5
BCA9F2E0
BC1AA733
3B3563CB
3DC2F504
3D4968DE
BD206F10
3DAFF2B0
BD30AA78
BDB06CE9
3DB6913B
3D8CD954
BD268670
3D772150
3D09A985
3DCFC47A
BD0664FE
3B913453
BD9F83E0
BDF67F5C
3C2A78A6
3D51EE8B
3DC49733
3D8B08D5
BE02537B
BDD7D98E
3D79F217
3D8BB492
3DB3B520
BE04738B
3D9DEEB1
BE06C38C
BD492DAF
BC6DDBA2
BDDFF464
BE098E52
3DA2A6CF
BDDC4997
3C6AB0E8
BD6B7143
3DB79192
3DC8C0F2
BD531C5D
BE0DC7BD
BDF043D8
BDA71C18
BD7E7440
3DD5A642
3D539870
3D32953C
BB948B40
3DCCDA8A
3DF60E85
3D9F6CE5
BDAC7540
BD45A5C9
BDC71B59
BDF299A9
BE02CD4F
3CC7EB8F
3DD23FC1
3C8613CC
3C4A8BAB
BCFA6162
BCD856A6
BDA7E393
3DD7F346
B9E785F7
BD82D127
3DFCCCA8
3D910464
3D83B3DC
BC435A70
3D5F3BD5
3D09E816
BDC81E37
BE0F10B9
3E006380
BE6AEB8E
BD5C1484
3DD8B920
3D971C45
3D1D8901
BD077458
3E8BA753
39AEEC2B
BDD99A26
3C300735
BC090D20
3BF3A3B5
3D2E591D
BB75B35F
3E0358D9
BDB330C6
3E06BA73
BD83BAAE
BDB7FA64
3CE57CE3
BD8DB38C
BC00703C
3DEA64EE
3D9401B0
BDBF67DC
BDE05FF2
3DF4013C
BDB3B14E
3E1773F0
3E20FB07
3B424D1B
BD0E41F0
BD83020F
3C87C68A
3D865427
BCE4B455
BD59E510
BB22C86C
3E3EB9B2
3DBE3A29
3DDEFDB2
3E3ACEC1
3BF87F1A
BC7931A1
3D0A17DA
3C2F09F5
3C53E2BA
BE749DD8
BD87C919
3C53A526
BCEFC551
3DD79899
BE3F635E
BD615BD3
BCC7B498
3D47F819
BC9942D0
3B4DAE00
3E67A0BA
3E1D770F
BD6758D7
3D9933CF
BDDC2BB8
3DFD53E0
3D2E53A9
3E333591
BD2371A1
3C2E8025
3E402508
3E3DF30E
3DAE8DF0
3CD91B9E
3DCC7E70
BB89BB93
3C8B4211
3DC4974D
3E4A6EDC
3BD5B4B8
BCA87047
BE00D67E
BDBCABD1
3BB3D64E
3DBEF633
3CEB4993
BCAB1686
3C1D83DD
BE556597
BDFB8E9E
3DCB7289
3DA774A3
BD678776
BB5014D3
3DA426EB
BE596F18
3C3A23E3
3DA551B5
3C93AB88
BE25C123
BD9159B4
3DDFE80A
BE181F5B
BD520A33
3CB2C1A0
BDE3AE92
BE0FF9B7
BC8A78FC
3DED1419
BD9D6EE4
3D16D991
B90C64E1
BD6A27D3
BD96686D
BD855FD2
BDBF0420
BE2D635B
3D93A924
3D8456CE
BA9E9D6C
3D44C72A
3D8EAC3D
3D747F15
BE1199C3
3D074213
3D0E04DC
BE286199
3E01A57A
3D94D9D8
BCC2E47D
BD7D3E79
BE052715
BE30C5F0
3CFF6CAB
BDFE6BC6
BD9EEEF0
BD7326C1
BC42097E
3CACD736
3D861A06
3D1FD8F7
3D1A7894
3E0B36C7
BC824620
BC571542
3D0B8C96
BCD9C4C7
3E293B29
BD29FD92
3D051409
BE1CE5EB
BD218DB0
BE17D8A5
3DB193C7
BDC1F5EA
BB84D26A
3C2EEB81
3CF2B250
BE5124AE
BDD7EF61
3DFFA818
BD20842C
3E6C8F58
BDA2E5E6
BD3C3372
BD2375BA
BE1274D1
B9461FE6
3DE3CAB6
3CF83EBA
BBA5BACE
3D3C5215
3DBFD765
BE4B29A6
3B916687
3DA26198
3C2CA2DC
3CA25B40
3DAD7437
3D88561D
3B98C33A
BD7AD682
BE089512
3D884C6A
3D2BFDA6
BDE65B43
3DCBB4C5
BE1207A9
BDD9585C
BE2D20CF
3C513BAB
BCC41AD2
BDE0E971
3C964426
3DB91063
BE4F6FCB
3D88B234
3E04778B
BCF99582
BDA10622
3C5B42D8
BE7C6929
BD476FC0
BE083A14
BD71F0E7
3DD22451
BB010054
BC1C7FB5
BDF77777
3E476F37
BC902B3A
3DEA861D
BD14FEA8
BE3FC12F
BDF3F32A
3D149AEC
3D564594
3C80EC6D
BD858908
39D582BE
3DEC73BC
3DE30E8A
3DB0206A
BD6E9130
BD9E7F80
3DBFD6BE
BE3D0A52
3E0A9CB1
3E0A6AE3
BDF8C33F
BDB8E63A
3B521915
BD981F14
3D141027
3DAD1B3C
BDDB8996
BB0576A6
BE1023D6
BDFE023C
3D01CCA3
3B5B9FB4
3BC91374
BD4556F4
BD2C8EAD
3D624326
3CD4562A
BC643259
BD11E60F
BD129E30
BE0D2AEF
3D98DCCB
BC500FAC
3D4E441C
BDF6CF64
BCF5A299
BDF06DC1
3E43E84A
3DF32BB0
BD7AB6C1
3D434CDA
BB7315A3
BCE6624C
BC696613
BCDB39D0
BCC63DA5
BD68DC35
3D9B2B66
3DBF2109
3DA4B04E
3D4E89A6
BE06C8BD
BDDAD33C
3C465616
BDD7BFA3
3DB9BD45
BDF08026
BD18E0A9
BDF5030E
BE16A09E
BBDB8000
BDE1A8AB
3D9DA780
BB83EA40
3D1B90A0
BCDE1D37
BDA7B510
3CDD251C
BDC85A31
3C8C74BA
3CF4008B
BC6A2704
3C175062
38837605
BD35C8A8
BD989940
BE209AE0
BCDD1B0E
3C15E7CB
BD78F88B
3CFD9744
BD9E4199
BDD1918C
BC6EE05B
BE0B68C3
BC8B87AC
BD227F47
BE08C02C
BD3EEC08
BC4620E1
BD9EBACD
BE15DFC4
BE1C3303
BDDBE4BE
3DDA5C3C
BDA516F9
3DFF3FE4
3D83EEB3
3DAFCA22
3D804291
BD3EF0EA
3D089FB0
3DEB568A
BD08C4D0
3DD078A5
BDF459A9
BD9E0675
BBE05E34
BDF9D3F6
BD783093
BD462679
BD98F3DD
BE0AB11C
BDA0573A
BDFF232A
3DC2758F
BD81AAF0
BCD3C3DF
BDDCB042
3DDCE420
BE15B8E9
3D912686
3D2E3E3F
3E064F2D
3D8F1344
3DB981DC
BC9CC8DC
3D7FBD7B
3DB2BF7E
BD6D4C63
BDFAAB70
BE1B4C07
3B987DB5
3B728380
3D811CF8
3D8C230C
BE0CEC95
3D8BAFB7
3D721745
BD5F646F
BD90C309
BC0E5A6D
3D610DC9
BD40D371
BDB35734
3DE762B0
BD80E97E
BDA3103D
39CFBC2D
BD9517B4
BD0C2FEE
3D3A0214
BE031404
3E0B671B
3E0CD460
3E1FB9EA
3C367B6C
3D97EF03
3D536BAB
3E0CD65E
3DEE827C
3CA601FE
BCCF4F72
BDED7AF7
BC9C4A24
BDCD0C26
BDA2F11C
BD3BEE35
3E4BA754
3D94AB10
3C3D34B0
BC874A32
BDA29500
3DD12F07
BD4622B6
3C5D677D
3DAF1E26
3E45C4C6
3E2748DF
3DBBDDC5
3D60F693
BD360A95
BD689A17
3D2CB251
3C623479
BD477796
3B3D9C19
BACD0FD0
BCA50DBA
3EAF5031
39A8451A
3CAFA184
BDCA40C5
BD7C00D0
3D106A3C
3D282C51
3DCA8889
BE0D16B8
3E2FF44B
BE0C5BEF
BE519490
3DD0175B
BD7EE5BB
BDBCD76C
BCFA0327
3B3EF3BC
BDB13B0F
3B683D43
3DEB64A5
BD02F15B
3E4E6093
BE1683F8
BE027D47
BD29B26D
3C40C39E
3E397209
3D8844A6
3E054F40
3D29FA78
BDC9160B
3D03D19F
3D0E243A
BCE30155
BE134D52
BDACC30D
BC529971
3D618783
BD9AB32A
3CF35502
3E1EE99A
3D5B5CE2
BC17527F
BCFC1B9A
3DA21747
BC8A2836
BD9D9873
BB164DEC
3D1A05B7
3D074395
BCC87DC7
3C8C7145
3D7B9336
BCC8E567
3D0C9194
BD74CD4A
3E29073D
3D5D4F4E
3BF4D0B7
BD0DCB86
3E14393B
3CA4B379
3DB2E849
BDF68C2A
BD5C8344
BCE70742
3DBD668F
BC02A5F2
BD821F60
BD9C7B04
3D9458A9
BD8514F1
BA3B3119
3E0A67C3
3DDB1A38
3DCCA04A
BCA8C3AE
3CD1CB82
BDDC31EA
3D9A8CDE
BD0FC8C3
BDE76E7C
3CBBAE82
BAECC7DA
3DA85E3C
BE0D05F5
3E03BB65
3E162D10
BD931BA0
BD0586B9
BD7D93C4
BC247841
3E0F3300
3E137406
3E0C1955
BCFB3C36
3D953610
BCEB9ECF
3DE3A81E
3E299EB4
BE34DBE3
3D4A5F15
BDE4A7EC
BB873A5C
BE15853E
BDD09B84
BD18FC36
3E37DCDD
BDF7F8A4
3E3EC8BA
3C99489D
3DCF7440
BE096B0F
BD4C6956
BC17B192
3D9DF88C
3E4DD2E9
3E0F59B0
BDDA062C
BD8E9A31
3D7CD02A
3D7FC546
3C82FCC3
3E275A8F
BB54EF60
3D0BF5EC
3CCFAD5D
3D94D6B0
3D4CE161
BD6EE0EE
BDC539C0
BDA45525
3A5C148E
BE1307E7
BDA1DD50
3DC3FD11
3C91AB08
BC14A935
BD76A287
BD3CC9D1
BE303D68
BDB19DE0
BD4A5D00
BD1BEBBD
3DEE0634
BDE71BC8
BD92D7B0
BE2C3745
3DBF20A2
3E381662
BE2817A7
BDA833AA
3E0D2D2D
3C8C00D5
3DA651CF
BD12B3A2
3CDE4539
3BC729E6
BE6246E6
BDFB30EF
BC868D85
3CABBF1E
3DA8D230
3DF8ED98
3E16EF99
BD1971A2
3E04D13D
BCCEADEC
3D57DE69
3DC1D609
3D3C1454
BDE170F8
3DB9A32F
3DFFE445
BDF01195
3CDC519D
3D63F816
BE05605B
BE092570
3D9484EE
3E105DC4
BC246C74
BDB03FA9
BE4F86E2
3DB23DE7
3DA6F784
BE23AEFA
BDFBCA6F
3DD1A632
3CD045F0
3DCAE8DB
BDFAB7F8
BD045ED6
3A656F8C
BD9777F6
3D235D5E
3E23B13A
BD598780
3E1150D0
3D8D0481
3DDBB692
BDA793A0
3D91B922
BCAB6D97
BD852E76
BD962A03
BE1E83BF
3E08ABE5
3E132448
BE23729D
BE0C858E
3D95979C
BD5F666F
BE377CC2
3A0528A0
BCAB99FD
3E08FA35
3C6DB3F8
BD2D6C62
3CE52731
BD045280
BDF9A117
3DC4DE13
BD3244BB
3DD7AA67
3DF18490
BD246113
3E027E56
3C6321D1
3DCDA258
BD976BF3
BE06B0EF
BE1347E5
BDBD966D
BB17583A
3D506960
3DE5EAEF
3DEE741B
3C3A5CB7
BC160C00
3DD11168
BDFD4E83
BE1B5385
3D761F8C
3E35B68D
3D87E6BA
BB902CBD
BDCE1B12
BDB9C153
3DC1D64B
3CC356BB
BE00C407
3C2CCD1E
BD832D1F
BD9026F2
BC6E7CFF
BE3989BA
3E196A97
BC8183B0
BDC57EF1
3D691741
BE3DC5F4
3E4D2382
3E00273F
BDF7B4A4
BD45800C
3E783F4A
3D2065DE
3DEA6A27
BD0A6711
BD57ECB0
3E30013C
3D8096FB
3DDCE07B
3DD298F3
3E2BDA87
3D00257A
BD35DD7D
BE2C3CE8
3C1DDC1F
BDF5F344
BE57F4B1
3BDAC94F
3D0FB0F8
3B57DADC
BCCA4224
BE822ED2
BD55FFFB
3CFE72A3
BCD11F4B
BE44854E
BD031080
3DE2F135
3E3A351A
3DD5A82F
3CD5A965
BD16A965
BD2ACC69
3D92B828
BDA4214E
BDE35A91
BDA154BB
3E1E8AE2
BD5ABC38
3E59D4D0
3E1DF83B
3D715776
3DA992D4
BCDB9E80
3C3F58CB
BD649408
3C3B231F
3E22B802
BCF4A71B
3B7A63C6
BD26A8AA
3DE4B4A6
3D6FC4BA
3D11F958
BDCC8CE2
BE26E291
BE15BF26
BD1C12BC
BBAF4F8F
BD6FAF52
3DFCF72C
3DCA832B
BD970CAF
BDAB1123
BC94BE56
3CCC73CF
BDBB658E
BDA2429C
3C94548F
BC02496E
BC6F2CA0
BD09C2C4
BDEE7A6A
3D9CD890
3C04EEA7
BDAEEDBA
BE3C6566
3D70F8F7
BD0F579C
3B383925
BD9EC1F2
3DEA6069
BE1AAE82
3DD71B89
BAC36122
3D8D4F9A
BD4BC2C1
3D231180
3BFEA90B
BC307D8D
3D69D773
BE057D98
3D307889
BD13BC5E
3DCA66FE
BD87A47C
BE639EB5
3D2C8671
3E139424
3BCA1F78
3DA8D53D
3CDB5074
3DC8CCB4
3B780FED
BD8DA964
3E081765
3D9D5B19
3D3CBD65
BDFA2220
BE5AE63E
BD953E76
3DE48117
BE102DA1
BD8EA650
3E05897C
3DF02511
BD3B9AD5
BD6B5410
BCBE8DE3
3D11A3CD
BD8333CA
3CFAF48A
BDE06AF9
3DE2CB62
BC26CA6B
BE017BA5
3C95D25D
BD6C36EC
BCA0AAA4
BE31AFB5
BE21E09C
3CF03459
3D955024
3DC50C7C
BD64D6EF
BDA30776
BE5A87D1
BE2F135F
3CBF0EC3
BD05F241
3E071789
BD79A9AC
BA1CBBBE
BDB57229
3E7D3AAD
3E0F99D1
3C373B27
BC23361F
3D4BCB04
3D2B7F75
BE29B690
BE6B23CA
BDDDDCE4
3DD79631
3CD6CE50
3DFF49F6
3DD61B23
BD480E1B
3D245910
BDE04516
BE61FA4F
BD78AC58
BDA32629
BDD0D37B
BCA133A6
BE21AC7D
BD420625
BD974147
BDB9CAF9
BCE6B262
3D12CBDC
BD8B8A6D
BDE5D413
3D3976FA
BE05F024
3CAF442C
BCE672FE
BD6A173D
3B77B9BA
BD08FA96
BE194BF0
3D980EF4
BE1F3269
3D1AC33B
3E01A343
BE1AA008
BC49C73A
3DEE3ADF
3C9E6D70
3D1347E9
3E350DE3
3D92DBA5
BDB91108
BDE21B31
3C3A15F1
3D1AA087
3D493478
BE1F1708
BCA6EBB6
BDBBB6F4
BE0441DE
3D7D8C5E
3BCA32EE
BC5901BC
BDA014E2
3D568BA9
BDF71F75
3D348F82
3DB09594
BD06C2FD
BD27FABB
3E01C703
BDC58BB1
3DEA68F4
BE00FFA5
3DDAD0C7
3DB532BA
3E24C280
3D1D20F3
BE2CB371
3D7FFF83
3D2D46B0
3DD4E82C
BC60940B
3B70AA98
3C705B6F
3E497279
BD849712
3E3EC38A
3D4E7EEA
3D7B3638
3D54F852
3DAA4D0E
3D9A61E9
3E3C24B5
3E2A59AC
3E22F069
BE207384
BD0DF72E
BCA6A432
BE1338A6
3D601F95
3C268EC2
3D903F39
BD7B9827
BD6878E0
BDCE28A4
3DEA910F
3D37B37C
BAD6CA3C
BDE71D91
3CD6FB59
BDF44AD1
BDB71676
3D975A74
BDE35259
3DF02EEE
BD233881
BD15426F
BD6BD105
BC8102C3
BDADBE1C
BC0AC137
BBF872DC
BD21B4EE
3DA700C1
3D9FAB31
3CF3D43D
3E0F2758
3D8C2BC9
BDC7A96C
3CE020B7
3E33DF89
3E3C7EB7
3D779668
3DAD0B75
3DB76CCF
BD0090D0
BD523E62
BE208248
BDD2EBE2
BA800660
3BFD0640
BDCA3862
3E081996
3D305E93
3E0091A7
3CDC32AC
3DC96A07
3D2EB627
BD15B834
BD9B6DA6
3DF2C867
BDD9E7DD
BDCFE137
BD646B1D
BCDFC77E
BDF35281
3DA33C30
3CA4314C
BDB3162D
3DC67A1B
BDD5021D
3D0E7182
BD39289C
3BAD6D00
BD83A3DF
3E3D4FE8
3E0ADA96
3AADA2CF
3CD78F9F
BD18814D
3D9C4B54
BDFB0F5E
BCE50A7C
3CCBCE0E
BDB95B64
3D43F53A
3D30AE29
3DDD25D9
BCDAC959
BDA32D9E
BE2C5F39
3DF85BD1
3D9B84C9
BE5E8FCA
BBD7A18D
3E0A7195
BE804A15
3D96A72B
BDD32F88
BDB7BF15
BE889FA8
BD19F66C
BDD07364
BCA977D4
BD5D9F29
BD3411DC
3DD6D8E4
3DF85569
3CBDF842
3A8F1CB4
3A37BC78
3D8B933C
BD1406BE
BBAF41B7
BE380A34
BC8B38B8
3D59FD3E
3E333748
BC7A17A5
BDFEA0CE
3DA690D7
3DA3E4B3
3DBBC75D
3E073E25
BD6F7E6F
BCA5008B
BC24B8BC
3D776A91
3D5890E1
3B917D5B
3D18DDAC
3D424187
BB1BE8B0
BDE2C701
BCCF027A
3E0C0B0A
3E285F07
3D2A5966
BE3A89CC
BB556028
3C524636
3D807A99
BCA9BB71
BCD337F2
3D83208E
BB3F8931
BE0DEB9B
3E17CD96
3DDBFFB2
3E385782
3E00EC2F
BDF1E924
BDB0B061
BE776A04
BCE388C2
3DB76CB0
3DBF1ACC
BCF3C187
BD861E5D
BCC57F6E
BE0E4340
BC8997A1
3E0D157E
3D91E303
3D25993D
3D7AA2F1
3D8EB66D
3BF74C4C
3E37B749
3E45A0CD
BD47CA41
BDEA32D7
BC9B406D
3E42C593
3BB91403
BE139895
BD9B148E
BD295310
3DBE8519
BD931932
3DEFC9D4
BD0D5142
BD2FEC58
3CC7FD94
3E62CDB9
BD43D349
3EA21B86
BD993980
BDEEC54D
BD2A2510
BE4718ED
BE251B80
BBF8AEEA
3D92298D
BC67B9DB
3C83853B
BE26286C
3DD521B7
BE1288D7
BDEBCAC7
3D897ACB
3E0BDD75
3B3CEA74
BD6C0B45
BE30DF69
3E120463
BE1A75B2
BAEACCE6
3D5088A6
3E1FE131
3DD4DF0E
3DF3AE28
BDCE4FE5
3DA3B51E
3DC22E4D
BDA4B57D
BD82F201
3DBB3FDC
3D1EAA49
3DDD7DF0
BDBB77C3
3E90C8CB
BD716302
BDB8AA7F
3BB9724A
3D8374C8
3CBAE25B
BE271697
3E622802
BD9D0BD7
BE482F61
3E2BBD61
BC3279AB
3DD90CCB
BE0447E1
3E07FD38
BDD208C1
3D9E10D7
BD669259
3CEFA87C
BD1A2068
3D456DC2
3DB51D28
BD613F7C
3D41ECCD
3D64D999
3C964D3E
BDE74D12
BC9EEC7F
BDECDC7A
3DED1907
BDA7CD30
3DAD450B
BDF5252A
3D444535
BE577C59
3DF408EE
3E39B319
3E275A11
BD976705
3D83292A
BD4CDAD4
3CC1F195
BDB7B6D2
3D1E1EF0
3C4D009E
3DFE3EE6
3D701F84
3D38097E
3E0C10DE
BCFA2A69
3DBF396D
BE14B693
BC3E90D7
BC52B2F4
3AB1733A
3D7F00AE
BD09BA22
BDD88856
3CC690F6
3E2B9C99
BD06B92E
3D88F029
3CCD66CA
3D882C1C
BC6C6A06
3DAA91C8
BBB6D208
BD85DA99
BD6A4F52
3ADDD98B
3C321A68
3D5C68AF
3E0387AD
3E05BC4A
BD980433
3E130A27
3E5917E8
3D5D271B
BCFC56FA
BD83C587
3CA0E56F
3DA9C52B
BD9FBB4E
3E21137A
3DB9BE27
BDB62983
BE483238
BE5854CA
BCECFEB6
3E467D5C
BD1449F7
BD54E1DE
BCCE6920
BE13381A
3DF334A0
BCE53F93
BE01CD9C
BE3BAC13
3E13854C
BD0C6D03
BD860BD8
3C84EB57
3DC74A1A
BDDD3645
BD8343DD
3DBC9746
BE3DBD92
3D1080AF
BD9B2251
BD8DF975
BB75741A
BCAFED14
B9A5CD57
BD2FF347
BCE9B388
BD4EE6FB
BE1EBDD4
3D9B4C5F
3E00ADAC
3D90E1A7
BD09043C
3E3E9743
3D005BDF
3DDC9FD3
BE0C187F
3D80005A
3E34C7A7
3DE92972
BDDA505D
3D42658D
3D9BDEEC
3D3ED3E2
3DB4151F
BD002E5B
BDAABEBC
BD229CC9
3D8C0A42
3C523D2F
3BAB7486
3D3AE36B
BD56DF9E
BDF07479
BD9F55B5
3DCF643D
BCA18883
3E057F88
3DD4709F
3D90F16F
BE2D7C2F
3DF55786
3DFFEC1C
3DD3003B
BD8A66FA
3CC840C7
3E2DDBCE
BD2416C6
BE049D4A
BCF250A8
BE537EBC
BE37B675
BDC55385
3D54B8CA
BE00C21B
BDA13AE6
BDD86D03
BCB2A390
BE2D68ED
3E20C406
3E06167B
3DB7ED6C
BC46A74E
3BDA61D8
BDD350C0
3E0A4565
3D546D02
3D961ECA
BE18701A
BA952293
BCD3F983
BD6618B9
3D72D500
3CF93C50
BD28CF81
3DEE37E0
BDC813D8
BCFEA8A3
3E16D1F9
BD8C0534
3E3FA7E8
3DDC7B59
BD8FEBE8
3C885884
3D1384AB
3DE9BB63
3C6892DA
3D3205DA
3D5D1D32
BC83B4A2
BDF1A446
BE7980D5
3DC1D708
3E1DD00A
3E362A9A
3DDE9593
BDD9B38E
3E27ABF0
3D05F2DC
3DB6F422
BE4A1694
3E20CA76
BBF66AF4
BDBE1A98
3DA6C053
3DB0DB73
3AFBEA6D
BE2DEA4B
3DA9E039
BD048D3E
BDAF9A11
BE04105F
3DC7291E
BE04453A
BDA42325
BD2D7878
BDBF76AD
BDD8F935
BDA579B4
BDE0BDBE
BD14DCFB
3DB3837F
BCAA0CAB
BD9135BF
BC0EBD1E
3DC3BBBF
3D20216E
3D823E24
BD241942
BD1B49C0
BD961369
BE1706CA
BD7FF6E4
3E0366BF
BDA171D5
BD8706C7
3D2083C8
3DC90CA2
3D6F99BE
BDC72EC4
3DAE86A4
BDE940FE
BD15785F
BD9F6214
BD2763DC
3DA486C6
3E1975A0
BD873D56
BD9CEF17
3DC469E8
3D1E451D
3D91BF3B
3DA839C6
BDDBBBA9
3E0A8AB4
3CD56DF5
BE2F5157
3E0081F6
BD64C5DA
BCB82355
BE20AE3A
BE8C4CD6
BD59F261
3DE24CBB
3E07477D
3E2975EE
3D2332D7
BD81A8F5
BE1AB00A
BD58B8D7
3CD1273B
3D809C00
BE20F99B
BDE6BDF5
3CA8955B
3D95EF10
3D50BC98
BD193583
3D69B656
BE11DB1A
3D9ECD3F
BD8D7F60
BDE5382A
BE0D30C1
BDDED1A4
3E085BD0
3DAB3DC8
3D9CC86C
3D2E793E
3CE26690
3D825203
3DC30024
3D95980D
3E852162
BE0F9CDF
3CD8709A
BE548281
BDAF1E0C
3CAD6663
3D27486C
BDA2275C
BCD09411
BDD979BB
BDFBEF66
BDA0658C
3CD502C7
BC911418
3DEAE29A
3E161A63
BE48E060
3C06585C
3C30799C
BC801AD0
3DCA6EC2
3E349602
3E5BBF74
BD46AD62
BCE96C3D
3C46FECD
BC0F8853
BDEB7976
3D949ED0
3C113580
3D951573
3D8CDB83
3DBD562B
BCF04CE7
3DB23D16
BE790D16
3CFB5B6F
3E1FF510
BD787746
3D3310C5
3D95C000
3DAF7345
BE5D8B92
BD88F8CA
BC9C7A37
3DB2EF6E
BB9B4DEF
BDAD588F
BD9574DF
3C58E4FB
3E1D2862
3D4A4CCE
3DAD04A5
BBB33E0D
BDFEC22D
BE38E9BC
3DA5246F
3D8FE574
3CF65847
3E454FE9
BB78D596
3DD8D39F
3D9DF8EA
BDE7AE0A
3DB549DE
3D565756
BE377A0D
3DEA19D9
BD5CC3EA
3B8866A2
3E0FEAE3
3D46E634
BB6CB509
3D9F219A
BD43182D
3DAC4053
BDB65E96
BCED9969
BD5D6B75
3DADCE13
BD0DBBA9
BDEA30C4
3DD40645
BAA689CC
BC1B741F
BD775ADB
3DABB1DD
3D4E673A
BDD94EC2
3E40C9AA
BE0FF5FA
BE0DD299
3CE3EBC9
3B491858
BD56A46A
BE2A8EEA
BD593EA3
3E0336FA
3E1365EB
BB046AF6
BD9A6A4D
BD70FBF0
BD8112B5
BD5A3B21
3E43B8C3
3D1B8397
BDCF705D
BDB03EC2
BB2EE083
BDA1D617
BD846177
BDA8A497
3E4E4CB6
3CFA5288
BD401FC2
3DEF6A7F
3D0F87A8
BE0B3DA4
BD5BA65C
BD867538
BC1FEC8D
3DB81EF5
3D85A301
3D75D11A
3D05CC64
BB1532BC
3D85287A
3DFC9DBE
3E394B2D
BE206490
BC750441
BE05295E
3DC05B8D
3E6FE433
BC97E328
BAEA2A52
BD805D76
BC931DD5
BD44184B
3E48E4EB
3D93EC71
BD8254EB
3DFB56AF
BDA4E5FE
BE3282AC
3DC74EAA
BD0F6279
BDB62AC4
3D4FC17C
3DA00925
3D82B421
BCA267AE
3B6B9440
3E476F53
3DEEC278
BE81BE99
3CDE08A6
3D928593
3E4A1C66
3E0861F3
BCF0182F
3C231AE9
3DD957B9
BDD89591
BDA33247
BC56DA73
3D917B20
3D136334
3DC0D452
3E2D62FB
3E100698
3DD49794
3CB551B5
BD09EB29
BC63582D
3DF8CB5A
BDE21A58
3D414BB4
3B146468
BD28B190
3D391A65
3D16B601
BDCF4CF1
BDF47668
BD26ED38
BDA79162
3E096932
3D62EAD8
BE8E8479
3D1B7B21
BC905B18
BE019907
BCF0176C
3DD63D5A
3D8D4C2C
3D4B9FC1
BC805F0F
3D2570F5
3E1064C0
3C7ED95B
BBB7BF24
3DE45D86
3D5EC9B2
3DEAE440
3D0D8879
BD905BE1
BAF73AE9
BC04B0E2
BD36BE7F
BD587C22
3DAF667F
BDBC7DA6
3DD9B536
3DDF5B71
BDF5E558
BCBA5AC3
BDDD0C72
3D61A0C8
BE4D856A
3CEF1FEF
3E290788
BD3120FF
BD1DA240
BD484DED
BD9CF900
3D239E88
BD13698D
3BAD9A03
BCA4A36E
BDCF6138
3D8E3B53
BE08B748
3CF3C51B
BE0850C1
BDCF5D3D
3D8BCDA8
BD025222
BC97BCC4
BDB62D6D
BCE742E5
3DD670EA
3CC633ED
BCB9244D
BDB42B01
BD5742D0
3D9E663F
BC28FEC0
BDD3F6D3
BC954E40
BBC70F49
BDD5D3E4
3D89E424
BD7C1988
BE0A5698
BDA7992B
3BE5B18E
BDE4E252
3D937456
BDAFB436
3DBCB151
BD81D726
3D0090C6
BC022EE7
BDD6D2F8
BD242107
BBE8326F
BDE97571
BDAB7CF9
3BB2C523
BD48DC7E
3E58E03B
BBDD9C5E
3DAE74C9
BD7BF904
BDDEA944
3DE868F8
BCE528AD
BD5D0529
BD0B23CB
BD5AECBC
BD6A0D30
BD46D50D
3D86330B
3D503DE2
BE0B93B7
3D01DFF2
BD965EF8
3DAF0E00
3C3AF5E1
3D911F20
3D1A6516
BD32949B
3D98FDC7
3D9128AA
BDDF561C
BDF2ECFD
BD0C7D38
BCEDDD28
BDF77AAC
3CEB7F6E
3BB26CDF
3DA8A3F7
BDCDAAB3
3D6AD8B2
3B12B24B
BC4F43E5
BDE73C74
3D5E9F7D
3D07A303
3D6B3ABC
BDA3E367
BCCD7414
3DA88D17
BD32C90E
BCC58423
BC871456
BDEFC287
3DA48583
BDCA4CAD
BDA2EB7B
BE09CC1E
3D9D5CBA
BD4145EE
BCAF9196
3DDB280E
BDF0C69F
3D9B0204
3B839014
3B7D76DE
3DD55159
BD463D18
BD8B2ED7
3B96818D
BD603660
3D03A968
BD838652
BDB87CF9
3C763A77
BDC743C3
BDCE35B3
BD71F530
BCC86811
3DD5A160
BDF0D742
BCB245BB
3D10EC65
BD952FA0
BD3F85B7
3D66C019
BC81A91F
3D1AED31
BDFB6517
BDF3C82B
3DCCC728
3B10132B
BBB6F5EB
BC2F7090
3D7D7703
3E078CC7
3DE9200A
3E4F5F75
3D03458B
BD8D2701
3CC63628
3DA8CF0A
BE2E3A6A
3D243323
3BBF15AC
3DB7AB92
3BBFD01F
BD3473B2
3DBEA855
BDA6A170
BDD2FD4A
BDAEE9A3
3DC2C9DF
3E107BA0
3C934A91
3D785B3B
BE011565
BD99DAC9
BD6F8C76
BDC245B8
3CF20FE8
3D424BED
BDD3B05D
3D033BEF
BB92A745
BD9696C2
3E7B24C4
3E28635B
3D80000D
BDD45C13
BD906942
3D85422F
3D8F7EFA
3DEC8FE6
BE019585
3CDD7D6E
BDFC602B
BE37653B
3B456E1A
3D99C4C3
BDA0A0AD
3DD856BB
3CC14E4F
BC0631C1
3D92D794
3D1E73FE
3CEA2FDA
3D7238A8
BE1932F6
BD0F689C
3DA8ADE2
3D1C10F7
3DA749B9
3DBD50CE
3DAA9399
3CE3D053
3DC22C93
3D059532
BB0D6D2C
BD102874
3C1EBDB8
3DD4C9C2
3DF50B8D
BD0FB16D
3DF4EE71
BD94051F
3CC5F0DF
BDAF651F
3DAAA6C0
BD671192
BE041A92
3E24D9A4
BD100817
BE32EC29
3D9F436A
BDAB4E62
BD017A91
BAD93B1C
3E4656AB
BD31964A
BD3087DA
BE165D22
3D868E58
BD52E268
3E1ABEFF
3D8260CF
3E283B86
BD649954
3C448A67
BDDD2BAB
3E256405
BBCF19A7
BD03D18C
3CEFCB8B
3D86908B
3D96996A
BD812199
3E001726
BD7131B9
3D937380
3E3EFB62
3DBB4754
BDD74FEC
3D7D8424
BDF7D65E
BD9BE112
BB037E72
BE3F9D01
BDB3FECC
BDCDE894
BE03E6B0
BE8D8992
3DEF8417
3E311242
3C6AECFA
3D78DC1E
3D36E8B8
3D8DDDDE
3DC38EC2
3D906349
BDF3D4D7
3DD9D945
3C056C60
3E00C89D
BD5C4FED
BB811282
BD6BCFFC
BDCD964C
3D099807
BCA5C7C4
BE05F14E
3E1AE7D9
BCB9395C
3D8B15E0
3E3DFC80
3BD1F779
3C362A01
BCFE8EC0
3E14DD73
3D0564CE
BCCBDFE9
BD0E8B97
3DFEF7E0
3D0596B8
3C95ECAB
BDDB6346
3DFDBD9C
3DA2C918
BD840EDF
3BF207AC
BC69AFFA
3C7421C3
BD90E1DD
3D689454
3CA5B2DA
BE2BA600
3D44B491
BE04AF76
B92F52AD
BD9DF434
3E329A3B
3D2E5E8F
BD02D5D5
3B8031D5
BDD4851B
3C9BA1FE
BC3BF9D0
BD17AAF8
3C271FD0
BE46C07C
3DD7E598
BD971FBE
3DA7EC32
BDCF8720
BCE95AE0
BD41D813
3D75244F
3D8657D1
BD5A00DC
3D747BD0
BD12F8A5
3D6A5429
BC807277
3E2E764C
3DAA6D2F
3CA690C4
BE092BE6
BD552087
BDEF7772
3CC20FD2
3D562DED
BD8E9ED1
3DB83EB3
BD1F103D
3E00A1B1
3C1E5D20
3CFE585A
3E1E95CE
BD8FE8EB
BE05D321
BE127886
BDB5AFBB
BE03FAB9
3CF50FD0
BE308DAB
BC464C76
3DD332FF
3DEDD2B4
3DBBC798
3D310AEA
3DE390BC
BDB07DF2
3E542826
3D84A93E
BD9D680D
BD8E0CD4
3E3738F9
3D8CFCFA
3D8B9BA1
3DF3BD48
3E208EE4
BCED593B
3B1D3C03
BDCF4A59
BC9774A2
3E162B72
3D5B2969
BC85BF85
3B75C767
3C8079D8
3D837A5D
BBE8D66C
3E3B91F1
3DFE130D
3D373674
3D312008
3CCD8BF9
BDCAAC0E
BD2B86B0
3E42AAB1
BE17C8EA
BE5A79B4
BCDC8DFD
BCEDDFFB
BCF4B26E
3E3C2148
3D007ECE
3DEB6344
3C2403C9
BCF91904
3DE0B257
BC977F13
3D9D960F
BE0EF7E0
BDDD1EB6
3E0F7103
BCAB91D1
BD33398E
BC974AC8
3DC9CF3E
3E8EEF57
BDB5353B
3D405E91
BC14994E
3CAF0FC9
3D7F2CA2
3E1AF354
3D1B47CD
3E2C4C1D
3E0DE03A
BDEBF750
3D698E7F
3DBE38DE
BCD7976F
3E0BD439
3DDB925E
BCA964AE
BD3A3B1C
3E01374C
BD439BD2
3E1218DE
3D5756A3
3C94AEC2
BDE283F1
BC5A260F
3E309088
BDBD2F3C
3E5C7909
BCBC9CBF
BC996C3D
BD42227E
3DBBE4F4
BE330CDB
3E32B172
3E13CA12
BDB5872D
BD6B643D
BE176074
BDD63340
3AF16B4B
3DB1ACD3
3D19FF4F
3DB87440
BD5B5F5F
3E11CC11
3CB1B8DA
3D97155A
3E3F2184
3CC2763B
3C94A594
BDAA9C78
BDB0BACC
3D7F127A
BDCE0A1A
BDAA73E0
3D24EC8C
BD8B984C
3D711E51
BE1E5011
3DDD697D
BCBD153A
3E1A98F6
3E1065A2
3D10AF23
BCD5B1A8
3E10BB70
3DBEF7BB
3DC6A17D
BDF2519E
BCD3AC67
3C9CED66
3D9752F9
3E1D8423
BDEAC53C
3D69A6AB
BCDE4788
3CD7FC02
3DC5F491
3CDCA25A
3DD83763
BD1AD5AF
3D8E2D59
BE0F2234
B9AC8A46
3D39EEE4
3DE68956
3E52CBA1
BD82D67E
3DA011CD
3E20B610
3E075033
BDA6307B
3D01A0A9
3DA75232
3DA5024D
3D2E5196
BE1AF420
3DEB0E55
3E2B8DD5
BD81D67C
3E06F6CB
3C502005
3C39E00A
3C03436B
3E0455C0
BDA6519D
BDC7A3D0
3EA5AC7A
3D60E9B0
BE349C5E
BBA18FD4
3DBD439E
3D02BC94
BEC218B2
BE851455
BCEDF61A
3CE938C0
3D1FC953
3D96D570
BD4697E0
3B393783
3D823EA4
3DEA1888
BDA74EC7
BDDE5FF4
3D2B3470
3C876296
BE2EACE2
BE71EFBC
3E208814
BC830F77
3B7AF2A4
BDC3D326
3DFBACF0
3B8083A2
BE329382
BE390840
3C97AC4A
BE71E73E
3D669209
3E1877FF
BD7820A8
3C5ED32A
3DDDA108
BDEC81BE
BD81EEE7
BDB411E5
3D819E8B
3D99F238
BD9D7359
3C46753F
3DAC5306
BD8B4D8D
BC0EEBAB
BDB94EAE
BC8A7238
3DC627DA
3D90FEBA
3BD66A71
3E3F1C21
3E16BA4E
BC433F88
3E10B1EB
BDD3B199
3DAB8BD0
3C1E6C30
3DD12546
3E06A49A
BD920ACD
3DDDD5D5
3D00CBCC
BDC6E271
BD9D0C5D
BDF77814
3E0C1271
3E128227
3D8C1963
3C5D872B
3CC3BF76
BDB0EB35
3C93545F
BC89BA00
3E034EC1
BD7AF39A
BCBAF14F
BD9E0F19
3DF27759
BE9EDEDD
BDA33AB4
BD362AE2
3E24A917
BE6B980C
3D861BFB
BE8C977C
3D1188AB
3D624831
3DD7B6DD
BD924D27
3E0031EE
3CD38857
BE0DA5AA
BDC8E00E
BD678CBF
3DCFB75E
3E46E048
3CE62FA3
BD25CACB
3DFD1C51
BD3DC698
BBFA7FAC
3D914BA1
BE6D27A4
3D840E19
3DCF0E6E
BE38DE29
3DE5B980
BE486980
3D129959
3D91250A
3D03D804
3BCE55C2
BE4A88F4
BDF43CA6
3DEDD235
3E7BF237
3D03EDA1
3D95790B
3DC155DE
BD429B1C
3E06ECAB
BCAFD53D
3E0E1855
BE3A22EC
BD20B4B4
3E0C6E03
BDBB00EC
BCBDA327
3E2265B2
3DA34976
3C067E46
BE0AA1B1
BD1676C9
BDAA2A23
BD42DAC0
BDED85C0
3D3E3282
3D33FC30
3DD3FE4D
BDBE2EE2
3DD1B968
BD35DD38
BD8844D5
BD27C4AF
BDED4F81
BCACF7A5
BDF3E744
BDE649CE
BCC51850
3DCF5003
BB7FFEEC
3D70C360
3DB898FC
3BFA2795
3CF5EE75
BD8BDF20
3CA05E00
BD631525
3D8FF074
3D1E364B
BDD9B820
3D8EFE98
BB148A16
3D2E9D56
BDB8BD48
3C91C41C
3D446DEF
BB84051C
BDB93E60
3D89EF98
3D292C3A
3C9F2D10
BD1604B4
BD0B276F
BDE678DA
BCB35124
3C60E650
3DC3E583
3CFAB935
3D11FDDC
BDE16A3D
3E03FE69
3DDE8170
BD6BD090
3DA4BDCF
3E22FEE4
3DB263B0
3D22FF45
3DBBA77F
3CE9C8BA
BD24FCE0
3C8E7B74
BD94DE1E
BDE936E4
3DB18A0C
BC57A960
BDD348F6
BA6839B8
3D8464CD
BC927C47
BDC9DE47
BDE814EE
3C690869
BDF9769C
BD7CE3B0
BD71A977
BD734B3B
BD40058B
3D6C3087
BDBFC25A
3B15B82C
BDEA0AD0
3D1F1711
BDDDFD21
BDA94C2C
BC21E83E
3E004559
3D934B4E
BC9F3A39
BDEDC227
BD8B6597
BDDD7CBA
BD61A237
3DB86DE7
BDAC22CA
BCDE62B4
3D44FE0A
3CD6103C
BE11983B
BE146CDB
BD7E10EB
3D65B317
3B798DC0
3D2C28ED
BD2CF1D9
3DDFC671
BDE5CB08
BDD8B363
BDCCEDF4
3CB112D2
3DCF1203
BD5C43D8
3DB2B02E
3D9FD848
BDFD0C54
3D67BAC3
BDFF8AA5
3DF269B4
BD2E8BE4
BDBE3435
BDD340C8
3E089445
BE173B40
BD38641D
3D8479C9
3DB27DCF
3D01315E
BCE37690
BDC5EEF5
3CBD3CC3
BE1FEC04
3CA87B27
BD00CB48
BCE81873
3E027431
3DB48E6C
3E0E96D4
BDD6F0C6
BD9D6CA7
3E008AD4
BE27A4AC
BDB59A22
BD7B4F62
BC84E7FD
BD8B2BC3
3D4780A6
3DBB2F4C
3E7CE845
BE0D34A2
3C07B6AB
BD568EB7
3E6AFB3D
BCAA145F
3D8A96EE
BD63240B
BD5AA22E
BE0340C2
BE0541B1
BD6DF48D
3E0EFD78
3D9E4F3D
BDFB180A
3D9EC9D5
BDF65205
3E41DE3D
BC065281
BC9BC40D
3D89A4B4
BD57D567
BDFCBD94
3E2072AC
BCC87096
3DF04021
3E80D37F
BDA32ADD
3BE1C53D
BE118DE7
BD8494AD
3D17CCAC
3B8681D3
BD6A03C0
BCEAC0D0
BDF65FEC
BE569B40
BE0A5311
BE21E8F6
3DD0A1B7
BE3CCB33
3DF81ED4
BD81184E
BDFAB4A9
BE2529B5
BCD192EC
BCDA1AF4
3D87022F
BE34CF42
3D44BAA2
3D8F6F13
BE32AD12
BE185CE3
3D05F7CD
BD59EE1E
BCF49030
BE148216
BDDBFD6B
BD988577
3DA8320F
BE36108A
3E2FFAE3
3D8DAA3C
3EC9E634
3E159687
BDFF2DC9
3DF8DBAA
BCEE84C4
3DA01D0C
BC6379F9
BDF1FF85
BDD03AE2
3BC04844
3C7B2838
3E344D39
BD9D27DB
BD21C0B1
BCA66E67
BDAE42FE
BD9522DB
BD4245B9
3DC3C941
3D2C5FD3
BCDBF34A
3E16D03F
BD83950E
3E1FB480
3C88B229
3BE44E3A
BD0752C8
BDFAD3FA
3E089483
BCB2659F
3DC3633D
3DAE0F31
3DF5034E
BD71B36C
BD625915
3E502255
3D3EABD1
BE012EBF
3E074052
3CC9306A
BDE5F19E
BD9D439E
3E24E209
BD5BFE87
BD11FD9B
BD096675
3D9DEC58
BA3F1A3C
3E093D93
3DBFB876
BDB51498
BC8529BA
BDCEA5D9
3E028642
BD6B9B91
3D084DF2
3DDA7BF1
BE3C668C
3DBEA9CB
BD49859A
BD59EEAE
BE29B8F6
BD3E7237
BE1F7AF0
3D786787
3E58113B
BCA1406D
BD9B6983
BDA127EB
3E92FC5F
3D2F4344
3DE4D5E1
BD844765
3E3BB55B
3DD1E6E9
3CA1710A
3D501FC2
3CD7E6AB
3D8FB3F6
3E163E6E
3D682896
3D0D1DB6
BE037806
3C6A97A5
BE01B412
3E0133D1
3D903717
BD743394
3CF12996
3E1F2E7D
B937F225
3CC0078B
BD9D0422
BE5E46BD
BDCF68E6
BE0B55C0
3D1012C5
3E20DFBD
3DD08D5D
BD7C1288
3C166A49
3E2608F0
BD09D228
BDB621A7
3D819169
BB803836
BCA6F0DE
3D1187D6
3D4DA5F8
BD97CB50
BD91A749
39C827B7
BE05E7AF
3D3CE636
3D5739B8
3C979A80
3D896089
3CB7BEC3
3D60EB00
BE21C4CE
BD3DEE90
3D96FA17
3DC828E3
3DC86F97
3D943C04
BC63DB5C
3DBE881D
3DDFCC97
3DFBB1EA
3D8F08B4
3CB386D5
3B3694E2
3E5A2150
3DFAB868
3E17687B
BD1552D7
BB53AB77
3C7B935A
BC9682C8
3E162F9F
3A030961
3DB7487F
BDE1E80A
3E1CD80E
3CC0C1F7
3D9797D1
BC84A5F9
3E54E457
BD22F80B
BD106782
BC2C70AA
3C4C3089
BD4EF35E
3D63CF39
3D8E8138
BCE0A892
BD313CBC
BD885E45
3DDEC7A4
3C9DBCFF
3D377B2A
BE18F317
3C0AC798
BB2AC674
BDD53204
3D6AC97E
BBF14DCF
BD2AC011
BD92218C
3CB7A627
BD811F71
3E114EE9
3E2E74F1
3D9ACB7D
BD475F01
BDC662AC
BC8FC675
3D406209
3D1F6B1F
3DD539DD
3CD674F6
3B5E1CBF
BDDEA0E9
3E4496D0
3D144CC1
BC8B42E7
3D95E312
BDEC3986
BDB9793A
3CC645DD
BDADC88A
3DAAA009
3D2D19B1
3DA4DBB0
3D30447E
3D7DF8D5
BDA198FE
3E8B2ADC
BDEE1399
BD2B25F7
BD6664BD
3E1A1299
BD714E41
BE19853F
BCAE4010
3E2C3D59
3C9A86C6
BD00000E
BD3E0CDF
3D2E0E9B
3D88428A
BC3333CD
3BAB52C8
3E68255F
3BC443F2
BDBC85A7
BDE8BCEF
3E268F81
3E103227
3E2052C0
3DD274C5
BDF5E095
3CF2E2D7
BC7A4A3B
BD65554F
3D323ED1
3CD963FA
3DB5F6E4
BDA7656F
3DEBDF04
BDE44827
BDA5B555
3D029701
3DBF8757
3E4CF6FC
BDC93B98
3DC9A8BA
BCB4026E
3E378A13
BC9DC884
BD15B7CC
3DD29049
BCA53657
3E1AD4BA
3CB66C33
BCFC7CEC
3D8419EA
3B9769B3
BD57FAF1
3B040F32
3DAB1A9A
3D3457E9
3D970CBE
BBB5F5E5
3DA3439C
BD8F079A
3E2F77CD
3D9CE936
BC9BC7DA
3DB6E65D
3DECDD9A
BCEA5628
3D972C1F
BD95D176
3BB7906E
3B72EF01
BDFC30C1
3D305562
3D88EB67
3DC6F1B6
3CD65220
3E3A6B77
BDD3AFF3
BD7880B6
BE00899E
3DDCF358
BB23A396
3D86B2AD
3DEED281
3DAE5790
3DFD197D
3D61CFED
BD105975
3DF31991
BD6452FE
BE019C24
3E104666
3E5B6F0C
3C40F4EF
BD9B799D
3DA9E10E
BC3F7F76
3D93BFE7
3E25E608
BE53CB1C
BD3745A9
3C15C2C7
BC14E22A
BDE9C261
3DE81FFC
3C4F0864
3C8FEC0E
BDDCC9A7
3D74BC61
BD8E7AD0
3D9629F0
3C388B86
BD1E5C12
BDD9896A
3DD44E6C
BDD5C218
3D5641E1
BCB86C5C
3C7E7C5E
3DD23518
3D3B0C2A
BD91C2A9
3E0FB304
3E180393
3D7CAAED
BD95593A
BD785132
3D1F1BCD
3DA3D9EB
3DFD9210
BC4C7DFB
3A06907B
3D9601FF
BD339368
BD8BE7E1
BD2228EE
BD65EB50
BDF178E0
3D0F04CE
BD220C52
BDED8992
BDFEAA3F
39A46185
BDB96617
BDE56FF3
3DF59D4C
BDF17C98
BDE0F774
BD33EB70
3DD7E65B
3C0AF7BE
BDF82EC1
3D496C60
3D5C216B
3BD8246F
BD88280A
BDA01FE7
3D59200E
3C794048
3CCBB2B0
BB190B00
BAC71A87
3E21BFDD
3C683C4D
BDBB8EA2
3D84EF96
3B8997CA
BCEC90EB
3D078246
BDCA05B3
BD9A784D
BCE1667C
3D849CE3
3D827407
3DAD1E07
3DBCCC0E
BD601165
BD832417
BE0CBE73
3CB21EA4
BDB9B0F4
3D560B68
BC9405CD
3C80FF78
BE068B06
BD923FAC
3D8F2120
3D6AF3A2
3C8F113C
BDD2B1FD
BD480961
3DBE300F
BD5043E6
3D8B5C93
BDFE64F3
BC927A9B
BE06AD52
3D8BE144
BDA7DDA0
3B9FD80A
3CC29DE6
3C9C5176
3DDC7F7A
3D398FFF
3C095935
3CBE77F4
3DA1CEEC
BE077B28
BDB967F5
3CB5B3FA
3D4C0388
BDC5D632
BDCDFE3E
3D928783
3D8F1883
3B706B80
BD836D3D
3DBF7DC0
3DE3B410
BD668DE1
3C61D592
BD8486CD
BE10FC0E
BD544F11
BB0A4B3B
BD37F067
BDD1687A
BDADF970
3DC666D7
3D9A993F
3D02277B
BCC9C08E
3D2A60D2
3C0AF956
BB43D3D2
BDAAE446
BD8C93E4
3D9F57F8
BD9E3B51
3D99B699
BD7DF5E5
3D77EE69
BCCACBF0
BDC76C47
3D9217CB
BE07BF96
BE55414A
BE093918
BD5DCFFD
BD84D210
BDEB43F6
3E3BEFA1
BE0D658F
3D50B3E1
3D7B9370
3E27DCEE
BD5D791D
BC880AE0
BDBFFFD7
BD2F12A9
3E2FFD60
3E215567
3E06B07A
BCB57E53
BCE58079
BD3C54EC
3CCF76C6
BCC1795F
3D886D54
3BE607C2
BD09F887
BD8A5A5C
BD8811B3
BBA5914A
3CA52EBC
3D7A0890
BD66E7D6
BC9CD3D9
3E1372DB
BDA2E8F6
BD8DABF3
3DC0CCED
BD27B04B
3D57EF5C
BD046514
BD61FD18
3DE1D308
BD089048
BC2D5FA0
BD6D72FA
BE7D0774
BCAB55BA
BE1660E6
BDF9FFC8
3C78C712
3E225AC4
3DCA3401
BCD4E920
BDBD46A3
3DE5FD55
3E657FB0
3D8334E3
3CC65D31
3D9A50EF
3E2B3B63
BE70816B
BDFAC4EE
BC94E51C
3DC3DB77
3D544588
3DE09389
3C7CEDE2
BE13BF13
3E53AAD2
3E2C9B8C
BE293056
BDDE3376
BE116483
3CC8B2D4
BDA09C03
BD794447
3D120B4E
BC1586BA
BE348BD7
BD14452C
BCEE5A75
3E02CBB9
BC16C1C9
BD881847
BE30520B
BD724E07
3E151F26
3CE36F1A
3DA44C56
BDB21415
BDCF70CE
BD93C727
BE319AFA
3E1A0FC7
3CD0EAEF
BBB6AC4F
BD33E08D
3DFA53CE
3D7D26D0
3D877490
3E7752D2
BDB7E5AE
BC6333F0
BD9245C1
BE4B647A
BDEA1D39
3D54BAEB
3D656CBD
BD28D1C3
3E50816F
BD3C7128
3DADD876
BCC2A668
BC7AF567
BD689805
3D5FE021
BDD4D489
3CA6CD05
3DD42068
BDC9A7C4
BE45B444
BDA74FF0
3D898F55
BD32A0D8
3DB33952
BD0B8843
BBE61B5C
3D178844
3D6FFB84
3E2DD0B3
BDA0BB69
3DB50FF1
BD9581FF
3C4767D0
BE097433
BDB55B57
3DB5C95C
BE13D299
3CF80A62
BE06C135
3D4C2BE0
BEA7C5C5
3D62C377
BD47445C
BDEE9F75
BC0A5FB6
3DA16CBF
3E136D52
BD902D48
3C4E2E23
3DDAE17F
BD1BBF97
3E3BE9C7
3E0CFD87
BCBAE0D9
BE429C7E
BD9C62CD
BE2E2C5E
3B5B2D28
BC6B51C0
3DCF4A02
3BA11D98
3CC472A5
BCE6CD62
3D0FF9BF
3DDF380D
3DFED468
3EB94C4B
3DCA5CE0
BD495161
3DDB1EFE
3D632F0E
3E1AAE5A
3D8967C6
3EEF615B
3D5A3678
BDFC062D
BD7EA4A5
BE178116
BE099D10
BC57E0FB
3D5394B4
3CB6CB58
BDA0C9D4
3CA6652C
3D36CBB6
3DFD97F6
BE076DFC
3D1FBEDD
BD02BD49
BD2F9A33
3DC178EF
3DCE47ED
BC431596
BD42AE60
3DE0CB40
BE00E266
BDC2AF02
3D90E6C8
3E0D7108
BD868394
BDEBD0AB
BDAF6D47
BD501CA0
BBA25F05
BD98A70E
BDE21387
3CA41C83
3E2BE580
3C7AC86D
3D17CF10
BDB41659
3DDA5706
BCFCF19F
3DBF95A3
BD0DA271
BDB54954
BDB0BEBE
3DC10C0B
BE0745FB
BCED09E0
BDECA057
BDEA6D4D
3B759497
3E11EC7D
BCCA7DA3
BD0227A9
3DDA9B63
BC9A38D7
3E04B4B9
BDAAB09E
BE021FEF
3DFB6D72
BC274062
BE09168D
BDEFEE4D
3DA3455E
3DAE166E
BE16343D
3D991156
3CDB7BA7
3DEFABD2
3C776658
BE04DC74
3D218015
BDD40650
BDA885C0
BDC9191B
BC6E70A0
3CDED1F8
BBEC1796
BC04F8A8
3C024CC0
BD2993B2
3D9A3A0C
3E0C0EB5
BCC3CF32
BC0C5128
3DC532FC
3DDDDF17
3DCFD42F
3E10D485
BDAE23B4
3DB35D94
BD925600
BDF033BE
3D155673
BD612A8C
3D45532A
BE25333F
BD6AC047
BD40CEBD
BC0BBED7
BE079C40
3D5E650D
3DC8197E
BDECCE5C
BD3AC41A
BCA5CFD5
3DE2D35F
BD51891B
3E276BB9
3D8296E5
3E03BDE6
BE0437FB
BE3B30AB
BCE281DD
BCFA92FE
BD7A8485
3DBB1E81
3D182DF2
BE6EA055
3D89FFB4
3DF1C3DA
BE128F86
3DB13169
3DFE2E78
BDFB8D36
BDE7F44A
BE1BEE76
3D57AA21
BD53DFCE
BCEA805F
BD9B4F23
BDE2C88D
BCA4E95E
BE391FC3
3E56CB7D
3E240FA0
3D392C89
BDB34A8D
BE0EDA7B
3D788EC6
BDAAEB59
3D83BD34
3DCAC7A1
3C9D0128
3C16E654
3D810C3C
3C971320
3D946084
BCFA51AB
3D391422
BD9227F4
BB14591F
BD9EE884
3C94DE6C
BD8B8190
BBAAC77D
3E1662AD
BBCF2F8C
3D8C048C
BD696871
BDCF906C
BDB94C93
3E1644BE
BDF4E3B8
3CA7BB6A
3E007B74
BD3BEB8E
3DE85FE7
BD4EE05E
BC0911FF
BCE64B69
3C6C469D
BDEBEC01
3C25473D
BE009FE2
3E1E2A93
3D9BC8FB
BDACE995
BD6C4AAB
3E1CB391
3DDA1450
3CCDB65C
BD5F738E
3DD9AD26
BB99D822
3D86FE3B
BCA3A446
BD78DAC2
3E2D5B26
BD70C577
3DA93DB4
3DE7C343
BDF6DAD7
3D13343C
3D592E78
BCA17530
BCA1739A
3E74DED7
BDE4AB51
BCCEEDF2
3D98EBB5
3D8ABA26
BDB68839
3E1771A1
3D3EF286
BE2E958B
BD712A43
3BECD78E
3D263F5B
3C65E71D
3D5066B9
3C19F888
3E271B1F
BD5C210A
3CC6F3A0
3D79F3A3
BD669C86
3E073E94
BDA411C7
BDE89752
3E5BA47F
3C41BCCC
3DE94985
BD995A8C
3E125095
BDC52919
3D2BFE65
3D7C4ACB
BD05B493
3DAB27DD
3D88870C
3DFA926D
BD8723B6
3E18D37D
3B432DC0
3D73B666
3D370C5D
BD9700CD
3D616E34
BDA694C3
BD84B744
3D0BBCFD
BDC13EA8
3E0B140A
3D0C8D02
3DCCD306
3D9428B5
3DF870B4
BCC7E105
BE0A7986
BD469712
3D5C4A2D
3D8EA930
BDAD8212
3E0C229F
3DD8762A
3D8EB8AE
3D73822B
3C215349
3D0A7796
BCB75D88
BCA0C24A
BAD99DB0
3D0E36DD
3D5489BF
BD8C2670
BD0885B5
BC479079
3E09BE17
3DA3D19D
BD2A3574
3DC405DA
3DC017A9
BCCE4FC3
3B754551
3D80F209
3CBCC2FE
3DCA8BE1
3D756638
BD35122B
BDD874A4
3DD14C65
3CA2EB5C
3E9ABFDF
BC57FB96
BD8BD943
3E16A260
3E19798B
3C913223
3E7E907D
3D97EF2B
3D6A1DA5
BBEEF7B5
BCD7DED8
3C7E0B2A
BD7362A2
3DED13D3
BE01714D
3CE7EFFA
BC9D59A3
3D51825C
BDEA649C
BDA9DCD4
3D0479CE
BD1B3635
3AF9FD7B
3DC6D127
BDB9EB63
BCEED99F
BD9882C7
BCC240C5
BDD954E3
3D8A15E6
BD9C5E09
BD953FFA
3DA44544
BDDF13DD
3C2FCCB4
BD368C0A
BDD731BD
3DA49D8C
3CB407C3
3CA21FB8
3DFEEBA8
3DC865AE
3C7B2AE6
BDAF306F
BD321778
BC87FA16
3CF9E303
BD82F7A6
BD8CC44B
3C0A7444
BE11A664
BA8BB639
3E0E3C20
3D40076D
3CFBB41F
BDB12547
BE01D2E4
BCBF8057
3A6836AF
3CC96F9D
3E10458F
BC49110E
BD50579A
BDB8D862
3D7D0863
3E119EF2
BDE7124E
BD80F05D
BDD9CCDA
BDCBDFA6
3CF22762
3D616968
BD68F075
BE00A845
BDB9FDD0
3A276EAE
BBC12AB3
BDA98541
3DDECB56
3D8EB748
BDA9BFE0
BDC7D466
3DEC18C6
3D70A8F7
BC285105
BC784A40
3D58A16E
BCE4BA00
3DAE4447
BDFA84BB
BE088915
3DB3DA5B
3CC1F813
BC5CE78D
3DA95BE5
3E4AC237
3D8515A5
BD0339F8
BDB0A5AD
3D76FDAA
3E029A08
BDDD67FF
3DE30E66
3DB6AFED
3CD60215
BE3AF1A7
BC4BADAA
3D71A613
3DD9B590
3DA4641B
BE25CCEB
BD915AEC
3DAC4B5F
3D6B42A4
3D8844FF
3DBC4334
3BAEDB6A
3E0C1AAD
BCAC75C0
3DECDED1
BDF6E902
BD253F52
BE0EDF1A
3DFEDB1D
3D8B13EF
BE0399EE
BCC810A8
3D4CFF91
BC3B2D89
BCC8A87F
3DAC9DC8
3E0FD2F8
3DD29275
BDD7C05F
3D926633
3E31E923
3CE9D357
3D8FC372
BD52CBC5
3DA287F1
3E0C16B3
3CB4A06C
3DC8B8ED
BD3E0407
3C5F11DB
BD50BC64
BDC2870D
BD84C52F
3E12768B
BDD11DC8
3DE9AC35
3D3729E3
3DFAAA81
BDC37554
BBA53EFF
BBB23C6E
BE1091E4
BDC68352
BCC6CD28
3C9E3438
3D25B343
BBAEBDD2
3D4A0440
3D40379A
BDCA2CD8
3D76B1A2
3DB8E1C6
BDADEA87
BC54CA7B
3DE3CC55
3DC2FE2D
BDD4D861
BD21668E
BDF7A22C
3D7E8BDF
3DBD6A01
BDAAE9E4
BDC04C60
BE1395F1
3D6F1C3A
3DC68C25
BD0BA038
3DCBDCF1
BCB09480
BD7D9C30
3C473E75
BCE5049A
BDF2D14B
BE0C3FD1
BDB22182
3B6B1200
3B6B18B0
BDF03635
BD92BCE0
3D7B99BD
BDE6D81E
BCDE9990
BD5D73A3
3C91C91F
BDA2CEB9
3CCFCB84
BCF8308D
BDC33420
BE0CDA79
BDC436D4
3CF35E68
3D93249D
3DB01DF1
3DC5B09D
BDC3F452
BC70F6B6
3C199C8C
BD20A318
BDE3A087
3D3282CF
BCD973E0
BD8817E0
3D98D9B4
BDCE9266
3D710D33
BC7E6079
3D9ACD04
3CB1CC96
3DB05C62
BCCD8834
3CFD941D
3DF7C548
3DD8AEB0
BDED2AC7
BD9F68AC
BD74BD09
BC2987E4
3D969958
BD095ECF
BDD04630
3D07A1A2
3C8672AB
3D7C3A16
BCD4EDBA
BD04E388
3C5BDF51
3D39FD26
3C3E71D4
3BCEA20E
BDD2A692
BDBFF447
BD6C4684
BD888983
BCE0E560
BCDE1B9A
BD7A8AAB
3D2138A3
BDF3F9BE
BCB8ACF8
3CB351EF
3DBA99F9
BD22A5AA
3DD59994
BDA738C5
B99B7D48
BDB4DB2A
3D6BF12A
BE08FFE6
3DAB64FC
BD8BE7DC
BD3E63E6
BDD7626D
BDEC0646
3D2B5696
BDED9FFE
3DCD8AEC
BCE07EFF
B8993246
3DE35E6B
3D01CFF7
BDBD7B36
3C1A7438
BD83ECAC
BDEF57A0
3DC66D49
3D1A917B
3D161AB4
BDD72508
BC58F13B
3CBDB824
3D6CA108
3CF2892A
BD9775E8
3DBD4293
3DC8020E
BD44E59A
BDBCE069
3D562A68
BBFF3DC1
3DC268CC
BC355F2B
BD7DF171
BD005AD1
BDA4D6F5
BDB14CD7
3DBFA0BE
BD6B546F
BD5E7E09
BC6F0E20
3E3EA2F2
3DEA770B
3D6E0578
3DA9FCBE
3CCBC48A
3D20D890
3D537681
BCEB4DC3
BE50E250
BE04E2AD
BD39A7E8
3DE0E790
3D90A8A0
BDD4A90B
3DB0715A
3E63D9BA
BBDA5D74
BCF64780
BCEB9D2D
BD65125E
3CBE9983
BB9821B7
3DDF76E8
3D8483DE
3DAAEECC
3DD71D69
3CC1A7F1
3DA3631C
BDB65ED2
3D2FE108
BDBAE7D5
3D5DE3A8
BDDAA439
3E089F2F
BDA44B65
3DA49F63
3D4ABE59
3D43435D
BD435F28
3B5AB249
BC5EEE09
3DAF8C78
3DFB1E28
BDB9186E
BDCEB7DF
BD7792F8
3DF0DA26
BDBD7880
3E76FC93
3E45555B
BC9C7C9C
3D0BB4AD
3D28EF87
BD52A5F8
BC43A2DB
BDB12478
BD58E851
3DE0296D
3C9DA785
3CD527A0
3E42D9E6
3D5ABF37
3DB9CCC5
3D1080D5
3D1F2170
BDD69911
BC7977C7
3E3B328F
BD43740F
BC35B704
3C5A1167
3D247D44
3D0367B5
BDC5191C
BD1D724A
BDB80415
3E0AF3A1
3E4AEE67
3DF4B27E
BDCDF9AD
3E409F57
3D3CAE24
BDD30C86
3D18CA3D
3D5CFCB1
3D6CE5C8
3D96C255
3DC8D493
3DBEC1FD
3D943938
3D6C43E9
BDC4C116
BD444394
BCB680DC
3E20C1DB
3D66D87F
3CF2878B
3D6ED637
BE47CCAF
BD102060
BE2931D2
3D8FBB03
BD75A56A
BB31EBE0
3D0ECBAB
3DDAA361
3D6B5A73
BDED2945
3E03C5A7
BC88F1CB
BBCA97AD
BD87FF61
BD57BF10
3D2D959E
BE1643CB
BCAF68D5
3D95A75C
BD73AE6A
BDE57D2F
BD48F1D5
3CF111D4
BCCCA6B3
3DC7C7D2
3CC1EB91
BE08857C
3DB841D7
BC2C64CF
BD93FE5B
3D226DF1
BCE5FB35
3BEEE4DE
3E167A2D
BDFB67FD
3DB47903
3DB83C47
BDE22A42
3CF6AF20
BD5A9356
3DDCFD6D
3D053CD3
3DD6F7F6
BDC9BFE0
3DAEC24C
3E217FDE
BDB39727
BD83DD90
3CA7BBF8
BDE0B41C
BD30CCC7
BE1B8930
3C9A3B4A
3E26D6EF
3DDC1C53
3D7343B3
BDF4F0A3
3C57E2D7
BDD3804C
3D84567D
3D1F4E59
3DB0FF35
BD9FACB8
3D9AAD88
3DC88FC8
3E09D8BE
3DE90144
BDC95FA3
BE01AC30
3D8090F0
BD771401
BCB015B7
BB3AD464
BDB542B7
BCDC837B
3DA83119
BD1015A4
3DB6E071
3DA965DB
BD87F25A
3DC4216E
BD857B54
BE016FAC
BD323C26
BD243F57
3D2A38FB
BE03365C
3DE2A620
BD6CC565
BD441FE8
3E18B251
BC0AF259
3C41E65B
3D1B2DE2
3AC6B005
3D803061
3C9BB964
3DBA3641
3CAE3066
BDB9C7F8
3C2EC957
B90DB0D9
BD0EA69A
BE04F663
3D406B81
BD8B77FB
BCD9074B
BBAE42E5
3DDEB6D2
BDB20B14
3B915948
3D96449B
3C1F73C4
BE040BFC
3BCE2716
3DE4CAFC
BDBEDDD0
BD984841
BC69FFB7
BB7FCF28
3D9F467B
BD89B065
BD5995C3
BE317CCF
3DD07C9E
BDD8A55F
3DF11D11
BE0B685C
BD300B96
3C4AC40F
3CD363D0
3E371443
BD844487
BE0CB4E2
3E158EA5
3E1F8B86
BD90D8A5
3D91F4D8
3D9397A5
BA15AE80
BDCBD8EF
BE205959
BD5734BB
BC4FC147
BDE27710
BD3D018D
3DC1FFAF
3DD989AB
BE732555
BC96712B
3BCEBAB1
BE27B5A9
BE10C9A0
3DA20D7B
3CC8E843
3D8E596A
3D332F1E
3D9C4676
3CB62998
BDE38F5A
3DB75F1C
BDC69048
BC30898A
3D8250A8
3CBD1274
3D2AFFFD
BD6BFB18
3DA8F15C
BDB69B27
3D00866E
BDA30E1F
BCECD070
3DEF6A38
3DD5655D
BC9F4854
BD2D8059
3CA5F1B1
BDF5ACC3
3D58E478
3DB9F3A3
3DD1B17C
3C82359D
3D8E05FC
3DE95B06
BDC8D61A
3D25E784
BC8F90E0
BCF9E9C4
3A0C25C5
BC9A3E61
3C1C44C0
3CB25551
BDC06677
BE04DF24
BC852C90
3DB2531B
3C842CF9
3D4F8030
BD8141D9
BDC36DF0
3AE8BAFF
BD7FCD9A
3A1ACD42
BC8365F8
BD892DBA
3D8151C4
BCE0BC31
BDA84850
BDD28DF0
3D23E2E8
BDA414D2
3D61F3BF
BDF53990
BDD7F69D
BD389D60
BD70328E
BDDC5EEB
BCB15260
BE0D8CE7
3C3A024F
3DCD00CA
BDF619DC
3C89B662
BD8679C6
3DCCE557
3D292780
BDF1308D
BDD68DE8
3DBF1DAC
3DACEDE7
3D9DF8F8
BDE0E1EC
BDEFDDA5
BD9BE3B1
3DAAEE34
BD717FB0
3DD2032D
3C9F892B
3D54FB77
3DAD5A45
3D341631
BABDAAB8
BD6FDE05
BDD21641
3D8FBE96
3C25D007
3D8EDDF0
BDE775F2
BDF5F344
BDF3664C
3D0BE4A4
BDA01461
BC22A080
3DFF562C
3C651C31
3DBB2AD3
BDE54D9B
BCDBEAEA
BD311954
BDE4127E
BD4997AB
3CF370CD
BDC7E816
BDDEB7BC
BD5CA9B8
3C29A1B3
BDA96A14
3D0DBCA0
BCDD4097
BD570E88
BD4355EE
BE0666DC
BDB9076E
BDC5861C
BE06D686
3CAF462D
3D216B60
BDBE31A5
3DCF821F
BD53895A
BDB04DA4
3D561048
3D30C7DA
BC620190
BD354B11
3D6AF242
BD1CB12C
3E1A242A
BE1B6A11
BE26EFAC
BC93B689
3C59FB00
3DA69E89
BDCCD505
BDE3AD54
BC3A2802
BC9173B5
BDAB4F4C
BD86D895
BDCDD6DC
BAC3DFC7
3DBE2D47
3E050F16
BABD485A
BCAF6350
3D771B63
BD8BF6B4
3C3D11FA
BDF378AB
3D847EE5
BD121694
3BD4D4E4
BE04A091
3DC22130
3CC5A8CB
BC99E76A
3D131F95
3C858FF7
BABDDB05
BDB8CC88
3D8D2A22
BE22B776
3CEF08E5
3E2E0A3D
3AD173F5
3DD3C3A0
3DC34E33
BCCA4D12
BE0BFE88
BB46ACC9
3C9D8A25
3DE4B973
BD299E84
BDFCC1BE
3C145B79
3E67A1B2
BBEE1280
BB5D3F00
BE114F4E
3D23438E
3C31C80E
3DD37091
3CEDCC9A
BDA04C5E
3D5F2A5F
3E3955DC
BC1F8701
3D1F6626
3D6F6DA9
3C168009
BDE517B1
3D8EF3A2
BDB06829
BC5E19BD
3BAF3C12
BDBB3E8C
BDDD3789
BB1D600C
3C70B120
3CB85CA6
3BC014E6
3DA80618
BDACC35C
3CF39373
3E0A69E1
3D46582E
3E4D6F5F
3C90C99E
3C33E24C
BC2D8C68
BCE9A486
BD7C6FA1
BE091BBE
3D906526
3BD983A6
BB05F835
3DA073DA
BD90BF91
BD379A0C
BC880D23
BDFF1EDE
BD12EFE4
BCBA637A
BD9EC2D9
3D366456
BC1CBBCD
BD22846D
BDF9E3B9
BD88BB92
BA9D3037
3D4B7262
BDF27527
BD404530
BDF06EA5
BD945D1C
BD2A1C3E
BD9A1F24
3E22756C
3D943DC6
BCD5364E
BD40F330
3DAC3936
BDB03188
BD6F2BC6
3CC53CA3
3D52CEB4
BDE951DE
BDD4644C
3C3CE020
BDA36887
BC28F5A1
3D97C75E
BD1FB078
3D702D9A
3E35D419
3D744E64
3DF5A450
3E09A480
BE1E61DF
3DBB45D4
3D43054F
3CE2EF4F
BDDC548F
3D3231C7
3CCDD363
3DDC566E
3C3D0D5A
BD5E32A5
BD7BB9B9
3D34FFDA
BDF7315E
3B9E75BA
BD93AF83
BDBB2385
3C34D536
3DDFD68E
3D972611
3D4A58A5
BD00E48E
BDBB8F9B
BDFD1179
BDC8421E
BD73FCAE
BDE2C0A0
BDA4A056
3DFD4E78
BD19AEE5
3DD2F81E
BDFCF06A
3C8BD0D4
3C52C35F
3DFBA151
BD3C6E7C
3A6097E4
BC90ABF9
3D4BB248
3DBCE732
3CC98162
3D1205E5
BDC817D8
3D15EE9A
BDBA30F2
3DFB50A9
3E016D75
3CDB4550
3C488790
BCB6FB33
3CA99E18
BE73207B
BE013915
BD21BA0A
3DA2410B
3E12BAD8
BD64F926
3DAA34D3
BDDD6D02
3E58E932
3CE5D682
3C2A3721
BC8D34EB
BD8A24DC
3E52348E
3D9C71C8
BE1D2974
3CAE2389
3CCD48F7
3DD941D7
3D891EE1
3E1CB0E2
BDD3C3E0
BD2D417B
3D8B9FA2
3D0D0E48
BD321D9E
3DD9C0EF
3E194113
3D3D4048
BD1511C5
BD667653
BD45FACF
BD9FB486
BE198D6B
BE04E470
BD8BD777
3D95CA04
3C1518FC
BD3CA63B
BDAB1746
3DB82A7E
3E1EF633
3DCD193A
3D8C89CE
BCC28E9A
3DA3EACB
3CEB8329
3E6A0794
3E07BEB0
BD97D91E
BB659714
BD3E1A75
3D0E8002
BDB50076
3E09F6ED
BB1D1754
BDABAE82
BC21B5F0
BD350BA6
3DE52BEB
3CBCFC2D
BD1531A4
3DF9B4DE
BD2DA0E1
BE3B8456
3DE01937
3DA56298
BE0E6A04
3DA8A7D6
3E1D391A
BE25ACD0
3D9A3486
3D913AFE
3E0C71BB
3CB8037F
BD7DBD8A
BDDDFFD8
BBA1F735
BD27DB5E
3D6BB060
BC3F17B1
3D1562C6
3D826CE4
BDE5A22B
3D3397A8
BD7BCF65
BCEC93A4
3DECFD4E
3DBC4457
BDDE3EDF
3D881EE6
3E004321
3DCF518B
BDD7A47A
BD80C234
BD837C79
BDF5F813
3D9F7B03
BDBBD78F
3DC2DA4F
3D074159
BB9329C4
3D91262C
BDDF2848
BDAC75EC
3DB381FA
BBF94924
BCD9D197
3D41A797
3D7E489A
BDF8CFF5
BCCD9329
3CC869D3
BDB98904
BCC5A63F
3D3FA52C
3C4346BE
3E48C92E
3D257690
BE308DD3
BB33FCA6
3E1BB31B
BE160239
BDB86A1B
BC9EC950
3D213F20
3C2967E7
3DC83C9A
BD0D81D5
BDB701FB
BD7A59DC
BD1489FE
3DC26462
3E0EB585
BE0A5E8A
BD14AD4F
3C96FE85
3E378AC8
3E04E51C
BD938610
3DC69421
3D807092
3D1E7B28
3BAD13C9
3D46A7A0
3CDB4078
3D12A1C0
BDAE8247
BD49AFFA
3CDB779A
BDFF16A3
3D43E621
3D3C2500
39D9D09D
3C272FA3
BE08F58E
BD02CFBE
BD89B185
BD1D00D1
BD815772
3E4351DD
BE2AEE46
BCF19EB7
3DEE251C
BCE6A440
3DF3354A
3CF66C4D
BD5EC59B
3CCAD40A
BDAC4F7E
BC9E3077
3E2ACD9D
3DBC4D94
3D944192
BE11984D
BE1473CA
3DDC9ABE
3C0E1FCD
BDF08FF8
BE0A3437
3C770320
BDFA6797
BE2D36F2
3DDA5A64
BDD1F2BF
3DD3D1E0
BD8BCDAD
3D3FF33E
BC4601DD
BCAC421B
BD13C817
3C0EA45C
3D2DA233
BDDA0694
3D6AF7BE
3DC27594
BD03E90D
BE083803
BE17AFEE
BCC86F8F
BDFEB31F
3D86F244
BDB71B9C
3DE1C2BE
3D530CB6
3D445E55
3DDFDF05
BD974AEB
3D1E2F67
BE491D0C
BE74FEBD
3D279A0B
3CFA6F6C
BE3D8C25
BDE0436C
BE46D5FD
3D9EB173
BD83D360
BD8758BA
3B498A15
BDCCF28C
BD7E49A8
BCB19916
BC8B56FD
BD644752
3E3C3B90
3E279732
BE2E3AED
BDF03F04
3D770E51
3DABB7EE
BD772594
BD703ECF
BD652312
3DA99D6E
3E326DBE
BE3EA2B5
BD184833
BC2F153E
BD2908A5
BE727327
3CE6AF0E
3D7F6902
3D5EECB0
3DD2E8CE
BE02C122
BD73E2B3
3E5933A6
BCFCA89D
3E483419
3D8D07C1
BE697F59
3B504380
3DEEE360
3C8D8B8B
BDAC2F7A
3DAB9D7E
BDE271E7
BD5ADC16
3C2B9FE2
BCD0B46F
39D4E9D4
3C197A3B
3D16BCEE
BDF711F3
3E32F57D
BD55DF73
BDD74CC7
BD703665
BD9FA2AF
BC44ADCD
3D23D126
3D166C6C
BBF990C5
BDC604B0
BCE879D8
3CFDFEEF
BB980B15
BD1ED63C
3ACBE878
BE090F54
3DCFD327
BE5D78BC
3D89FB67
3DC21E35
BE957195
BD7952B5
BC88410B
3D80A744
3CB097E0
BE544AC6
BE3F26AF
3C160DE9
BE282CC3
3D32CA45
BD09AE61
BC6FF2B6
BB9F7132
3D1D1F9B
BE5CBCD7
BDB42058
BD9A5D33
3CA31A9F
3D3326D0
BD2BA520
BD2262FC
3E29EE24
BD95E7DF
3DCEE804
BDA41E95
BE2DFD03
3D81AC31
3DC80F03
BE106A2F
BDF70DBF
3D9F9E0F
BE273517
BE53751A
3D522B45
BDD43227
3E7B635E
3DDD1A6F
BDD02942
BE60D4B7
3D40B898
BD3C1AE0
BDF783E2
3D7B13D1
3DB1E081
3CA523FF
BD3FA3DE
BDE80EC6
3DD9A542
BD9F97B9
BE20BE43
3D5F4E27
BE02934A
3B5F3A37
BB3DE582
3DA33475
3D35F9C0
3E025AFC
BD1669B5
BD862B2A
BD89124D
BCBBD0CA
BCFE34D1
3DACEB3C
BDCBAF21
3D8E6EE2
3D1243A8
BE07635B
3E1A7617
3E48DC23
3DE833F9
BDB54112
3D6B5A54
3D129B27
BDF03928
3C9CCABC
3DCDBE35
3D94EDF7
BE39C24F
3D8412C9
3CB9DA0C
3DF8F62E
BBBD7366
BE1CB9FF
3D79E444
BD6CD7C3
3C158F12
3D1A160C
BD35E2BB
3DC37021
3DF19383
3DDE5D0A
3DB9EF91
BDF5DD64
3E3868AC
3DAFEDF9
3DC0D47A
BD19BB99
BD9FE3B7
3D1BF06F
BDC110BB
3DAB1065
BDC98F24
BD991834
BDBC6851
BCC4D71B
BD64402E
BE0BE28C
3E2D6B27
BD7D0A93
BDDDB1B8
3D406246
3CD08346
3DDE0956
BD821290
BD8709CF
BCDF4B60
3CDE52CB
BE072A2A
3DC8500E
BE1352E1
BDFB3F5C
3D844ADB
3D26B6ED
3DFA0B5C
BE112C70
3C79CA96
3D010A13
BC17EEA0
BE190B88
BE40144C
3CBD9A2D
BD832ED8
BC2A82A0
BC546186
BC8ECFC7
3D9F1358
BDEE7342
3CD0F3E9
BD4BCE8E
3CC2D2F3
BDFA2A8A
BD5A2F5A
3D29414B
BC60D300
3DA8BDAB
3DBB4C37
3E2BB0C5
BDFBA3E5
BD4E86BE
BD1FE373
BD983B29
3DBBA2B8
3A288A85
BE2F8226
3DD41078
BACC58BC
3DFDB2BB
3D88E6FA
3E0E99B1
3D172B2D
3DA9E277
3D08F940
BCD9EE60
3DAE0EDF
BD72B2A1
3D8A4D11
BDB4C5B7
BDEEAF24
3DC4D325
3D8C9F27
BBD6C43B
3D512481
BD810172
BDB847AD
3B9B33AA
BE145DE5
BE3576CB
3DBFC6F2
BDE91424
BD8D9BF5
BC8F4693
3DB22965
BD167A25
BD186688
BD26F117
BD19D050
3C64DB00
3C777501
BE109D8A
3E226B42
3E6DDF68
BE36C24E
3DD14462
3D0A3824
3E788B97
3CB04B7E
BDAAE2EF
3D8BD3BF
BBF71F25
3C9A6768
BD15F341
3D1EEBF7
BDC5CE23
3D3F0C52
BDCB543D
BD2A0E4C
3E0EF55C
3DBB9246
BDCE5C61
BD4031A2
3C8D98DA
BC6B5D6D
3D9B5E50
BC9465F3
BD0230BE
BD91E4C6
3D3C8FDA
3DCA2EC9
3D13CD2A
3D1DB078
BDD27A81
BD45A0CC
3E4D377C
BCA9EE60
BD7B1D30
BE6386F4
3D12586B
3C69C47E
BD90FFD1
3DFABD6A
BE06A390
BDD78F3B
BD1D93DC
BD431A12
BDA797D0
BC9BA6FF
3D9EF338
BD953BC0
BDE73326
3E504239
BC664BA5
BD30F2B6
BE0A7FD5
3DCDBE87
BE082669
BDD258B4
3BDA5AA5
3D4FA683
3D16713F
3D74AC37
3C18E39E
3E76C7F4
3C95DBD9
3DC97501
3E05DE40
BD7403E0
3DE9BBD5
3D86DAB2
BD95FD3A
BE107939
BDCD2785
3D97AD34
3E1ED802
BE185995
BD54EDA1
3D24D886
BD8C3846
BB6A3C3D
3E364275
3DB4FA06
3DDA7F9C
BD7F3886
3DA1EC6B
3DA22E07
3BEE7A29
3D81C0C7
3E2095BD
3DA73F05
3D531400
BBD70840
BBD5C0E4
BDCF9D96
3E0BF2CB
3E2A1962
3E0DE9EC
BD7585A7
BE22A53B
BDA9EA64
3DCB301F
BD8A5AB3
BE14D7C1
3D4AC3C8
3D625429
BCF2901A
BD720539
3CBA40D7
BE22749D
BD04F224
BD0C8413
3D8BCF22
3C0DF910
3DA485F7
BA3FFEE7
BD818901
3D6BC67E
3CB2D3F2
BDAC537C
3DD230B5
BDA41CB8
3CB32A1F
BD126A50
BD1FBEF0
3C719669
BBF83C6E
3B418ECD
3DD58635
3E6C97A1
BDCA18EE
BE25CB78
3E49BAFD
3CEF0B43
BD4275D8
3D378F1F
3D9812E7
3D97ABE6
BDDC9EF3
3D793E25
BDF0B7D4
3D8658EE
3CA1320B
BCA41971
3D8BE1C1
3D087444
3D66B936
BC9E71FA
BD8F8B93
BE0FF347
3DD1F834
BE260257
BCB519AF
3D658208
3CF0D7DE
BE4E9030
BD828A6A
BDDCB7AA
3D61CB07
3E44E1E7
BDC7F765
3E7380A2
BD8847C9
BE2E5D65
BC93DC20
3D531BF8
3DAD5D63
BDCC746B
3E807223
3D921062
BDB2341C
3CB33E6D
BDE488A5
3E0A25A6
3AAD8A45
BD1D4E61
BCD1B981
3E3987F2
BD0C1B97
3E0F800B
3D6FA28C
BD932F84
BD39806E
3BD05DAF
3CB1B2AA
3DC832BA
BDBD7EEC
BDCFDEDE
BD41CC4E
3D489C8E
3E0AF363
3E0DFAFF
BC10D218
BDC0476C
3D0DCB76
BDA83E93
BD341A45
3DAF04DD
3E12D399
BDE837E4
BD5055B2
3CCB0FA6
BDF24B62
BD5DC006
BE294C0E
BE2011A9
BD24972D
BE00B98F
BDCB0711
3DB6E05E
3D88E0DB
BDB6A803
3DC7AB71
3CE15F4C
3D0A082B
BD71E9A7
BD828ABF
3D501D64
3CACBB84
3D9C3787
3DF43D26
3E31393C
3E20633A
BDC60A9B
3D935DB1
BDE5231D
BDB223B0
BD3B8CD2
BDA1F9C9
3D742DE2
BD8255D3
BD95E208
3DF2D275
3DA4B56A
3C3AEC3B
3E362040
3E54A2F4
BD93DE32
BE274FB8
3E14DDA7
3E478F6F
3D22EA70
BC1299A4
3D07DAB5
BE152F07
3DE65FDF
BC84CE49
3D0ECD08
3D327A25
BDE68339
3CFC07AF
3D02B159
3D9C4BD4
BDDD1DBD
BC9C932B
3DB28EF6
BDBD165D
BDBA10ED
3D1BC30B
3CD93382
3D1828A0
BC97FE58
BDF162AF
3D28A9E3
3CAE68B6
BD9B5807
BD8262A7
BD314755
3DDA3F79
3E314A7C
3D90C9A4
3D4E7116
BE0723BB
3E0B0902
3D6DB8D6
3B0A0FE4
3DC7FAD0
3D26E80F
3D6E43AB
3E127752
3E3080D9
3D8FF5D8
3CCEF0EF
3A8D0329
BE3D1BC4
3C56E714
3D4F690A
BC5BD9AC
BDA339F4
3D167974
BE3EE067
3C1EC228
BD47EB95
3D0141A0
3E26F1E7
BD2D326A
3CBEEC6A
3DE0EC00
3DB7EB56
BDBBC188
3E45E162
BE60118E
3C861B68
BD440A7A
BE3413C6
BDEDCECB
BDA8EFA9
BCE5BCD5
BD6DC782
BE281DFB
3D153FC9
3E1521C9
BDE4343E
3D130158
3DC31E60
3D9D32E2
BD2EA752
BDB9A33E
BE013511
3D476C31
BD0752CA
3D5F756F
BC06AF56
3DD17410
3E03683A
BAE39D30
3E3AF587
3E349B72
3DFF36F7
3DB1E9EE
3D7BB13A
BB52E6D5
3DBA405E
3D00788F
BE3A29F7
3E227CA0
BB7E1C12
BC9EEB2B
BD7A93F9
BD0215A0
3E45061A
BD6CF1C5
3DF19439
BDBEDCF5
BCA886FD
3D443140
BDBB31F3
3DBF8DAC
BD9E34D6
BCDF2434
BE7312CA
3D4700F3
B908965E
BD572E9F
3B161376
BE28F8D7
3DCBF8CC
3B648C81
BD23B841
3DF994B9
3E043A72
BDE20F53
BD9A592B
3C73A261
BE808E52
3CF8251C
3E615E0C
BD96378D
BE1293DA
3C8909E2
3E1ADF03
3D8B4803
3DBF33FB
BDFE433C
3D8A0479
3D635B05
BDEE02E6
3DB27005
BD94F8B7
BD89117B
3D8A945F
3D9945B7
3CA2849B
BE3AA4EF
3E57B468
3D328DF2
BE480A4F
BDD1CA7B
3DB1A56B
BE2E8E89
3DB245A8
3D0B242E
BD8FA39A
BD60B982
3D21F329
BE097DFA
BE1D0DCA
BC990E13
3DED2460
3D1EC6A1
BD3C07E9
BDDB6EDF
3C53A7A3
BE08663D
BC1E1262
3D9FF907
BE0DA511
BE2BFF0C
3DEA930E
3C54DF60
3DBB9193
BDF86E33
3D9C0823
BE2D6AB1
BE44ED8D
BE1FCABA
3DBE3406
3E658C8B
B77B62D0
BD0ACD02
3C92E060
BD29482F
3DEA7631
BE8AE43D
3D1B9148
BE22E0C9
BCD2530A
3DB05152
3D4FCAB4
3E3E4D5E
3E08DA71
3C288F61
3CFCE321
3C5A2237
3DDEC964
BD86C5F7
3D510B31
BD7C9839
3D4EEFA5
3DAD5E6E
BD6E80A7
BE04B42D
3C891130
BE06F650
3D962C7A
BD8D7C4E
3D5D7AD6
3DA2331C
BDE7C0C3
BCC1EBF2
3DABF428
BE21B175
3E2A27EC
BE1116D1
3E1947AB
BD57ABE2
3DED14D8
3DE67B4E
BE4F868F
BDF59886
BDA83328
3E0E943A
BBE23469
BD9124DF
3C1BAED6
3DDA4B87
3AF77C14
BD0F848F
3E48A9E1
BE244CEA
BD0F3DB9
BCFA9CF6
BD6EE946
3DC44E0F
3D9A01E8
3E049CFC
3D747408
BCEA95A2
3E490A54
3D356460
BDE031D1
3CE138C4
BD9D67B6
3E20C51C
3D4EC512
BE81C3D4
BDD412C6
BB31FF03
3E069A9A
3DA0D5C8
3D0D575F
3BA97790
3E98CF08
3E0B70ED
BDDCEA64
BD55578C
3D2213ED
3DBD2A34
BE1E8354
BD980509
3DA705C3
3E448C7D
BDD974F2
BDD747B7
B9A25728
BE1015D2
BC0ADD95
BD368EC2
BD7CAB0A
BDF28888
3CE0E6A1
BE0896DB
BE825219
BC4DDE56
3E3149B0
BD5FF12F
3D485A76
3DE12B64
BDE1504C
3BC4D1FC
BB6518DE
BD84F039
3E606468
BBE38F75
3E48575A
BDAAB67D
BB619FC7
3D46B196
BD10C9CE
3C9E7741
3E067D8A
BC5D4FAC
BDA47426
3C0E8C32
BC901361
3E723729
BDAF1AF0
3DA9CD72
BD57F620
BDE64964
BC29DCE7
3D432815
3D20B81C
BDCA6988
3E247B28
BE1CF0B5
BE1F32F5
BC59230F
3D66A95A
BCDF99E0
3DA7F48B
3D1A60E4
BC62D365
3D6C579E
BBC17BF8
3E43B479
3E5A856E
BCD0E936
BDDC7DE5
3CD34B0B
3DD7FC8E
3E424F03
BD87BCC5
3DB7DCA0
BD81E823
3DBDCDB9
3C94B367
BB8685B9
3D2C1D9F
BD0B1382
BCCCC8D0
BD7C36F5
BD75C499
BB8DD814
3D8D226D
3E171F27
3BC9085F
BE0CE639
BD98B36A
BD06E356
3DBEDDFE
BDB86304
BDE7FC8A
3DE6592E
BE43C0D1
BB0800D6
3E0230D0
3D5B55A9
BE06A320
BD085336
BC679F17
3D894B76
BE32C233
3D001570
3DC5DB91
3E01DD0B
BD0ED29A
BD8BC1A1
3D904779
3DD71EFC
3E17CE6F
3DCEDFA1
3D090345
3DA294E3
3D71190B
3E01549E
3E1AC70F
3D558B2E
3D0A5768
BD2856C2
BD56C16B
3E097978
3B97A790
BE4B4F54
BD318F48
3AF4F048
BE50032F
BDBFF764
3C6358B2
BDDDEEA9
BE913B26
BC6A2B23
3D54742D
BD83069B
3DB75106
BD0104D7
3DEC2B65
BDAAC582
3E1B86E3
3DC2462F
3DDF29CE
3DF48408
3D4281D5
BDDBF93C
3D8F7D1B
BE02767A
BD02F620
BDC25E50
3C976DD2
3D7E6463
3D2BF33B
3E1FF21E
3D96B045
BDDE5298
3D5DE6FD
3D56CD80
BDADD61C
BE8B4B97
3D155F83
BBE8BCC7
BB1448E6
3CD48FA6
3C77832F
3D8D09EC
BDE5326F
BDFE75CD
BDA3C035
BD913DD6
3C94D5D2
3D64FD51
3BACA44A
3DE405F4
3DF73F7A
BDD0630C
BD65575B
BD7CB276
BDC980A8
3DBD86E3
3CCF2419
BE5612B6
BD3C5A1D
BD976970
3C218FDB
BCCDE5C3
BD8DDE63
BE36F5CE
BCDFF500
BC0BE760
BE05C475
BDFEA310
BD1B28C2
3D8ABDF0
BE14AC6C
3CEFAB5D
BD6E7914
3D4BD984
3BE3CC94
BDBD6B8D
BC86B22D
3E03774A
3D8857FA
BDCB9F40
3D96C503
BE00DB18
BE038408
3DA8E72C
3D3644E0
3DDD3FAA
3DE42D00
BCD3C999
BD47BC0C
3D9806CA
3DE22A3C
BD9308DF
BDBBEA7F
3D384B5F
3C99DBAF
3DADD20C
3C82B411
3D47D3A0
BC5823C3
BD9FF179
BE403062
BBE7480C
3DAE4C30
3CAEF483
BDCD2CDA
BE131E15
BDAADE35
BDF7428E
BDA106DF
BDE68B60
3E0F157C
BC5FAA23
BE07725A
3CEA6EA1
3C33AA20
BC9BAD55
3D87BB59
3CAD7EB5
3E0C57A3
BB6CEDD1
3D05A5F0
3C927622
3E3BFEB0
3CE1EC7A
BCF14136
BD2A7F8E
3C6E73C4
3D811E1C
BDDA1C53
3CCCA0C7
3C5DC482
3DB5D8EB
BE7D5398
3D0EFABE
3B8A1E86
BC1A3A0A
BDFA0569
BD053215
BDE87D26
BD513DD6
3DFB7B6F
BDA34ED0
3D802D67
3E0883C7
BDAC1020
3E0A56D0
3DAE0E77
3DDABD61
3D7F234E
3DC2916D
3A88A378
3E00EB47
BCE53835
3C689DCA
BD4B932F
BD158ECB
BDD26EF6
3D1368D7
BD75B3EA
3E8A9D74
BDCE0836
3DB6E463
BD1B8216
3E89E70D
BD939621
BD3E4F1D
3CECBA1F
BDB8C397
BDF420C3
3E05C205
3D1F6AE5
BBC64C60
3D401566
3E17C9A0
BD3546B7
BDE791E6
3C001ED7
3D8D53CD
BDB18B02
3D5CA16C
BD261EE0
BD637B30
3D6DC10C
BD375C44
BBABFE1F
3E44CF0C
3D16D4B0
BD21D279
BE17B205
3BDC4A8E
BD6B61AA
3E10C6A6
BCAEA2D8
3D9C3EFC
3B156543
3E0195D1
BDBACEBF
BD0985B6
BD236336
BDFACB57
3C998694
3DA4FE44
3D792EA5
3C67968A
BD8FCD59
BE86134D
3D2462CB
3DCF2127
3DA2B982
BE0FF856
BD95CD75
3DE94E06
BDD0369E
3C777E68
3D2A14B8
3E4003D5
3DE060BC
BCCFB22E
3D79C00C
BDBE1F5A
BD09624D
3E0BFF4A
3E88E95E
BDA4B244
3D98D2EF
BAB658E0
3E2CA83A
BD625B4B
3CFD4FFE
BD24BC1F
3C4DE703
BD365962
3DD3E4E3
3E4EDEAC
3D9A63F5
3DF2A972
BE7CD79A
BD3ABA7D
3B280575
3DF8AC5C
3DE0E401
BC845FB1
BD3ECAD9
BDE78FE8
3DA7B3B3
BD2F89F1
BE003213
BDB25E4C
BC5F563A
3C81CD61
BD8F8AB7
BD575ACA
3E2FD2A9
BD42FB29
3D2F9B53
3DA6EB09
BC996FEB
BC8E2DCE
3D4A484E
BB8537CF
3E0F7951
3C6316DA
BE019AEA
BDC25AB5
BDD1954A
BD3B9531
BD82BCFF
BDEB9AB1
3C079490
BC327468
3D19A226
3CA1A72B
BC8F96B0
BE210E40
BDD92893
BD850154
BD4A0758
3E0AD96F
BE38E829
3DBCDBDF
BCCBDE70
3CEDCF9B
3E0B98CC
3E32FE06
3E604983
3E461954
BD4AEE5A
3D2BBBB8
BE246CF9
3DD20AC7
3B729C25
3D34013F
3D977661
3DB045CE
BE22497E
3CDFCBCF
BE0EF5C7
3CB804DD
3DE687B4
BDC0168E
3E2BEE91
BD08E36E
BD10855E
3E1D35F4
3D5B0303
BE0AB32B
3D7DDC6B
BE0637CC
BE2446D0
3C50FC52
3E369EB2
BD441031
BBF7C8EA
3CD03AD4
3CC07AF0
BA80731A
BDF8AA9B
3DAC2091
3E15611D
3DDD0F8B
3DCAE306
BB0F276B
BD39C1E8
BC9EAB64
3E3464F4
3D7C0823
BD168EAF
BDA71951
BC9CEE2F
3E689425
3E2F8525
BD62FE7D
BC98C426
BDB44A2A
3C19519A
BD3F0FE4
3E1D054F
3D7F2D44
3D9FFD05
3D35A482
3D420074
3D013532
3CEAD8BC
BE17672F
3D07AD17
BD4F941D
3B825CFA
BDD74D79
3D432A98
BC525746
3DC3DD0D
3D26F8A9
BCC3F13D
BC7AE407
3E1BF29F
3D8C3BCC
3E3C4202
3C966B4B
BDE14985
3D7F937B
3D46D4E5
BC65D93D
BC8A86F5
3D11FDE6
3D9787A4
3DF9D5D2
3DE05874
BCF2987F
BE21843C
BDBEA4A8
3DB1B7BB
3DAC1109
BBE96EB5
3E36208F
BD8AE5B1
3D648A0B
3BE3436C
3D37C12D
BC8DED6C
3E0093C5
3E015A54
3D5C218D
BC99D43D
3DFB86A2
3DDA0E75
3DCE293D
3DD37212
BD32C972
3C853246
BD49D9D7
3DE4B3EF
BD906BAA
3E821294
BE0ADE80
BE121F1C
3DB225D8
BCFDE4EE
BD7D880D
BDA3F484
BC84B282
3D0AA4FD
BD6D8FEC
3DC4FE18
BB6341BF
3B0ABDA2
3D904962
3E0C0865
3D369DC5
3DAAAC5F
BCFA493A
3DB02145
3D113D43
3D9BA38E
BC115014
3E1D7727
BB706E07
3CBCA804
BD171FC2
3CB30638
BDEF459F
3D3A5E03
3DDA1A27
3D2C5054
3C1B3584
BD0A65C3
BD9B2040
BDC12EA9
3DA7EE09
BD1D6BFE
BDAA4817
3E0DABB5
3E36DEBD
3DB50CD6
BC5CDE9E
3DE9F1C5
BDAAC265
BE38A84A
3DEA777D
3D99FBB9
BCCB8483
3D4BA26B
BE6534B8
3AB1E89C
3DCBE19A
BDB0FB57
3D77E192
3DEF0C9B
BE26F63B
BD476C80
BCB7CF60
3DA74E8D
BDDFFF0D
BCCC7998
3C8E6F37
BE0271D8
3E0CC61E
3D96180E
3E5E8CD1
3D069AE6
3DC7ED45
BD54A557
3E4DECCE
3D427875
3E039227
3DCC1E02
BD44F0EA
3C39EDCA
BD3FF4B9
BD845AB1
3CCC564D
3CD93759
BE30AC58
BDDB5EF1
3D28E43D
3E0E522C
BB5C1E92
BCF7B0A2
BDBC0D6E
BD191B4D
3D5F8B31
3E0966D3
BE0332E3
BDFEA259
BBC9CDF5
BE84B95C
3D1A3885
BD11317E
BDD998FD
BD837A11
BD7F57C8
3C4C68F6
BDAD3468
BD37D4C4
3C425EEE
BCE8AC13
BC9AC070
3D8064C0
3DC70DCD
3B1115B0
BD91CCC5
3CBEFCA0
BD112C37
BA26ED6B
BD213195
BD3C94F3
3D4DE492
3E50BDA4
BD6EE6D8
3D194AAC
BE6C1667
3E10488B
3CE0F793
3C2B6C2D
BDEB2E83
3DA383F4
BD4506B5
3DD7417B
3DF33C98
3D8203EA
BE203BBB
3DCC786D
BE16B497
3D2500E9
BD4DDD44
3D89E20D
3CF1B238
3E496173
3E00EA4A
BB0F1C72
3D313819
BCD418C5
BD266CF8
BD1C1E65
3DA52F8D
BD24EAC7
BC58D5B0
3DA85515
3E5FBE25
BCF13D93
BCBD5798
3CC20B9C
3DEC286C
BD912AF6
3E0E392D
3DBCD228
3D318663
3DEC99F4
3E574808
3DC2DAF5
3C7E3352
BD8BB23A
BE05443D
BDD2EB80
3CF50653
BD4923F7
3D400EB4
3D40045D
3DEDAA16
BE7C5C40
BD0E6A98
3DE3AB8A
3E0DDE1C
3CEAAD4B
3D6CC95E
BC2F1642
BD61A7A5
3E1C935A
3DFA868A
3C332B2F
3C86ED78
BDCF07F7
BD2EB812
BE065B13
BE9324D5
3DB55CBF
3E0789CC
3D9AD1BC
3D092E4A
BE0F4636
BCF88C89
BC3358DE
BDCDBA91
BD0DA9EF
BDD57E57
BCB99004
BDA4A212
3D9B6A01
BCD1A80F
3D86E7CE
BD521CED
3D2E5330
3DFCC118
BD03EBCD
3DCF2B06
BD6144B3
BD2D8002
3DC3705F
BD7F844E
BCEC8083
BDD99673
3E0FEC1C
BD213479
BD6AAB7C
3E02419E
3C978187
BD5565FC
3E5A1DAC
BBC7D8DD
BC3B0844
3D42BEF8
3E1FF4DF
BD56CD14
3E33027F
BD0FFF89
BE047719
3D29A70B
3BE5CA7B
BCF879FF
BD1E992E
BE1DF163
BCA629E5
3E105E5F
BCE7B2CB
3D68FA1A
BE6076CF
3C6135BD
BDC1BC9A
3DC6F677
3DEE400A
3DA95D37
3D682A6F
3D359018
BDDAD01E
3C353D31
3DB525BA
BBE75344
3C45871E
3DCC695B
BCBCF4CE
BDFB28CD
3CB84867
3E1A74DD
BD8B42E8
BD86D117
BDC30C09
3D489D8B
BD90A8BA
BD9E782E
3DF3AED4
BCB90C0E
BCAB8A03
3D347BBF
3E10D424
3D18E9C6
3C3DF032
3DDDD6A9
BCF2B821
3C090279
BE0047D5
3D839864
3E0DC52E
BE3588F2
3D5E06EA
3D9209C4
3C092943
BC2F7959
3D13C5A1
BC5FDFEE
3DB641A6
3D87381E
3DDC83A3
BDFC1E8D
3DF5C4CF
3D9F118A
3D007D78
BD3712DF
3DE075BB
3DFE8932
3C824CEC
BD4D94CA
3CC25201
3E00D620
BDC5DA66
BDAFCF42
3D46B097
BDCDAD61
3D4D2203
3E0C7D90
3DF3BF0D
BDEDC1D7
BCE629A5
BE04D0C9
3AA784CD
BDA99A1E
BD4E0718
BD030E91
BDA545F8
BDBF544A
BCF5327F
3D9ED9BE
BCC99134
3D2ABBBB
3D3B95D5
3C3443C8
3DF0D166
BD79D72D
3C9FAC7A
3D121A11
BCFAAA60
BD9E9A56
BDAD3839
3E24A0FC
3CA3925A
3DE148BF
BCB3436A
3DB2C5DA
BCBC02AC
3DCB585E
BD8DF631
3DC4E58E
3CBAA97D
BD4DC75D
3C56FD43
BD4CBB02
3D7895FD
3D485B87
3A8242B9
BC9644BF
BBD97FD3
BD2DDC84
3C775362
3D2F8E3C
BD0A5375
3DD5358F
BDA3421D
BDE2710D
BC8AEA83
3D04DB43
BE408ED4
BBD46B95
BDD47F18
3DB30AFA
3CC2C17F
3DBFAB1F
BD771A7F
BE780F82
3DBCD3AE
BD2C2CA2
3DB66C95
B8EF23C1
3D7268C5
3DCE50A5
BD9802F8
3D8F4B47
3CFC4087
3D05CBFC
BD421E20
BD6D4C44
BD269E5C
3B1F7F82
3DF12EFB
3DCD943F
3CE324B3
3CC6A9EA
BDCEBC97
BDC38F0B
BDCD1E53
3D8621FC
BD87ED7E
BD035460
BD9E60AA
3DCFA978
BE1EE3A9
3D565333
3D09CE29
3D483798
BCA0D4D3
BE25C3E3
3A2702AC
3CCE1F8C
BD94401D
3CC29C6A
BD686AC2
BDC720B9
3D4332A0
BC7D75D7
BD8A5B13
BBCF19C0
BE044AAF
3DD4B97A
BD38C0A0
3D09FF83
3BEE1280
3DC0A3D1
BE0E1212
3DC25937
3BE31B00
BD00DCF2
BDF95C14
BD016AEB
3D2DA609
BD661520
3DDCC904
BDA1F535
3BDD6B5A
BDDC5E00
BDE60B90
BD80965C
3C7E8100
3D591F68
BDF301A0
3C0BEE56
3D231A92
3D5AB0E8
3DE32868
BBFE8B39
BDE1CB26
BDE17F32
BCD82A40
BCB29470
3D357279
3CE8ECC0
3D5BE6B4
BD887B9D
BD6A990E
BDEC2F9F
BD722CFF
BDCDCB18
3DA4C074
3DA1AB39
3DC40EF7
BDC16C48
BD394950
3D784610
3DAEC3B9
3DF7B6E0
BDA8712C
BCD0EC9F
3DD90569
3D9D1DF8
BDB8D7E0
3DAFE5C4
3DAB2E6D
BD1FA31E
BB25422A
3B8D11C0
3D71F76E
BDF12147
BDEFB2A4
3D6FB5C0
3CB71C10
BDCFBECE
3C2B2EA0
3CDE6F3C
3DBC5320
BDC6A66C
BC7587CE
BE098D0B
3D676EE7
BD3D4820
BC4D81B3
BE0A95D4
3DD48238
3D86FB51
BD5126A1
BE0D3E55
BD1E03B2
BDF6B4B0
3D97B51C
3DBF2F89
BE039DFC
3DBBB224
BD379013
BDF3E748
BD08D277
BDB5612A
BDF77FDC
BD4BCD30
3C8EA94E
3DC208B0
BDFA923E
3CD76BD3
3CCDB0C6
BD8E3051
BDF7B13D
3C21B9AA
BE03583B
BE001A71
3DEAF574
BDB41BAD
3D832164
BAD61300
3D337D4B
BDE15F37
3DCBDA73
3D866981
BD0A1258
3D5309B8
BCF49D9D
BC240652
3D74AEC7
BCBFB78C
BDFB2B6C
3CFB9508
BDC32E86
BDD105F6
BDD7CFC9
3C9784A0
BCC07DCA
3AEB3064
3D9824B7
3D5EC28F
BD48B504
BD63E3C6
BD3A952C
BD1127B4
3D71B785
3D2C274E
3D635197
BC7C8B62
3D676C52
BAE151E6
3DD3AA58
BDAE64AA
BD8DE5E9
BDC6CB01
BD2657A9
3D851F1B
3DB17D81
3D53120F
BDC7806E
3DA99381
BD55EEB4
3DB1C60E
3D089378
3C3E631F
3D874762
3D7452C3
BCC176D8
3DA4A583
BD706CD4
3DC7176C
3CB88857
3CC818BC
BD7D7574
3D645E48
3DEF1CCF
3E30B65C
3D384280
BD76B00D
BDEB9F8E
3D2C99ED
BDC5711D
3DDFD8D1
3E183D7F
BE170427
3D9ECEEB
3D87B650
BCB9E4BB
BDA35DF0
3DA86380
3D6B7448
BD16D757
3E332A72
BC24FA89
3CED12EA
3DC77214
BDB349DE
3CA3A26C
BCD8C798
BD91B5F4
B985F186
BDEDCCAB
BB8366CF
BBFB1683
3DBCB651
BD0B38A9
BD4596BA
BD8332B1
3E173B08
3D9D1FAB
BD2708B3
3DB45C18
BC7E7065
3BA4D5EA
BD342ED5
3C335C4C
3C6106CC
3D31B2CB
3D3BF419
BD68E061
BD97078D
3DCD6613
BC5A3E5C
3D5249D6
BD90C73B
BD948873
BDDA6B08
BB451D76
BDC4151A
3E1AF3BC
3D9E7021
BE0D74D0
3E012BC4
3D15B110
3D9B242F
3B0B5163
3DFCF99D
3E021F75
BDAD3DBA
3DE2D64E
BE4CCE6E
3C21CD42
3DD366A7
BD33B9E7
BD6E1585
3C6971C0
3DA15FCA
BE40D333
3E04AFAB
3D3A89EC
3E2BB2A3
3CF8FA63
BDC52A17
3D76FEE5
3C5391CD
3D6E5DD0
BD2145EE
3DA5729A
BCDE3E5E
3D97A890
3DE0C673
BE83E544
3E046C79
BC8EB7AB
3D108576
BD8339FC
BDF107A6
3D922535
3E0D6F91
3DDCD918
3CEEFC00
3D96E00D
BDACEDD4
3CD2DE8B
BD486D27
3D604634
BCC717A3
BCC6100E
3D9A71CF
BD7E244A
BA4C660E
3D89BD5A
3DBF495F
3CDDEB6F
BD7138D9
3E06E899
3C1C4061
3D0DBAA7
3E3E2BD9
3CAEBF34
3D1147B4
3C45E4DF
BD0444D8
BC844E7E
BD832551
3DE197BA
3D989630
3DC77D64
3D450BEC
BE29680C
BDB48035
3CC2BD7B
3D6F6CE2
BD8686F6
3E20CAE4
BDC8929E
BDB5EF2A
BB9A7EF8
3D8E1EBB
3D2F295A
3DC64647
BD982296
BC5D75F2
BCB88441
BE6D97C0
BDB04F70
3E24588E
3DE0CB3E
BDA773B1
3D9412DC
BBD4FA65
BE37D350
BDD25DFE
BDF22073
3DFEA0EE
3D6E2D2A
3C8BC999
BD314349
3C7A0954
3E189C2B
3C6A7379
BDCFA9FB
BDD6A223
3D43EC11
3D43187C
BCEB065D
BCACE731
BDCBF308
BD3D3D8B
3D8A375F
3C0156D5
BD93A747
BD194DEA
BD4915E8
3DF9D7A7
BD9A1F6D
3C301F54
3DF3880F
BDE77539
BB43A327
BE02C1E1
3DB99D1F
3DA92EB2
3DD6FB4E
BD9810FB
39F7BAF0
3DCCFB6F
BDF64AC5
BC7E95C9
3D616E96
BE013259
BCD24FCE
3E1EAFD3
3DC38E08
BBF98B55
BDA4B4D2
3E046A80
3D84FB71
3D2C5CC1
3D4C7E30
3DC640AC
3D62C958
3DA97146
3BF30FBC
3DC219CB
3E5A6BDA
3DFD95DD
BD6DB36F
3D3F61CD
3B508724
BD3439CE
BD2CB8C8
3B5AB9BB
3E02012E
BC3832B6
BD525AFC
BCF9DD82
3D59B012
3D84FA50
BDAEBD3E
3DE34CD6
BD4AFDDE
3D1757D1
3DCB5B1D
BBC1CBFA
BD66B1B2
3D47627F
3C7B9875
BDEFF17F
BE066E3E
3DEE6C10
3D88D3BD
3DA181F5
3D7B7718
BDC27ED3
BE1A00C5
BDA2AA80
BE0420D0
3D4D48FD
3CDC9613
3D96C7A0
3D869E3F
BD9C2323
3D10C9F8
BE10AC27
3DE8EE54
3DE5DF74
BD96064D
BE1E6B11
3D405099
BDB80EA5
BB92C2CB
BD0AF360
3DEB8500
3CE14373
3D5353F0
3CAA6E0C
BD67EA7A
3BD5FF13
BE016089
3D780D94
BDDE1548
3DA10103
3DDAFF3D
3D0556C0
BDA197C1
BDEC787D
BC6B1A17
BD60C842
BDA2B7BF
3DA9DD79
3D478204
3C315BC0
3C2A4393
BE0C0D82
BD2B0220
BDEC9EA8
BD2B2842
3DE77BCD
3DA0252D
3D2B448C
3D9CD25A
BD9AC977
BE0DBA07
3D2AB958
3DDEACB5
BD9EEBE7
3B45D466
BD8F7263
BD7D06FB
3D942B4E
BDD1CEE7
BD6125FB
BD12C75D
3D833D55
3D5D2C08
3DE7312A
3D27DD10
BD7A117D
BDA95AD0
3C3FCA6E
3CEA8B0B
3DFD32FB
BDF53651
3DDA4C6A
BDAEFDC0
3D84AE58
3DA8FDE4
BCCC573B
BDD66CFD
BDD65CF6
3DD6880D
BC703642
BD6AB3E1
BE06BB77
BDB5828A
BDC631B7
BD409599
BE11B3B8
BD742D77
BD74DDF1
BD9D3BAF
3E099210
BD5BA7D2
3D797D9B
BDD3FC5B
BDBEEAB1
3D89825D
3DA6544C
BE17ED13
BD4BB9BD
3D89D4A0
BE138711
BDD4020A
BDA6147C
3DA3D2B4
3D66B789
3CF0E76E
BDEE4BE6
BB8DEE1B
3D5F2D94
BD204C58
BDFFB535
3CD1735C
BDB6C460
BD3495EB
BDB8081D
3DD1CF7E
BC91E5C2
BC5B9E20
3DAB9064
BD8D4800
BCA41483
BDA609B3
BD82C13C
3DD88029
BC391318
BE02EDA0
3DD6E0D8
3CBA7F4F
BDFEB10B
3C6F8FCD
3D13DDEC
3C7CB3A1
3D49C207
BDF7DE62
BD717319
3DAE454D
3BFBF4AA
3D523BB0
3DB21089
BD8F845F
BDEE7BDA
BDCF164C
BD03C691
3D6E4E8A
3D241C90
BDAA83BB
BDA04A10
3D252BE3
BDA2B314
3DD7FE10
BDE5FBA1
3CA335DA
BCC2FA9A
BD98EA24
3DBDECB3
BDF4275E
BD828224
BB4F6100
3DE374AA
BC80F0CD
3D95D848
BC93FCA9
3CE10EFF
3D9F8E20
BC934308
BD96C1BA
BDEC6239
BD43AF83
3DD96DC1
BDF5067E
3B5E2CE0
BDF5DE48
3DEF47CC
BB6D0CB2
3E0DB84B
3C571620
BD02B842
BDB0DC7B
3DA4BC22
BBFF8789
BD2178D8
3C8F03D3
3D41F91A
BDC1C3D1
3D840504
BDCF7343
BC34949B
3C7366CC
BCEBB420
BD2F4C4D
BD6DF355
BD885CBB
BE09C071
BD83865C
BC0D2E3F
BD15BE07
BD983CB8
3CE040B6
BCBAACD0
BDDECCED
3D2CC4E2
BD9AE961
3C29BB30
BDC00A5A
BD4E824C
3C092FA4
3DB546FF
BE178553
3D8E1B2A
3CA8C786
3DB27599
3D993155
3D062007
3D95015F
BE047B37
BDE1305B
3CA8428F
3D99E9EC
BCF933E9
3D9593D9
BCFF6A9F
BD284DA6
BDD86B53
BE01C82E
BDC72196
BDA8B79B
BD52D2CD
3BC9B900
3D2B2DA7
3C86F2E2
3C2C144F
3D288F44
3D6DFB6F
BDE0FD92
BD77E1F2
3C3A6F34
BDD8F1B3
BDE9D26E
BDD52081
3D4E368F
BE1B7ACC
BC06C67F
3DAF2111
3D6BE40F
BD356118
BD86979A
3DB1FB60
BD982F86
3D6B1636
3D9A9EF6
BD323122
BD967E52
BDDE603A
3DC390B2
3CA76641
BDCE1EC2
BDAAE040
BDDEE30B
3D227C13
3CC25817
3B2A2209
BD64FEA4
BCC54F41
BD0309CA
3D0C9BD7
BDACB8EB
3D640624
3DF00D40
BC51AE39
3DFDA1EB
3D22100C
3D989969
BCB282CC
3D535D88
3DC793B1
BDA02A51
BDF7EAE1
3DD47D59
3E088A5A
BD2BA389
3DB0EEC8
BD2048FC
3E01C4AC
3D543589
3DA8D987
3D0B3CFB
3E231D45
BDBE445A
3DB642B8
3DC99654
BC5A19E2
3DD967EF
3E04D10B
3D021F30
BDAEACDB
3D8D37B0
BDF95394
3D4FF765
3C68D1CA
3D8519E9
3DEBFDF1
BE3FEAEE
BE27A0FA
3DB2D952
BE37C80D
3D8E0C4E
3D40BB59
3E1943B7
BE016430
BC77E0BB
BDA2EC27
3E3E3463
BD44D5DC
3DB6BB65
3DA7DF2F
BC5AE937
3DC323C4
BD7AA4ED
3D81B48A
3D2188E6
3C2A6231
BCED5536
3D87DDF8
3D99064A
BB991060
3E35CFC0
3E3D03FC
BDA020AC
3CB61DD7
3E7F29FB
BCBCDA5A
3D88B696
BC91C4B5
BD81B8E2
3DBF9EEB
3DA42991
BE011FAB
3D5DCDE6
BD992094
BC8D59FB
3D6E78BF
3CA0A7D8
BD4AA7C7
BE0D4175
3CF695B7
BD84C99E
BE0056AA
BE064074
BD16B612
BD854641
3E1CCD1E
BD763A2B
3C4343DC
3E03C92C
3E2A37B8
3D5E29AF
3D5F7791
3E49AE1E
BDBDD360
3D23B86E
3D4A38E0
BD955336
BBF01FD3
BD8B22DD
3E4C8010
BD565137
3CF11744
BD9A39F9
BD01962D
3990E0A9
3C9C8757
3E19D2E7
3D168910
BE2AA201
3CBDC3D5
BD3607C8
3E0352B4
3D02E903
3DBBE40E
BE152C83
3D7AFD4A
BDDB5CB7
BDA67520
3DF5BF61
3DE05961
BC70F410
BB580D06
BD1DA4A9
3CB5F36E
3D93D993
BBDDC2FA
BC927562
3E250B61
BDDF7442
3C1FED6F
3DF7E4AF
BDB3D104
BDB75D82
3CE1D3E8
3CEC0866
3DE35BED
3CD4C5D2
BD8DE071
BE23F6BA
3DFC4491
BD58858B
BD44C6BB
3D4913CB
BD7608FE
3DE9C938
BC891171
BD92AE97
3D7E39AE
BDBAA43C
BDE7C9A7
BD17FE8F
3D632A70
BD8EEDF5
BE2A3147
BDD73878
BD0AA7C6
BD58DB8C
3E3D3D56
BDAA7CE7
3E24F54A
3DC4C99B
BDEBF6D5
3DBFE28C
BC0F3B01
BC922CF4
3D90A28C
3D2AC9FE
3DF1EC86
3DCFD63B
3BA7E683
BC3D8AAA
3E5C2BE6
3D77D486
3D31AB35
BE12B1C4
BDF56875
3CB21A98
3DB55DCF
3BEDD856
3CE173DE
BC8D329F
BC189EAE
BDCA7813
3BF6BFDB
BDF07A18
BDAEA5D7
3D8EA125
BC990B93
BDA721F5
3C03D43C
BE35EE27
3D34C9B1
3D55D373
3DD81C7B
3D53CFF1
BCAF7BED
3DEA9BD9
BD9AB7CF
3D08D864
BABDEA33
BDB2F6CA
BC8E130D
BD4CDB72
BE1C70B7
BC921D96
3D6A3BB6
BDAE8815
BD53D99C
3CE5804A
BD9482E2
3D937D66
BD811CE9
3DE0C6A0
BDED5E8E
3DB878CF
BD649FE1
BC2D28B0
3DD0389C
BDBC69DA
BC9C6CCD
BDAF7378
3DA1191B
BD2D2857
BE9361A5
3D0C3DB3
3D2E0D6F
3D0957F5
3E0E657C
BD38B5B0
3CBE6625
3E14A348
3DA73031
3D13E1F5
3DE1D8F0
3C37F076
BD38ABDB
BDC24617
3CF63076
BDCAB48B
3D3E80F5
BC37EAF8
3D9AA43E
BD7FD62A
BCD83286
BDBD99B9
BD1FFD93
BD2FE7DC
3E040E0A
3D9FCFA2
BE4DC7C5
3E07F987
BD2CE8DF
BB04EFCD
BD3C06B8
BE3C4944
BE0155C7
3E49C978
BDA5840C
3C27639C
BD9FF763
3C968FE0
3CE7385F
BDBE5754
3CD75A2F
3DE74225
3E07A323
BD725DE6
BDE6DBF4
3DA7C137
BDA1058E
3D862C5A
3E09E14B
BC351872
BDE68DBC
3D36A2D1
BB3B59A1
3D8B4E8D
BBCA2895
3C1B71FF
3D4C5EB7
BCC24902
3E00E380
BDC6FA86
BBFE1AC1
3C2EA2B8
BD3A64DA
3DA74BC9
3BC4429D
BE31AB97
BD91DBD6
BDEC640C
3D0EAD40
3C7FA2A5
BD8F123A
3BE16184
BDD2559D
BC9FD9B9
3D50CE8C
3E04FB4E
BDC369BD
BDD1027D
BA669DF6
3E4430F0
3E31B5C4
3DADE934
3D39B427
BD8AF117
3C285231
BD50562B
BCA8049F
BDBD37DB
BD28E47D
3D90A4CC
3E0FED66
3D37C6CB
BDF82989
3E254E36
3E46E90E
3BD2E214
3D838B8E
BE3B7355
3DC1B0D4
3D7336E2
BDD071A8
BE57A8D5
3DBF9B86
BDB6EA86
BD60E6ED
3D8EFE70
3CAF91AE
BE07B34C
BC622839
BE06AF76
BDB73BCE
3DF34F28
BD92ED8B
3DC038AB
3DFF2224
3DE60E51
3E39A0ED
3D47B80A
BD690F7B
3D072CEF
BCBBC7FA
BC820474
3D865A35
3D8E84F4
3E096E82
3DFFB25C
3DE84EEF
3DF724E0
3C8BD089
BD2396D3
BD4E5B4A
BB2B0FCE
BD30942B
3E11248E
3C330358
BDA1E418
BD15C1CF
3CF932BE
BD33D71F
BDE5AB23
3D57E244
BD65A97B
BCB19B1D
3E1164D1
BD11CB12
BDBB1E0C
BE061DD5
BD811953
3D19CB5D
3B216034
BC7B709C
BD08CAA0
BD79FB18
BDEBA497
3DF3887F
3DB26D44
3D9F3045
3D7C22AB
3DADF02D
3E177C41
3CFC1173
BE105604
BC83039A
BBC97F13
3E15D583
BD6F582F
3E3638E8
BD8864F2
BDE88836
BE236037
BE0022C4
BD7D2CAE
3E21898A
BDB12451
BD88ADB1
BB1B2CCF
3DC5B92B
3C9451E0
3C6924C4
BD95E85F
BE07811C
3D39F0B9
3CB1E41A
3D2E4914
BD1EAC23
3E41AF47
BD2842E1
3A3FBF24
39B317CC
3D6B6458
BD0C421B
3D9881C1
3E72CF7F
3E3DE884
3DFDEEAB
3C5412E7
BC1BBB27
3E0248B0
3CC0066F
3E758ABA
3CE6FDE1
BD4C81B1
BD164FCA
BE1EE479
3D0C264F
3C873A05
3DED4DF9
BDA2E90C
BDA8942D
3B09A445
BD96E88E
3D46E458
3DA3297A
3D7EFF4B
3E6DE64C
BDC1BB55
BD2FD934
3DE42641
3E3D3D2D
3D9F1717
3DE38C34
3D99E0C3
BBF5B47F
BD9E8622
3E137709
3EAF5776
3DAFBF40
3DCC1E9C
BD396221
3E00408B
BD5D0F56
3E801E97
BCA0426A
BDBC4D88
BE11AEBD
3D5B25B0
3E35B08F
3C00F861
3E17CDB5
BCE36566
BD83BF67
3D1688EC
BDDF403A
BDD018A2
3D2EB3BB
3C945F18
BD441FCB
3D06EE1D
3E197A9C
BC7D87F5
BC988FA7
BDE8378B
BD56D6EE
BD085EDD
BCCF1063
3D1AACCE
BD8AB725
3E01B8A2
3DC48B16
3E133F05
3D8CA0F8
BDE7DDF3
BD1DBD76
3E8617F4
3DE973CB
3E0D13C7
3D4FBBD1
3DA8E737
BD718E5D
BDDF60C0
BDBFD152
BC5909DE
BC8E4ECD
3D5D98C5
3C4B3C78
BCF44312
BE0DA97A
BCE12E72
3DEFEB38
3DA1B4C6
3E293926
3D683937
3DE4AB54
3CF82A7F
BCEBEDFB
3D272DBA
3DD22CF2
BC8C6B52
BD502BFB
BCFE7479
3E428FD5
BD7D5516
3DCB787F
3D4DF022
3D5B99EF
BD5457E7
3DA337B6
BD5EAFC1
BDE26C86
3DB81422
3D34C167
3CBD6473
3DE926B9
3DA00CA7
BD600F70
3CDFED8A
BCBF289E
3DAFD3C3
3C864C87
3DF028DE
BE488DFF
BD861C81
3DC47344
3E2B44AF
BD3821BF
BD826045
3CCD677E
3D88A15C
3C42569D
BB7FDA42
3E256264
3E3B6E9E
3D0C82EA
BDF87BA4
BDB094D2
3D972A06
3CF51ED3
3D388F30
BDA15156
3E120D7B
BC93F0C1
3D2586DD
BC9F7D58
3DF93CEA
3B981B10
BE7D3FCC
BD8C2AEA
BDA46D05
BDA46081
3E01FF50
3CD9E5F5
3D695705
3D4EA3D7
3DCFD99E
BE148D26
BDA04DFB
BCC96DE7
3C77FC28
BD1D68BE
3D93012C
BD4D4447
BCFEE166
3DF99808
3E3BF72A
BC9DE308
BDC281B9
3DA14F91
3E15BB96
BDD3796E
3EA058C3
3C2B7B25
3D9B8023
BD87A03C
3E03E862
3E2BCFC0
3DA2622E
3E3EE1FF
3DB8E9AA
BCA29959
BAC250C2
3DFECFA8
BD8E87CA
BD209055
BDA02EF1
BE013694
3CFA7A80
BD3D4E39
3D36D4A7
3B9FCB25
BC9D422E
BE05A36F
3D2E6AA4
3DA1E9D2
BD959EB8
3D16FC1D
BCA6FDCF
3D1A6719
3D84C9E1
3D957A98
3CDA360A
BD5FB99F
3DB62EDD
BBB17A51
3D1F34F7
BCB45A35
3D8003F6
3B6A9A5A
BE05BF8A
BD9FFA0C
3CC9CD83
3DCC0F7D
3DEE9E1E
3D45C2E6
BBC0BFEA
BD8A446E
3D800159
BD9AEF1C
3D412AAE
BD0D63C7
BD6B8F70
3CCA6084
BD671375
3C932876
BC7AAEE3
3DEFE3F2
3DA959D8
3DB4874F
BE03F3BC
BD0884EF
BD3E60FD
3D390BD8
BD560CD0
3DCBF2F5
3DCF767F
3C16BF33
3D7DF92C
BD43D6F6
BD6D579F
3C1F162C
3D4E939B
3C492C73
3D9CF2CA
3DFDFB95
3BF3CAC0
3E32D1BE
3DABC6C5
BDBCF8F5
BD0CEB4D
BBE30CE1
BDF65E90
BCFE00B9
3D9153A6
3DBF497F
3D58D76D
BD474D7F
3CC67F5B
BD2DD34A
BD932635
3DD975BD
3D9BE3E9
3D5CBDD7
3D66C783
BD15AEFE
BD8B41E2
BB5971FC
BCD63198
BE08F608
3D11B5AE
BDA36420
BE32C736
3E3F258B
3E058850
3D96B471
BD27F592
BDFE1EC9
BD8ED87C
3CDB25B4
BD3C5C58
3E704073
3D74D738
BC962896
3D12A323
3DDB4959
3DEC025E
BCE6EA5E
3E18C40A
3CBC127C
3DC74FA8
3DE1437E
3DB089A4
3D218B17
3E2F8E56
3D17AFDF
BE205DC5
BDF8878B
3DC2F6B3
3CE25F37
BCE7803B
3DE3867D
BD200081
3B80E223
3E0CF104
3DD6C1BB
BD4DA09E
3D910611
3DBD5FD4
BD674B9D
BC95E653
3D8CB44A
3BBB91A1
3DD9D62C
BDE08168
3CDAE0F2
3D766C3E
3DC9C641
BD87D3BE
BC3CE7F5
3D6CD242
BDBD5675
BD548B2B
3DD43D34
BD1AA8BD
BD8E711E
3DA189F3
3DEEAD25
BD73567A
3E4A95CC
BD083CFF
3D5FBA3F
3E32667A
3E320753
3D80D67D
3C2B2F9B
3EAFA910
3D9459DD
BDDF6018
BE0C40AF
3E10D444
BC2A3D5D
3E07055B
3D9E7452
BC9D32A1
3DAB01FC
BD14CC9E
3DA26826
BC55ED47
BD190FFB
3D980C15
BD8C52EF
3D20880A
3DC30CAE
3DCD3655
3DE1E5B5
3E1E8223
BDE40AE9
BCA931A5
3D88368C
3C0B8B26
3DB018AB
3D8557C7
3EA4EB66
BE16CDD2
BDD6D68F
3C170028
BC86926B
BDF2662D
3D9275D5
BDE3E7AF
3CF9CD4E
3E04D348
3D4249A3
3CE98BA2
BC9C4DA4
3D4E4F81
3CAE9DB7
3D818EB4
BD572C7A
BCD8CD80
3D7BF51B
BBF07443
3DE6A678
3D383E1E
3D9685D9
3BB08C73
BE0B7B6A
BD66D480
BE081BCA
3D9E347D
3CD8D2EA
3CCE3CBD
BC3EB2B1
3D0B55F0
3E016D20
BDF3909B
BCB70F82
3E2206F4
BE5C4785
3DF76900
3D0C7FB1
BCD69B4F
3D362947
BE8251F7
BE449C3E
BC8543A9
3DCBFAB6
3DD1D471
3E4D6DC3
3DE63FB3
BD29A461
3D2C03A3
3C501F60
3CD0724A
3CB8D4CD
3E33AC2E
3C2DAFB5
3DA043F6
BDC6E6B4
BBEE845D
3DD244F7
3E89A956
3D9E5F6A
3BB23DCA
BD467625
3E2CC709
3D124EAB
3D151E81
BCC02D63
3D0C8C15
3D9A0C64
3E0BB17B
3E64812B
BC88A577
3D55C844
BDA2524A
3E570FE8
3CB604F7
3E03FEA6
BD60E7D1
3DD7BE8A
3C563FE5
BDE44D7A
3C4886E7
3D12CF41
BE0BED02
3CF1676D
3D889E44
3B865013
BDB778F4
3BA1CE9E
3D8A4EC4
BD2A1321
BD64BF39
BE0805E0
3D0EA159
3E345200
BD8FB7BE
BD0703C3
BAF4B6FD
BE08B7A8
3DB22916
BDC82304
3D5A1FDC
3D14FC27
BDE06E45
BC96652B
3D002288
3D7A9527
BC5E7A30
BCAAACDC
BCB739FD
3D8FEED9
3D2EC7E3
3DD6DB68
BDF1AD2E
BDDABDBE
BDB08068
BB9327DA
3D1B0382
3E1E70E9
3DC7D90F
3E0AC4FB
3E102D93
3E4EEA8A
BCE6053D
BCFB429C
BDE84366
BCC64586
3DA6824A
3DF21374
3E284F8D
3E2AE06D
BC8B8105
3C351C56
3DDBA294
BE177D28
3DA42905
3D9BA550
3DB62FAB
BDA6DDD3
BE04AC02
3DB50A35
3D8D120D
3D7D468C
3A714D9B
BD5FB877
BDF59341
BC68C232
3D7A26F4
3D93E94B
3E0FBCF8
3D4CE585
3D879E1D
3DF34106
BD74B49E
BDDD2520
3E821D88
3E237BAC
3DE63E94
BDB6C2FE
BDC914D5
BD746184
BC702D45
BD9F0380
BD58CE51
3D9A4084
BE004A9F
BCAA9688
3D6A851A
BD878479
3DE7E98F
3DE7CD11
BDC0A238
3D0B4CFA
3D5B15A4
3E929DA5
3D4115F0
BC970104
BDAA7360
BC951679
3DCC392D
3D685DAF
BD809739
3D0B8BFF
3D0230AA
3D427CC2
3D657B66
3D122B32
3E6F4810
3DC99569
3D8B2B86
BE1648F8
3CD3C887
BE005CA8
BDC593FE
3CD94122
BDC7E4B8
3DA013C1
3C8D67C4
BDC3B7BE
3CC92881
BDCD4213
3E09708F
3DDBB4F6
3DD21860
3CE87EAC
BD98D28F
3E283048
3D8BACF8
3E7BD044
3CB084A0
3C89B8C7
BBCA92A0
3E0E6E81
BD2C3C64
BCCD7830
3C8CC5E1
BDF06591
3D888556
BC531E41
3D3A9DA6
BD7504E3
3DAB9350
3E2875AB
3D55A7CC
BDF7A1D2
BDE44AC6
3DCB914D
3C302215
BE283A41
3E3656D6
3DA69342
BCB7C7FD
BDB02802
3DDE4272
3DA8202A
BDD43DA3
3D92ADE8
BD8D9E54
BDB0A11A
BD598A7D
BDAB2E08
3D45A0FE
BD6F5127
BDF59135
BD2C8577
3D8073A3
3DB01DA2
3DA8A634
BC96671C
BD1EE120
BC2E5A2A
BDD1BAFA
3D2F9262
BE143132
BD3E78D5
BDDC61E0
BDCAE338
BDAE1447
3D004C34
3D577A29
BE04292D
3DBFD412
3D932AD3
3B917C80
BC44B02C
BD2DC777
BDB8EC34
BDB4500C
BD88F8D7
BD11328C
3D710A81
3D0F0C14
BE097ECF
3D9929FD
3DB7275C
BA29EF1D
BDA6EE08
BCD24354
3C034911
3D3077EF
BCE5CEA0
3D27AD08
BD21CE7A
BE1D9730
BDAF7044
3D819A10
3DEC5C64
BCCDF757
3D0F8589
3D11026A
BE065B76
BDBADA9E
BDDCFE4F
BD3F447F
BCCA79B3
3D27585B
3D490B12
3A7414A3
3DDF749C
BD661551
BC94E3BF
3DB12D7B
BE16EC2E
BD114F11
BD497D8E
3D1D8E28
BDE7EED2
BDB90A70
BCFBFB8C
3B757ABF
BC8302CC
BDF9B95F
3DE6F9FC
BD9EDDE0
BD50133D
3C696BA0
BD6FBCFD
BE03A4CE
3D69C653
BC991123
3D4C5F4A
BD7A2582
3D059486
3DE580EF
BD932DFF
BB4BC26F
3CED4BEB
BDD8D50D
3DC5057D
BDFBFEBC
BDFFB08B
BE0B5D98
BE0664FD
3D846888
BC265F41
3DD2AA96
BD6D2792
BD480FFB
BD39E4FA
3D8A4BB8
3D3DACA7
BD325240
BC9AFAA7
BD7237F2
3C046880
3A96173A
BDCBA1DF
BD54E85F
3C05433A
BDDB6C42
3DEEC828
BDE31E25
BD31F731
3D3C7F54
BC8A4B0C
3D91119C
BD9F20A6
BD84D6EC
3DAD74A2
BCC5DA84
3D423770
BDAE029F
BD80DE10
BCDD5887
3E19196F
BE23F7A7
BE24689D
3E0BB308
BD03DE98
BC038A88
BBEC7EB6
3E0C8F1F
3C06A4A3
BE24818E
BDC8A893
BD2B00A2
3C05265E
BDE5A935
BD8984D8
BD69623B
3E505DE4
3BC5EA3C
3D0E7060
3CA86512
3E9453F5
BE158374
3D9DFD1B
3E2EE266
3CC7DBC9
BD376E67
BDA75111
BDDEFFDA
3DC6DA8B
3D7C4BEC
3C999765
BCEA5412
3D9DCED9
BDEC2577
BD80191C
3E29B836
3C9703AD
3DA7DD1A
BDD5C7D4
3E22F80E
3E39F912
BD402046
3DB81C94
3D2D4D12
BC7B9398
BE1AB197
3DD4023E
3DBBFC72
BBF13D8D
3BF33170
BC4C18E0
BD24A378
BD3AFA7C
BD998C0C
BDC203E7
BD1244E2
BDDD1734
3D5C7314
BD2063BD
BC68040C
BE822BCB
BD87609E
BD2DD465
3CF3161D
BD8304D1
3DA1C19B
BE0CC1BA
BE079737
3DC32DB6
3E3BEF0A
BC3065F4
3DA8F7D4
BDE86F2F
3D5A4333
3D5FD167
3C6B04CC
BE3EFA94
BB9A06B4
3DFDAFD0
3E486A20
3D9991F8
3E13DE9F
39BE6FED
BC4F3E82
3D70E186
BD8C3900
3DF1446C
BDB9E288
3DE57CED
BCD35C86
3E00A9C8
BDEB9A1E
3E1F1F5B
BDDBB6D6
3CAAAC01
BE0316DC
3CE566B5
3D86DA7C
3E565AB9
3DED7D2D
3E0764D8
BDED3DA1
3E0A53EB
BCE47AB9
BE1CA27E
BB03BD80
3D0FE92A
3E032AD8
3D07B63C
3E754983
3DC7F235
BBFA6F1D
BE4D29C9
3CAE257D
3D866A06
BD4343CF
BDAFEA03
BD3974F1
3DD6780F
BE0796FE
BDBDAD46
3D952EF2
3D1182B4
3D939BAF
BDE302EA
BD593C57
BDEAF558
BD9ECECE
BE029133
3E1FF51D
3D197CAD
3D517F36
BCC9CFF7
BDD5869A
3CA37C62
BE728F16
3B489820
3B090CC8
3D63B64B
3950D333
BAD166D1
BD97BB3E
3E0B881F
3CF5A06E
BE12E634
BE45C94A
BDB65772
BCF6615C
3DF7A098
3D8458B3
BB26AC67
BDBAB390
3D5B0F10
3DB08D3F
BDBEA2AC
BD0BBCA4
BD15D3D3
BDA584F3
BDEF1A56
BE235D53
BE1BB863
3E19D3E3
3E17E996
3D33FF24
3E62B337
BDF056DD
3D9B57D4
BD480839
BE0661C4
BD170AD9
BD395FDF
BE1B52E9
3CA4B15A
3E2D4053
BDD99EA1
BE099EB6
BE3E4DCF
3D4A35B8
3DD68D11
BD9FBC9C
BDCA00F9
BE5CC500
BD871EFA
BE226F4C
BD54170D
BBDC5925
BD454EF5
BE0C4230
BD0412C8
3C93DFFD
BB33AA0E
BDC68123
3DD9ED1B
BE0A75C8
3E2F8A71
3B31BEC2
3DE78DFD
BCBB9322
3AD9F9D2
BD3837AE
3E13EEAA
BD4DD556
BD459227
BDF14EE5
3D984C18
BE11D482
3D7F6446
BCE254D2
3D7BCD50
BDE0D428
BDD43351
BC597EFE
3BB1C7B3
3E2E3100
BE1E1191
BE32C7C5
3DFE3B72
3E0989BA
3E2F8EC9
BDBD6A1C
BDAB9D42
3D87A671
BD31E248
3D39BAFC
BDD91511
BDD3C614
BDE5E4E1
3DDB8327
3E141DAF
3C9B09BD
BBA2B717
3E22FEB3
3DE59F0A
BDF322D8
3CE62370
3E5462A7
BE012279
BE2462FF
3E0A7A13
BD4C78A7
BCBE6912
BD98FBF4
3DD8FE12
3D519FCE
BDEFA02C
3E0395CA
3CF6ECBA
3E14C54D
3E200B06
3D6B0007
BCD04FB4
3D92D8F0
3C79E4D2
BDA95140
39CAB070
3DE809DE
BD956A29
3C9A9A7B
BE1DA089
3D3D9962
BC8434B9
BD066974
3D3CEC71
BD207AA6
3D82A249
3DCF8F85
3CAADA40
BCC5D7EE
3DEEF4C5
3C605269
3C2DB03F
BDBBF1FA
3C8AA84B
BD61BBCF
3D914C19
3D5AC753
BCE14C45
3CC8DB6D
3D537156
BDF17248
3C943A06
BD940B90
3D455779
BDEFA780
BDD7599E
3DD391A2
3CE5178F
BD07174A
BD590733
BC10196E
3D512A5E
3D855664
BD9A33E8
BE1E304B
BC2A1E00
BC87654F
3CC177DF
3D070168
BE20AE78
3DB3744E
BD30D825
BDB728F2
3E2E4267
3E6782A0
BCB2C948
3CCA6851
3DC9A34B
3DC4DD0F
BDBED2FE
3D67FD4A
3D1238F9
BD2759DB
BDFE8344
3BBEE3B8
3E7B11AB
3D8836BB
3DF23465
BD710F37
BE05127F
3CFB5224
BCFFBD88
BD2288FD
3B3EA66B
3BA6C639
3D91FB0A
3D4A8318
BD1CBC7E
BDA59114
3C57BE5D
BC56D934
BCD3C8B8
BDF4A3E3
BDA5CE9D
3D9A09C2
BCC43C9C
3D90B0FE
3DE626D7
BE12BF35
3DFD323F
3CD3AC79
BDA67343
3D1F275D
3E15F7FA
3D9D225F
3D453C26
3E25FE53
BD2D9C8F
3E2222A2
3D0397B2
3D7A9A70
BE478FA6
3E07E2B4
BDBC5071
3D09E89E
BCE5F1D9
BD1EA97A
BDA2AB68
BD87BDE7
3DCE8981
3CE59514
3CC947D0
BD7819BD
BD9D0444
BE07C473
BD88D89B
BDDFD433
BE357540
3D6441F3
3DCEE5ED
BC5C33F9
3DC9C273
3AE3A958
BB25EAA7
3E0A0E32
3CE73A64
3B7DC334
BD0170F3
3DEFDBCA
BD6B8E99
BE0E878E
3D86ED6D
3DA613E2
3DA9FEB7
3DA9AC01
3D41E531
3DA022A3
3D8D8E61
BD92F520
BDC3F2C4
BE0AB839
BE012FD5
3DB01679
3D0DB612
3DBD7EB7
3E0EE53A
3D9382B1
BE4936CC
3D2F5208
BD21CD7A
BDA04F48
BD59AF33
3E0B994C
BE283C32
3C9FBBB0
3E30832B
3B8C6154
3D2DA4CF
BDC77C3C
3D699887
BBB8E65D
BE2850DB
3CFADA8E
BDB7BAAD
BD447E66
BDE2526F
BD9B23ED
3D4E79AF
BDA1C41F
3D52B2D7
3D2D9CDA
BD04DEC2
BE1F4897
BD3BB68A
BDE9E224
BD69F255
3CBCFED7
3D64CF89
BD4B158B
3D7B73CD
3D2A5A14
3D3DF8A7
BC8BD0E1
BD868FF9
3DB8CB8C
3DB23298
BE49644F
3D8572A5
BDCFE93D
BD3C0B66
BD23E074
3E338B4B
3E24E4D5
BDA7C9C6
3C160A97
3D33F441
BDB887CA
3E6BF250
3C415D8E
BD65A370
BD996D23
3D4756C6
BDA14F50
BE0B9E58
BE0E2022
3D3007A8
BCED0470
3D53D9D7
3DCF6F13
3D351B3F
3CFABCAB
3DEA32EA
BD3DEFAD
3C8B62DF
3CF38AF1
3BA5F47F
BD78A0E8
BE8F601F
BE17FA44
BCD1113F
3D19050D
BDD1AFC4
BB311CAA
BA7FA604
3D1AAAA1
3DB18915
BE0BC2C0
BDF5108C
BE0D0A84
3E357AAF
BDB540FE
3D240A21
3C8990F5
3C43A548
BDF62E1A
3D8FB4D1
3DB4E204
BE57460F
BD1991CB
3D9D33C9
BDE6D050
3D8DD75F
BCBE9F32
BD519FFE
3D76A06A
BDD9DBA2
BD098A7A
3DA1E161
BE0DD5AE
BE1B6CD3
BDF83C62
BCA762B3
BD98D204
3D868D89
BCDB4DC6
BDDD0A65
3DF6F252
BDDB511F
BD15F535
3E568B26
BD1C7667
3C17D4ED
BDA87576
BDA21800
3DEDEBA9
3D127478
BD801D47
3DDCC65A
BD3C8797
3C981644
BDE8D8DB
BD25D612
3DDA90E8
BDF8012A
BD40F7C1
BE1A5B15
BD899537
BBD24338
3C33B0BA
BD19BEAB
3D87A645
3B8E523B
3DB93024
BDB6AE1B
3BCD8193
BC320027
3E5BF219
3C826287
3E1B0244
BDD54E65
3D50551C
BE065460
3DA1E2F4
BD657AAD
3E122CFD
3DC2DABC
BDACD935
3C01CA1C
BD9CBE6B
3E227F0A
3D86C131
BDFB97D8
BCA89102
BD9D20F3
3E2829D2
BE320E9D
3CFBD772
3D99EBE2
3DCAA7BF
BE129142
3DAF13F9
39A4F803
3DDDF72F
3D885470
BD1DE02A
3D42C89A
BE20841D
3993EE9A
BD460A00
3E4CD91C
3D9B337C
3E2C0557
3B19AC49
3D8320D2
3E5D0B97
3E5CAB5D
3DC71047
3DD3ED8C
BCC3AF74
BD9BF076
3C531AA4
BDB3F86C
BDC05A4E
BD7D41C8
3DB98E9C
BDE7A967
BC5424AE
BDDE0A2C
BCB8712B
3DDE2FDA
BE0A12D4
3C0A8DC9
BE5A5D41
3DE48E50
3E1DB417
BDEA5DE2
3DCAFD7F
BD85AE2D
BDB16B3F
BDB4DEC8
3E00D91B
3D66CD2A
3DCF8A25
BE1CE3E0
3E0F098E
BCFEB8BE
BD0E3507
BDEE79B3
3D853B86
3E2103F0
3D261A06
BDF9BF9E
BE16EF05
BCFC22B1
BC04A0AF
3CACD69F
3CC71D0E
BD0F3457
BC97D250
BB7B0007
3DB33017
3C1B32FC
3E27D35C
BDEB42E9
3CD74B86
BD279A4F
BD3B05FF
3B633ECE
3AAA201E
BD308E15
3DED366D
3B51FDBE
BDFFEC46
BE07481F
BE4E24C0
BD04AB1F
BE446732
3E1E7F2D
3DB8B2A7
3CEDA471
BDB402CE
3E136479
BD03DF30
3DC942AB
3D41A51A
3DE9B378
3DC94F9C
BDE84FFF
BE0770A9
BCEAD312
3DFE3C42
BE2C0887
BDC92BE5
BE10604B
3D37AECF
3DBE8102
3D5CB7C8
3D26FB1B
3E1819FD
BDA5D0D9
3D6AE21D
3D166759
BBB88DD0
3E059AF3
3E52F93C
3E080B1B
3CFE179C
BE88E089
3DD97D42
BD2C1F7D
BDF34FC3
BCE6956B
3D9883A3
3E0CDB3A
BDB6A98E
BCA5346C
3CACB0C3
3D30317A
BE184F2C
BCFC7D2D
BD366BD5
3D1BF58F
3D28A1C9
BDD3D395
BD455E66
3DDBBCB8
3DAFBDB1
3C82BEAE
BD4F210E
BE1E7334
BB7B74A3
3DD1114C
BD807648
BC19944D
BE5307F9
BD3BBFED
3D1B51B7
3DD0DD15
3E2A9B7A
BC46DF5C
3AE67EDC
BDD6D1A7
3E6A083C
3DB96C56
BCD375C9
3E29BFF5
3DA721BE
BCACFE41
3D81641F
BC911FC9
BC7A4B59
BD78A02E
3DE40990
3D4D82CC
BE0A078A
3CEB0533
3DCCD181
BC4FAC1D
BDED7CDE
BE133774
BE365737
3E47AFDE
3DF78931
BE8E7951
3DB18CF0
3D359281
BE3023FE
BE06FB42
BD3F06D8
BC8211E8
3D95B8B6
BDA795BB
BD7E3B08
BDA6466A
BD36E123
BE20CF99
BDB7E459
3DEA184E
BD729462
BDFF0F4D
BE1886A2
3CFCE288
3D82ECD5
BD812032
3E2B886A
3E09237D
3D842C67
3E19E931
BC2AE100
BDF920A1
BB45BA6C
BDFD2121
3BA3D96A
3E290340
3E16A4C2
BE575A23
3E154932
BDF4CB16
3CDBA848
BDB6E5E4
BE2934F5
BE1F61D7
BE0588DA
3D4D3702
BE5BD2AC
3E0C3CFD
3E014EBC
BD577A56
3D8A91E8
3CF8EF2E
BB473428
BE01AD88
3E1DF414
BD2C0C70
3C8F2531
3D70D47A
3DA8E575
3DD6146F
BDCB440B
BDBEF07F
3DD43108
3B49BDF1
3D0856A7
3DAC30D6
3DB24A31
3CA0DB38
3BCDB55C
3E1600B5
B91FA9B9
3E3A4FBE
BBF24EC1
BD534896
BDD05516
BD8D9E4F
BDD9887E
BE221891
BDF46684
3DC6115B
3D64497D
3D262EE8
3D67BE02
BD97E9FA
BD0FADEB
3DD6210D
BC3769BC
3E1387B7
BD5DFEA7
BD52A701
3DD75CC1
3D17032E
3C997ACD
3D7ABB15
3CA1CD0C
BD8D0854
BD6496C6
BCB22B93
BD1BFB99
3E241FB0
3CF44BB0
3D46C1B8
BE488954
3DC96FA6
BE4BA127
3D9CFB6E
BCEB4F0F
BE57ACC3
3D9F9B20
3D4DB919
BE15B948
BDAE4020
BC116DDE
BC1AAF50
3DCB558E
BDEB68A4
3E6F5A1D
3D1204C7
BE1944F3
BCFD743E
BC9B7423
BD385D6E
BD577B88
BDD29135
3CCDFF2B
3D66039E
3E06EF9F
BE3273D0
3E6A1D7C
BE041C48
3EB9E428
3D9CBD6E
3BD1FADF
3D32CEB6
BC9DB64B
BD763252
BE3DF272
3CCC9909
BAE06551
BD3CA2B6
BC4BCE67
BE17D7AB
BD8B175F
3DBA4C0D
BDD8C1BF
BCDE6EC9
BD8B14E2
3DC34656
BE18B57C
3DF56805
3DC5F654
3CEAB0E1
3DCB8319
3DEEB22A
BD165829
BD84704E
BD999F18
3D9F9A61
BCE1E8F3
BDBDDDF8
3DE8A283
3E086569
3D491757
3A77B859
BD8142B4
3E52B2F2
BCD1D7C9
BE3E76DC
BCA0328A
BD7238BE
BC7474D5
BDF062DC
3E5C4B1A
BDEF0076
BE4742F9
BD52A845
3B9246CF
BE07E00A
3DC90D8E
3D792581
BD586B20
BE3E28FB
BCF8C22B
3DD0904C
3DA97474
BDC4062C
BD0C27C8
BC5250AA
3BA5A1FF
BCF0F201
BD8A6DC1
3CD34865
BE1EBB5E
3D98B27E
3E1693A0
3E14D021
BE5E3064
3CBD3260
BDDAE3AA
3EB6EBBC
3DCFF204
BDC92382
BC9B3389
3E064FCB
BDBA244F
BD6D8A4E
3CF5ED1D
3E203442
3DD73DE3
3D4ADE51
BE596A3D
3CBD98BD
BDB50D53
3CA1105B
3DEA9FAA
BC61B112
BDBC818E
3DE028D0
BD90970F
3C5085BC
BD98BF43
3DE990F9
3E1B9101
BE25E216
BDFFD469
BDA167E7
BDB7074B
3E5AA6E6
BCF4DEF5
3DC28F10
3D913F71
3D69C360
3D21529B
3DD4E0B5
3E40B337
BDF77859
3E06206D
BD0708F0
3DB9F199
BDD66D2A
3DB0AC71
BDE4AD4D
BD52BBA0
BDD98750
BC4D2C55
3C296C05
BD40989E
3BD425EE
3E6CEFC1
3E013B8A
3DC006CC
BE3718EE
3C16A3C9
3D00E3D1
BD7BC700
BDAFF0F6
3E368031
BDFFDE2B
3E6C04B7
BD8D66C2
B8B030FC
BC88A3A2
BD3D8FD3
BC94984E
BDC42991
BC05C3A7
3CE00EFB
3DCA4488
3DD351A0
3D152953
3D51C69F
BD7BC7B0
BE106EEC
3BD3C659
3C91C181
3E2EF492
3DC91BFF
3E000B2F
BD10D79B
3DBA0C3A
3D43871D
BD040A59
BDD3ECA7
BCCD9511
BD6EF0D8
3CB89D86
3CCF9570
3C432401
3E0ED547
3D945385
3D978058
BE370B8C
BDB50D60
3DD9631E
3DFF4590
BC3D6A1F
3BA7A0A6
3E19B4F8
BD7A409F
BE57AF99
3D9DBBF3
3C2B9AB5
BE236F3A
BDD8330D
3E23C297
3DCEC816
BDBB5D78
3E20CA85
BD8DE7F7
3C9BF6B6
BCC89105
BDC97E92
3CD2561F
BCE6A817
3E53D5D7
3DAEA38A
BDD3D567
3DB77E5F
BDB2D580
BC297F1D
BDBBEAC7
BE27EF14
3E54C803
BDC53566
3D386151
3DDA4B99
BD7B5360
BDFC61C3
BE130CFB
3DB5D851
3DE47904
3CD15489
3DBFF345
BD3A1D94
3DE5A079
3ACEA341
BDC2255D
BCEA59DE
BD11B9B3
BDFAE531
3CF668E9
3B611E10
3D0C9F9C
3E890055
3E1DE57B
BDBC5324
BE0AB91B
BC8F9F7A
BE16C262
3DD91331
3ACCBD84
BE3FB347
BC08BF0D
BD456F0C
BE57B7C9
3C9AD271
3C42994D
BD1EAD38
3E19A166
3D485119
3DF5D50F
3DB318BD
BBF9EB43
3DFDF326
3DD5A25E
BE92EF0F
BE21F809
3D8E1C8A
BD95665E
3DBC218E
3DCE6B60
3D1C24F4
3D24D86E
BCC82C05
3DA9A41E
BDE71222
BB90D58B
3D852E6D
3C0F49A0
3CC6BBFE
3DE260DF
3D70DB66
3DF4F931
BD0E9327
BD181C46
3D9D1C59
BD8E966C
BD3F2FA9
BC48CC87
3D82FEE3
BD0ECB73
3E1C2858
3D011DF9
BBDAC45C
BD9517A5
BC3330E6
3E0AD72B
BBB48618
BD8A89D4
3D1F430F
BD7EBB84
BE0BB448
3DBD79B7
3DD22751
3DA78A96
3DF3C99D
BD8B01DF
BCD16E4D
BDB77E7A
3C68ABD5
3D1CACDF
3E1720EE
3C0F4864
3DCC7FEA
BDD41CB8
3D263120
3DF34608
3E3A7C4A
3D891598
3DB43FF1
BC75404C
BE54CA17
BD6AE38B
3C3AF35A
BE9621A3
BDC6E317
3C0E40ED
BD474087
BE75799C
3C8AFBC7
3E01EC71
BD6A0F52
3CE4EC17
BD5659D7
3D699514
BDCE36D0
BAD5A38B
3A8D05FF
3DF1D56B
3DB87CD0
3D2B7756
BD88D51E
BC95A37E
3BDE2DFE
3CC311C5
BD77FE78
3C0508AA
BDAD40AA
3D470258
3AD46345
BD78A0C1
3C8C8056
3C75466D
BD6E9206
3D589E50
BB85A12C
BDF10696
3B7D8CF6
BDE8A67C
BADF4FE1
3D9EA586
BE0104F7
3DBC4EF0
BCC5556C
BBA93812
3DE16117
BD84FC6A
BC6BA611
BCF8CF44
BDDE3B19
BD6F3840
BD7DD700
BDB21B42
BD7D7D40
BC5038E5
BDBFFDF6
BDFAE76E
BDFAC3D8
3D65F833
BC9D8616
3CED92C5
BD172B50
3C668491
BDBF1ABF
BCDAAF40
3D8C0558
3DDA5D32
3C8700D5
BD371FD9
BDDF4465
BCCD7E95
BD82A1BC
3D9C67F3
3D9A2268
3CF105EE
BDF81948
3DF79436
3DD347BF
BDAF1B99
3D7AF60D
BD80092B
3DD79D2F
3D784E77
BCAFEA04
3E0E9F65
BDA3AEE2
BC871A10
BDB895D6
BD333173
BCCB589A
3DBDFED8
BC2DE40F
BCE952AF
3D3723F1
BDDE48E9
BD78042F
BDCCCD55
3C40D36C
BDE6A242
BDDD5EC2
BDBF3B88
BD1F561E
3DC01604
BDBE3B8B
BDB9C5BB
3D2D2354
BDD0AEF1
3DDBCDFD
3D03F0AB
3B898240
BB6A8DAA
3D21D019
3DD4BD4C
3CF3F9BC
BDEDA342
BD9E4A01
BD5F3299
BE1752A7
BDBFA3A9
BD352F74
BD6824E8
BDF12489
BDD212AD
BC39DF80
3D853063
3BCFE5C4
BDDF2844
BD258F21
BD105D66
3D7645A8
3D852B8C
3BC0A065
3DD9B9EC
3CDAD8A1
3C7DA300
3D8F89A2
3DF78367
3D0CF6C4
3D136D30
BD1E9B1F
3C3EABF5
BE074896
BB5C8584
3DCCE409
BB1C05D9
3D750168
BCA23B77
BDACE7FC
3D0A9E9E
BDC079C2
3DDCE86B
3CDDEE72
3E005E71
BE09B7EF
3DDF4F48
3CD9D16B
BD7C17E9
BE21AFA6
3D88E4F8
BDD8EC32
3D9E1694
3E042336
BD833830
BC10CC37
BDC402C0
3D558EAC
3D8231A7
3E17ACCF
3E58463B
BD0D0F1C
3D49DAA7
BDC3AA33
BDF1557F
BAE31F31
3C722E2B
BA64CCE4
3E2705C4
BD2214D7
3E43E360
3DB74C66
3DA586C6
BD97F2DD
BE139E39
3DE8AB34
BDA7EA6C
BD9B04EC
3E42D00D
3C691BC3
3B428C82
BE1DF096
BE8876D1
BD683E12
3DEE2980
3DBB4908
3E02478D
3C821281
3CC6C601
3D55321B
3D8F2A82
3D865F61
3E2C7A9A
BD93BCEC
BDE9812C
3DD84D3C
BC42CC1E
3E5DE175
BD929B86
3CC74126
BE02CCFF
BE11858A
3C8B5436
3DD947CF
3D78A079
3D8CEC1E
BD9E0D6C
3E03F0ED
3D645A9F
BDAFFD5C
BD6AEFC7
BCE3CDFA
BD8363A2
BD67B2A7
BC0833DB
BCEF8200
BCEEFF1A
BC44C086
3BF83353
3BEBCD12
3D3F798F
3C45311D
BD7C8C45
3DF1C3CA
BD377B3C
3CB036F4
BD70CEAF
3E2CAC2A
3D298669
3C439F94
BD45E779
3DC177BC
3E38390B
3C0AE213
BD4388FE
BDEA2B14
3D942783
BDC5AC15
BD56348E
3D98836F
BD020C8E
3D0EAF5D
3DC2CADB
3DB8AEDB
3DC60A20
BD3FD25D
3DB8A620
BD051E37
3D613798
BE0B3B13
BCD5F648
3E0797A5
3BFE4A89
BD6879D2
3D5A2DFC
BDD0AEF2
BD889D92
3C6C0867
3D5440C6
3D18FD23
BCDA6A99
3DB68047
BC82381D
BD819B8C
BD5C1B97
BD2A0A1A
BDFD2F3B
3C9E4780
BA6F7107
BDD483D2
BDF38F43
3D617219
BD63C54D
BD171AB5
BD91F974
3D30E806
3D0357AB
3CD1F7F2
BDBBC8D9
BD98703E
3DAD48C0
3D6F1457
3C9390E0
BDD2D9AC
BC7B138B
BC876D5A
3B601738
BC53BAA8
3D14A24B
3D4A21FF
BD529788
BD854B9C
BD273DCD
BBF23665
BD66B2FE
BDE026BC
3DAA6465
BD014BF8
BD1F6BE0
3DA6F7CB
3D5A9124
3D5C7C20
BDB8A82C
BD216B01
3C7873A9
3B89E7CD
BD23ED00
3DB0AFF2
3DDD5A69
BC02CD9C
3D1EF996
3D53B05C
3D2EA600
BDCB6B54
BC96E166
3D1EE9A6
3D1C2866
BDA51AF4
3D69EA10
3DD34A2E
BD7CD166
3D3092E4
BE0717E9
BDFB1931
BDD2C76A
BDB44C7C
3DB65626
BDD95ABF
BDA82785
3C4ED910
3D4DE54E
BD0091DB
BBB794F1
3D300ACE
3CE4FA30
BD95F44B
3D3CA5C4
BCFA97A8
3DA43B6D
3DCF24EE
BD3FF854
3DAA5C7D
3C8D240B
BD446C77
BE09C089
BDEB41DE
BC62060A
BC3F845A
BDC42AD2
BBCB79E2
3DDE4864
BDF513E4
BDBAFB85
3C5E132A
BD925590
3B5FF9CE
3D989CF2
BDE3AE32
BE0165A7
BDF11224
BD2EE38E
BD459E50
3D7B95BE
3C886B85
3D27547A
3D2BF9F6
3D369758
BC8DDB45
3DD1F4EC
BD6A4C95
BD42508D
BDA900C8
BD7713C9
3B3A609F
BB42F1DF
BB658C26
3DDF5701
BCA53559
BD90FA48
3B8AEE11
BC0C0C3C
BD257892
3D1A7B71
3D875FE1
3DC72860
BDED0864
3D82F555
BDF596F7
3D5FD5DE
BD96820D
3D4A33F5
BC1857DA
BE17A538
BD3818B2
BD518C95
3D93BD34
BDB38E8A
BE22E7AA
3DC9871B
3D97C283
BDCF637B
BDBB3DC2
BDAAEC44
3CEA103F
3DD8CFAF
3C8B4F8C
BDD65B88
BD61FD7A
BCDB51D4
BCC35A86
BD81ECCC
3DCB84B0
3D2571A1
3DC77355
BC51A46C
BD9F5E1F
3D791667
BE05F87E
BCDE8350
BD5A93D0
3DDAF5A1
BDD8BA53
BD4011BD
3D0D41F1
BE1ECE4B
BD3C30B3
3D0E4471
3CD5CEF7
3D669CC1
3D3E1AF9
BD76FDE7
3CEFBA7E
3C788897
3D887A0A
3CF1E87E
BDC3D72B
BD1B3832
BE34A043
3D4341A4
3E20E399
BCAF7320
BDAE87A4
3CDE2072
BDE49D7A
BD0D3927
BC3C8698
3C914BC2
BA6A3C9E
BDE2ED5E
3E4BF70D
3C94E7C5
BE11F25C
3E4A6C25
BDB6BF82
3D53215D
3D79316F
BD803094
3D1ACE1C
BD992BAF
BDA4459D
BCA56A4E
3DD6E63D
3D315140
BE02545C
3C91A591
BCF39037
BAB7A155
BCB3E91B
BCB84CFB
3D57F4C6
3DE39199
BDB315A4
3CDC0B70
BC6EAD5C
BB95F08B
3DBA3E78
3D4E1604
BD8466C9
3DAFD352
BD997074
BCD91946
BE04A836
BAEEA6E0
BC8C59FA
BD098B65
3B6C7CAA
BD05866F
BD011D92
3D55893B
3DBFE9A4
BD0D0D25
3D75F327
BD0C17B9
BD88B87E
BE111B9E
BCE85A27
3D358720
3DCA048D
3B8753D4
BDD2F6EB
3D0C5DEF
3DD781EB
BABD2805
BD4C2AD4
3DA87416
BC577748
BD1C017B
3CEADC2F
BDF5E50A
BDA41161
3BB26528
BE2BA340
BDBE5EE1
BD928741
3C71AB1A
BB72507B
3C8C6C8E
BDD91EEE
BDADBA62
BDE53907
3D9B4EA0
3DD8EAF0
BDB5CC55
BD5B5A20
BDCDF180
BC42CDCA
3D8AC3AC
BD17F7D0
BDC5258F
3D3BD270
BD171653
BDC64CDC
3D834215
3D17F090
BDF1D45E
BD36C928
BD9DCA5F
3DD847AD
BC973BC0
BD8D0020
3D70B888
3DEB07F4
3D8B33F4
3C946786
BC978EB0
BDE01FB0
3D8F7788
3D4B7AFE
3D70EDA0
BDAC8DFC
BD0B76CE
3C5B4D40
BD371A00
BD0EDF62
BDD28F08
3D9D641C
3BE185DD
BCB5ABB0
3DCF89D0
3CCBB4EF
BCC481A9
BD371730
BD804638
3A1ABC00
BCCA2440
3D4FB008
BD319ED8
BDD98802
BDD41124
3DB062DC
3CF34FA0
3C729240
BD3D2868
BC9311ED
BD3F85F1
3A2AB600
3D7D3490
3DA6D07F
BD90B294
BD6C409D
3C88B850
3DA4FBE4
BD535658
BDF39162
BC837E90
BB1F0900
3D70A510
BDF2A4B1
BDDE96E4
BD0E7370
BDBCBCF0
BC809C04
3DAA3BB9
BD95B1F0
BC847640
B8218000
BDD8D3D0
BDA28F9C
3D7DC9C0
BDD28504
BCC43E87
BD1A308F
BDA23484
3C9789C0
BDC7E5AC
BE12C776
3AC39A00
BDA9FC50
BD917ECC
BCEF8B08
BDDF3BF5
3D57D7D2
BC86B3B0
3D25DBA0
3DC5E0EE
3D4DFEF1
3DA931B9
BDDF4726
3DB55C0B
3DF235C0
BE1266CD
BDECC72C
BDEDFDA8
BC781C8E
3D69A938
BD20055D
BD7D0265
3D9E545C
BDDF7EA4
3A505A00
BD89BA19
3D01ED40
BD7E2AF8
3DA84DD0
BD3B0490
BE0408B9
BDD90D90
3D84ED9B
3D04D4E8
BDAF4864
BDD4C5D4
BBEB138D
BD635E60
3DBB707C
3D9CBF19
BD617482
3E5F2835
3CB74C94
3DCE156B
3DE429E6
3BFEEDE4
3DEC0E60
BDA804F6
3DF13E16
BD2C3051
BD70EE84
BD3CC0EE
3DC91B91
3C744CA2
BCD2C457
BD39F92B
3D7BF5E7
3DDC8CCF
3E234559
BDC5B454
3C17B616
3CF6226A
3E79DCF8
3E04254A
BD9F0FE6
BDF308B7
BD799B87
BDEEBC29
BE228227
BD7049D7
3C68426F
BCDEB38A
BDAD150C
BE0F4BDE
3E196114
3E11CF95
3E77A8FD
BCE427A3
3D1CC4B9
3DACF795
3DDFC200
BCA767C3
3E0AD22E
3DEE05A1
3E4E6946
BDF52441
3D8AE644
BE196CD6
BE2A6A82
BDA5D3AB
3DCE2574
3D9565FD
BDACADD6
BDAD15C0
3DE929DA
BCC23CC7
BCFCFA8A
3D575E57
3DCC2385
3E2A579F
3DF89BF0
3E102EE7
3C76F655
BD0C6DFC
BD03DDDC
3DA42A71
3CE32DFC
3DD6A1CD
3DD79F6E
BC8D2E8E
BC7CA5D6
BD3B6B59
3D39F70C
3CE70BC3
3C87D692
3E08B908
BE0295EB
3E1F2FB0
3D487732
3DBFCFA9
3DE19909
3DCDAC89
BD8AF3A6
BDF9ADE4
BD71AF3D
3DDD04F9
BE0CAE79
3E255FD1
BDD8F14D
BDF3C99C
3D7A06AC
3CCE1E15
3E2F2E67
3DDA71B5
BD2692B8
BD2A9B48
3DF74C12
3BBD8232
BCC0F0A4
BE2AE1E3
3E28572D
BC3415DE
BCE79A0B
BD1AC107
BD183143
BCB51160
3DE286F7
3DBC98BC
BC19C21B
BBBA990A
3C35C772
BC5F54B5
3DC79C63
3D56C319
3D8BFD74
3C4CB966
3DEF6B1C
BD45F4E0
3DD0A2A9
BDBE4CB5
3D8BB09A
3D46639E
3D4CF866
BB981C3E
3E13F314
BD4F0DF3
3DDA9D9A
3DA3DA96
3C06FBC1
3E17CD68
3DB97E43
3DE70048
BD40385E
BC25D7EB
3C732AA7
BD6FCE7F
3DFD524B
BD83B123
BE174751
3C9BDF88
BCD39927
BD237EF2
BD928E52
BD51CEE0
3C9ED930
