BC664DE2
3BF48A96
3B56EE19
BCD2EDDF
3B99A1A1
BC9F588F
BC446EC0
BCDCD1D1
BC127083
3C3B9B5E
3BF378DF
3C6BDE09
BC0CC2A5
BCB88641
BC5F03BA
BAFAF0A1
BC1137E7
3D4340F2
3C1B0CA6
BCBA1665
3BB5C73C
BC53DADC
3B8F3BAA
BC8E92DA
BD22B64E
3D051C99
3D0726EB
3CBF6D68
3C96EE7C
BC2F106D
3C3D11BE
3C71BF65
BC123206
BC00BACE
3C88371B
BCBC5C7B
BC1330A0
3B9F5E66
BB1B7509
3C80B925
BA315063
BB8CFCF4
BC0BB271
3C2610F3
3C6421F2
3D396EEF
3D0CA3FA
3D09441A
BAEB258C
BC8697A6
3C0FFAA7
BB99A7BD
BD120FE6
BC1DEA75
BB996AC9
3BE59170
BB240901
3D22BD57
3D096D97
3CD398D1
3B0D2AE6
3CF639E5
BC878AC0
BC3C5BA1
3CDF9420
3CFB9F99
BCEBDFA4
3BAD53B8
BAD627BA
3BF95E1C
3B8B1351
BB8703D7
BC38033B
3BB961FA
BCB104B9
BCBD9F93
BCB181E3
3D023F90
3C124E47
BB20AB2D
BC788708
BC60E737
B9D54DFE
3BB314A9
3C531596
BC8EDF7C
3D222999
3CB05522
3D1117B9
3D29CD70
3CE7B3F7
BC47C01D
3CEDD733
BD130263
3BF6ECBF
3D1BFB23
3BF1454A
BBE8BB89
BD0A69DE
BC9198AB
BBC595ED
BC832443
BC91A30D
BB359F92
BC44D314
3C4F1EFC
3AC2C7D9
3D635011
BC0159B1
3C7A022B
BCD3EE08
BC3775F6
3C3306E8
BB6DA06B
3BF434D5
BC83F4F8
3D01AF38
3C4FBE4F
BCD58CB0
3CC9EC9A
BBF98F52
BC99F0DF
BC91DD87
3A8C7647
3CCC19B6
3BD05D09
3B939A20
BCAE1398
BC7400C8
BCF9D770
BAA0B178
B8042EC4
3C94F54C
B9088CB5
3C2C8502
BD0DDB5A
3D621321
3BA8C5F4
3D02270E
BCC0755B
B998B18F
BC18D9AD
3CEB91BE
BCCDECC6
3B121112
3CF12A41
3B3C4F53
3CD6CF09
BA87694A
BC785C83
BCA50FB0
3B9BB772
BA9506FE
3D1FB9DB
3AE18B24
BC6405CB
3CECD693
BC83DCA3
BB00EDC6
BC8CAD6C
3C8FF408
3ACD323B
BCB48DEE
3CBFE459
3D43B25B
BC860EBE
BC452535
BD1C5B69
BC80588D
3BF69649
3C9606D7
BC1E1C9F
3C97C1E6
3D216A91
3CD3356A
3C97FA77
3BF37891
BCC13314
BCDC02ED
3CC78F50
BBADD74F
3D25A8EB
3B65A065
BCBB9C67
3CB54AD2
3C9B33CF
3B0554EE
3BB9254B
3C2B7F95
BC641B70
3D0A81F6
BC2A7A3A
BC959063
BCAE88D6
3C88CB66
BB838807
BCB71E33
3CC6DF10
3D3FAEEF
BCE3E643
3C2F33BE
BC52B0A1
BBB8AA08
3C64E1E5
3D29F33F
BCB3452E
BC028D46
3C865613
BC38A3D8
3CE7FF0F
3C6566BF
3CB87C77
BB52CBA0
3C9861EC
BAAB3005
BB8F7387
3B161DD3
3C74C88D
3C2702DF
BB861266
BAB092F3
BC002ADC
3BB16D23
39EBD411
3C5A16CF
BB5B5485
BD4650B7
3D1CB14E
3A266CA5
BC52AE19
BC775330
3CF7AAA3
3B1E3324
3CD395C5
BC78C3BE
3BF1C931
BC85B1C5
3BDF931B
BCF90A03
3C0DD7EA
3D2106BB
BCC025F2
3A491D9F
3C3ABB76
3D205549
BC285357
00000000
BD075F98
3B5D35B7
3C9A6BDE
BAD68487
BD002C8A
BBA14E80
BD358071
3CC67B8B
BC693BBF

