BEE040BC
3E0A7C9E
3DFBBDFC
BD963497
BCB8250A
BD526AC3
3E01131C
BE65EDB2
3D4652CE
3D9BA8E5
BF0D7FA4
3C422463
BE431E31
BE1518B9
BEC9EC92
3D54359D
BE26D905
3ED839CA
BBBCEACD
BE89EB7D
3F5445AC
3DE3E16C
3F077771
3D61A0AF
3E21799E
BEDDF2F5
BCA59135
3DA13D11
3E6F2802
3DB182A0
BE1E264A
BD253A32

