BF849AF9
3FE9A24F
3FFCC33A
3C35325F
3E68D584
3E80B76F
3F88CA0D
3F4A691E
401316EA
BE275056
BE742CF4
BD34BB51
C019DA1B
3FB940D0
C0287AEF
BE16CA53
BE89304C
BD977C91
40026425
3E7825A5
BDF881DE
3D821DE6
3E0F36BB
BE2BEBB7
3FCF3DBC
BEB382DC
40392BC4
BE01AF19
3D9F9CA0
3CC7C19E
BEB77743
BFF60EE4
3FA41C2E
3E8B3048
BE732CBF
BE0F44AE
3E2DB7BE
3F9AED3C
BFFFA39F
BE91642D
BE239064
BE2A1197
3FD073F7
BFE0DC5B
3E48BAB0
BDBDAE5E
BC6DFF9F
BE24CCD2
3FC765A8
BFA06317
BFEE0D00
BE8E7259
3E692876
3DA7C889
BFBCA576
BF5325A8
3FD6F0CD
BD0BFD79
3C50E562
BC91459E
3E135C9F
BEE3727E
3F832929
BE262970
BD5CA175
3D922B68
3FD3DD60
BF13CCB4
BFFA2CA9
BE167E7B
3DAD75E6
3A9341F6
40002BC7
BEF6B21E
BF7C7F2F
3E548355
BD825F32
3E0EBC4C
4013D03A
BF27A701
BFE28CA6
3E5871A2
BD69E877
3E47A128
BFDC4B93
3F276640
BFBE184C
BDC9E95A
3E1A2C4A
3D929A2C
BFA3E95A
3F9ACDB3
BE3FBCEF
3E5202FA
3E30C80E
3DA0FB49
BFBC90EB
3FCF8A9D
400D0A69
BE7D1841
BD302F4C
BD40DD54
BF895232
BF12CCED
BFFF7E5A
BE93D7CD
BE157285
3E66A00D
BFD9141E
3F7305E9
401630FB
BC5223E9
3D6FDEC1
3CDF04B6
BE9D8BAA
3FC17D53
400324BD
3E11667A
BEA10C12
BE7B5708
BF3B4BE5
C01A633F
3F2D9022
3DEE2C3F
BE4D60EB
3E2459EF
3EBE0768
BDE352E6
C01852EE
BE330013
3DBCE0B0
BE863E02
BFBCD5B9
BE90DAB2
BCC7099C
BE49F367
3D9520AB
BD0D2F80
C00BCB7D
3EC6C2FD
400164D2
3C42E5D0
BDC3E637
BD169DDD
BF58C4F7
C007FC37
3F762DC6
BE5807D4
3E306AF5
3DA07BC6
3FA53BA5
3FCEDD79
C023CE2B
3BA30CA9
BDB4983D
3E1CF176
3FB340A0
3E5261B4
BF909318
BE31204C
BE0B23D1
3D5C07F9
C00911B5
3F86CA9F
BFF7232B
3E09E53E
3E6E0423
BE1D1B5A
3F4C87DE
BF8C9F68
C03E7730
3D644BDE
BD0A557D
3D280BF8
3FE9CC2D
BF519FD3
BF8C1FC1
3D8BE568
3E14289D
BE92124F
BF8C3CDC
BEE80C62
40282EAF
BE379D2C
3DC20810
3E594D08
401E876B
BF89D31D
BF23A620
BE4E2AF7
BE4FD4EE
3B1BA292

