3BBC7366
BCB60B53
BCC7B222
BD626529
3CFEA6E7
3CC613AB
BC775DFE
3B70C75D
3C321F61
BC88EBD2
BCDF1D93
3CBBA654
BCA0BE9F
BAD06331
3C4C7494
BCD3C9DD
3A275B55
BC13CEDB
3CA044B1
BBEDBB82
BD0303B2
3B25DCA5
3B84EA06
BC9EB5AD
3C3227BF
BBC8E623
BC02D8DE
3CDFC0FC
BBF3FC85
BCBC0061
BD14EADF
3963E1EC
3B8477F3
3C9EBBBE
BCBA3243
BBDDA989
BD4D48C5
3BC6A43F
BBA7496F
BCB47594
3C44C029
3C29E0ED
BCDFE8FA
BCE59EE5
BD1DA0D3
00000000
BCBD40F2
3CFD4BB3
BCE07FD8
3C96E1A9
BC54BA52
3CDF9A4C
3CC10DA7
BBEB24FC
BCEB4A48
BCB09011
BD0ED107
3C400293
BC95C20B
BC6AD8A5
BC6B3EF2
BC5976F1
BCB3863A
BCAEC32B
00000000
BD0EBEC5
BC5BF310
00000000
BC4A8029
BB1D6FF5
BC3A6E04
3C9FC5AB
BBA6D17E
3B8B9A8C
3C21552E
00000000
3D00FB13
BCCEC0CE
3C1CCCF8
BBF17F76
3D0FB841
BC0BCD1B
3BF5D921
BC0D9445
3C041229
BC61639B
BCC8A8F8
3CAA51E0
BCAC137C
39DA9426
BD4704D1
3C7C2EDA
3C43DC50
BD0AC3C5
BCD29E97
BCE025FF
3C6856C9
BCAB0999
BC32736A
3AD63F63
BD0BFB39
3CC85A09
BB324C18
BCF3AD89
BCBEA073
3B2481A9
BCF31E46
B8A88632
BC08150E
BC10B50E
BAF13E26
BCC6894E

