BD3B569A
BC3CBF03
00000000
3C5D6CA8
BCBFAC6D
BC48E76F
BC7E4EE7
00000000
BC2E3425
3CE59AE1
3C80F2ED
BC093803
00000000
BC30A16A
BCA80A50
00000000
00000000
BCE70FD3
3C6CCC66
00000000
3C6A2983
BC884484
BBECE3AA
BC1FDF97
00000000
BC08172C
BCFF2615
BC07AF4E
B9F6FED6
BD0B3971
00000000
00000000
BC8021AA
3B8E7183
BD250CAC
00000000
00000000
BACDB394
00000000
BC5C6155
3BB3BEEC
00000000
3C0D6DF3
00000000
3C1D28E0
BC0CDC72
00000000
BC238E2B
BC00C7A1
00000000
00000000
00000000
3C8C989D
BCC8DCF9
BD16F892
00000000
BCDDF1FF
BB47F14A
BD528083
00000000
BCA4779A
BC497032
BC073E24
BD0CDF0F
BD533897
BBE65349
3CC2E99C
00000000
BC282EFD
BCD29870
BC6DC882
BBB43E3A
BD2F3938
BCB6A1B3
3BA8DB8E
00000000
BC4A10C2
BBD74F5F
BC972084
BCB2732D
00000000
3B288BE3
BC5F2203
BD19CD05
3C872435
BC3643C4
B85253CC
BCD0BD06
BBC4B954
3AE1A484
3C50F811
3C750C86
BBDE96B0
BC9B116F
00000000
BD1B6C2D
BCDA8AA1
BC39D3AB
00000000
BC8D29D1
3BEA968A
BB3D3B98
BD0ABDDC
BCCFA16A
BBECDC2F
BC66561A
00000000
00000000
00000000
BD1BEA87
BC864F69
3BD0EFA9

